{"<s>":0,"<pad>":1,"</s>":2,"<unk>":3,"<mask>":4,"!":5,"(":6,")":7,",":8,".":9,":":10,";":11,"<":12,">":13,"?":14,"[":15,"]":16,"¡":17,"¢":18,"£":19,"¤":20,"¥":21,"¦":22,"§":23,"¨":24,"©":25,"ª":26,"«":27,"¬":28,"®":29,"¯":30,"°":31,"±":32,"²":33,"³":34,"´":35,"µ":36,"¶":37,"·":38,"¸":39,"¹":40,"º":41,"»":42,"¼":43,"½":44,"¾":45,"¿":46,"â":47,"ã":48,"ä":49,"å":50,"æ":51,"ç":52,"è":53,"é":54,"Ċ":55,"Ġ":56,"Ģ":57,"ģ":58,"Ĥ":59,"ĥ":60,"Ħ":61,"ħ":62,"Ĩ":63,"ĩ":64,"Ī":65,"ī":66,"Ĭ":67,"ĭ":68,"Į":69,"į":70,"İ":71,"ı":72,"Ĳ":73,"ĳ":74,"Ĵ":75,"ĵ":76,"Ķ":77,"ķ":78,"ĸ":79,"Ĺ":80,"ĺ":81,"Ļ":82,"ļ":83,"Ľ":84,"ľ":85,"Ŀ":86,"ŀ":87,"Ł":88,"ł":89,"Ń":90,"ä¸":91,"ãĢ":92,"ãĢĤ":93,"âĢ":94,"äº":95,"åħ":96,"ä¹":97,"å¤":98,"æĽ":99,"åı":100,"åĲ":101,"âĢľ":102,"âĢĿ":103,"ä»":104,":âĢľ":105,"æĽ°":106,"ä¹ĭ":107,"å°":108,"æĿ":109,"åĨ":110,"æľ":111,"ä¸į":112,"åį":113,"å¾":114,"å®":115,"ä½":116,"æĹ":117,"æŃ":118,"åĪ":119,"åŃ":120,"å¼":121,"æĺ":122,"äºº":123,"ãĢĤâĢĿ":124,"åĨĽ":125,"è¯":126,"èĢ":127,"åħµ":128,"åĽ":129,"å¿":130,"é©":131,"æķ":132,"èĩ":133,"å¤§":134,"è¿":135,"ä¸Ģ":136,"è§":137,"é©¬":138,"å°Ĩ":139,"èµ":140,"å·":141,"æĪ":142,"ä¼":143,"çİ":144,"æĿ¥":145,"åĩ":146,"æĵ":147,"éĹ":148,"æ±":149,"å¸":150,"ãĢģ":151,"è®":152,"ĠĊ":153,"æľī":154,"çĽ":155,"æĸ":156,"æī":157,"æĵį":158,"æŃ¤":159,"åİ":160,"ç»":161,"éģ":162,"ä¸ĭ":163,"äºİ":164,"åľ":165,"ä¸Ń":166,"æĬ":167,"ä¸º":168,"çŁ":169,"çĶ":170,"è§ģ":171,"èĢĮ":172,"è°":173,"åĬ":174,"éĢ":175,"ä½ķ":176,"å¹":177,"å½":178,"åĩº":179,"åĲ¾":180,"éĻ":181,"æĢ":182,"éĥ":183,"ä¾":184,"åı¯":185,"è´":186,"ä¹Ł":187,"å¯":188,"å¾·":189,"å¦":190,"åĳ":191,"åĲİ":192,"ä»¥":193,"æĺİ":194,"å¥":195,"?âĢĿ":196,"æĽ¹":197,"åħ¬":198,"ä¸Ĭ":199,"åī":200,"è¡":201,"å±":202,"çļ":203,"åŁ":204,"ä»Ĭ":205,"çİĦ":206,"ä¸İ":207,"éĺ":208,"å¼ł":209,"æĭ":210,"åİ»":211,"åħ¶":212,"çŃ":213,"çİĦå¾·":214,"æ¬":215,"æĹ¥":216,"åŁİ":217,"èĥ":218,"ä»¤":219,"åŃĶ":220,"!âĢĿ":221,"ä¹ĥ":222,"è¾":223,"èĭ":224,"èĩª":225,"åº":226,"å£":227,"äºĮ":228,"åĽŀ":229,"åŃĶæĺİ":230,"éĿ":231,"å¼ķ":232,"¨Ģ":233,"è¨Ģ":234,"å¦Ĥ":235,"åľ¨":236,"æĥ":237,"æĺ¯":238,"åħ¥":239,"çĽ¸":240,"å¾Ĺ":241,"æ°":242,"è¢":243,"éĩ":244,"æĹł":245,"æĿĢ":246,"æĶ":247,"æģ":248,"æİ":249,"åħĪ":250,"ä¸ī":251,"äºĨ":252,"ä¸»":253,"è¯´":254,"æĪĳ":255,"åīį":256,"åħ³":257,"èĩ³":258,"é£":259,"è·":260,"åŃĲ":261,"åĪ°":262,"çŁ¥":263,"å¤©":264,"åįģ":265,"çļĨ":266,"äºĭ":267,"æĦ":268,"åĸ":269,"éŃ":270,"éķ":271,"å¿ħ":272,"æ±Ŀ":273,"æĹ¶":274,"å½ĵ":275,"çĻ":276,"éŃı":277,"èį":278,"åıĪ":279,"åĪĺ":280,"å·²":281,"åıª":282,"èĭ¥":283,"çĦ":284,"å±±":285,"æĬ¥":286,"ä¼Ĺ":287,"äºĳ":288,"æ¬²":289,"åį´":290,"æ¯":291,"æŃ£":292,"æĪĺ":293,"ä½¿":294,"è·¯":295,"å¯¨":296,"éķ¿":297,"èĻ":298,"ç«":299,"çİĭ":300,"ç¥":301,"çľ":302,"æ³":303,"å·ŀ":304,"åŃĻ":305,"å®ī":306,"éģĤ":307,"çº":308,"å¿ĥ":309,"éĹ®":310,"é¢":311,"åıĸ":312,"éļ":313,"èµ·":314,"æŃ»":315,"çĦ¶":316,"éĽ":317,"èĢħ":318,"è¡Į":319,"åĿ":320,"å®Ī":321,"åĲ´":322,"ä¿":323,"åĮ":324,"å°ĨåĨĽ":325,"æĽ¹æĵį":326,"è®¡":327,"è½":328,"çŁ£":329,"æĮ":330,"æŀ":331,"éª":332,"çŃī":333,"ä¾¿":334,"çģ":335,"åĪĨ":336,"åĳ½":337,"ä¹¦":338,"å£«":339,"ä»İ":340,"éĤ":341,"å»":342,"é¡":343,"æľª":344,"è¯¸":345,"å²":346,"æĻ":347,"èľ":348,"èĪ":349,"èī":350,"å¸ĥ":351,"èĤ":352,"è¶":353,"èĳ":354,"çĿ":355,"çĳ":356,"èľĢ":357,"ç¬":358,"æ²":359,"è¥":360,"ä¸ľ":361,"æĿĥ":362,"ä¾¯":363,"é£ŀ":364,"æĢ¥":365,"è¿Ľ":366,"éĿ¢":367,"åįĹ":368,"åĵ":369,"éĹ»":370,"èµ°":371,"èĥ½":372,"åĽĽ":373,"æķ°":374,"èĩ£":375,"çĻ¾":376,"çī":377,"æ¸":378,"å§":379,"åį³":380,"å¿½":381,"é»":382,"ä¸¤":383,"éĥ½":384,"å¾Ģ":385,"æ±Ł":386,"å¤ĩ":387,"æīĢ":388,"äºĶ":389,"æŁ":390,"å¹³":391,"éĢĢ":392,"æľĽ":393,"éĹ¨":394,"æµ":395,"ä¸ĩ":396,"æ±ī":397,"åľ°":398,"æķħ":399,"å¤ª":400,"åĢ":401,"ç²":402,"ç§":403,"æĸ¹":404,"çĶŁ":405,"çķ":406,"å¤Ħ":407,"æĸĩ":408,"æ°´":409,"åĭ":410,"éĻį":411,"èĲ":412,"çĶ¨":413,"å°ı":414,"æĩ":415,"åı¸":416,"åĲĦ":417,"çĪ":418,"åį´è¯´":419,"è¥¿":420,"å£°":421,"å°½":422,"æķ¢":423,"èº":424,"ä½Ļ":425,"é»Ħ":426,"æĥĬ":427,"æīĭ":428,"ç¦":429,"è®®":430,"Ġåį´è¯´":431,"å¤ľ":432,"è´¥":433,"äº¦":434,"æ·":435,"åĲķ":436,"çĸ":437,"åĲ¬":438,"æĩ¿":439,"è¯·":440,"è¢«":441,"åĽ½":442,"ç½":443,"ä¸Ķ":444,"ä½ı":445,"å¸Ŀ":446,"è´¼":447,"åĸľ":448,"ç®":449,"é¢Ĩ":450,"åı¸é©¬":451,"è®¸":452,"æĢĴ":453,"å·¦":454,"é«":455,"å¿ł":456,"éĶ":457,"ä¸įåı¯":458,"çĳľ":459,"ä¸ŀ":460,"æ´":461,"äºĮäºº":462,"å¤«":463,"åĲį":464,"å¾ħ":465,"å¾Ĳ":466,"è¢ģ":467,"å®ĺ":468,"é¦":469,"ç»´":470,"éĿŀ":471,"æķĻ":472,"æħ":473,"åĨħ":474,"éħ":475,"ä¸ŀçĽ¸":476,"éģĵ":477,"èº«":478,"ç«ĭ":479,"å¤ļ":480,"çľĭ":481,"åĲĮ":482,"ä¼ı":483,"åºĶ":484,"æķĳ":485,"æĦı":486,"æŃ¦":487,"éĺ³":488,"æĪĲ":489,"åĳ¨":490,"å¤ı":491,"åħ³åħ¬":492,"æŁĲ":493,"ç»į":494,"çŃĸ":495,"æķĮ":496,"æĭľ":497,"å®ļ":498,"çģ«":499,"è¿ĩ":500,"åĲĪ":501,"åįĥ":502,"åı³":503,"å¹´":504,"æĸ©":505,"éĺµ":506,"éĩĮ":507,"çł":508,"ç¾":509,"å®¶":510,"èįĨ":511,"èµ¶":512,"èİ":513,"å¸Ī":514,"å¼ķåħµ":515,"åı£":516,"ç¬ĳ":517,"ä½ľ":518,"æĶ»":519,"åĪĢ":520,"å¹¶":521,"é«ĺ":522,"ä¼ļ":523,"åĽł":524,"éŁ":525,"çĲ":526,"å»¶":527,"æ¬¡":528,"ç²®":529,"å¤´":530,"è¿İ":531,"äº²":532,"éľ":533,"åĮĹ":534,"ç¤":535,"åĤ":536,"å¤ĸ":537,"è¿½":538,"èµµ":539,"äºĳéķ¿":540,"éĹ´":541,"åĲĽ":542,"èĪ¹":543,"è°ĭ":544,"æļ":545,"è¡¨":546,"èĥľ":547,"ä¹İ":548,"åĬ¿":549,"éĻĪ":550,"æĬķ":551,"åĶ":552,"è¦":553,"æĿİ":554,"æ¯ķ":555,"çĶļ":556,"è½¦":557,"èįĨå·ŀ":558,"æį":559,"å½Ĵ":560,"çĮ":561,"æ¡":562,"è°ĵ":563,"éĩį":564,"æģĲ":565,"åĳĬ":566,"èĢ³":567,"æĦ¿":568,"æĹ©":569,"éģ£":570,"èĲ¥":571,"å¼Ł":572,"åıĳ":573,"è§Ĩ":574,"æĶ¾":575,"æİ¥":576,"éļı":577,"æı":578,"èĻ½":579,"ä»ĸ":580,"åķ":581,"åıĬ":582,"èĤĥ":583,"çĪ¶":584,"èĬ":585,"çĽ´":586,"èľĢåħµ":587,"é¦ĸ":588,"é¥":589,"åıĹ":590,"å¤±":591,"ä¸įèĥ½":592,"åħ´":593,"å¤ıä¾¯":594,"åŃĶæĺİæĽ°":595,"å¦ĤæŃ¤":596,"åĨį":597,"çİĦå¾·æĽ°":598,"åĪĻ":599,"è¿ŀ":600,"æĤ":601,"ç¿":602,"ä¹ĺ":603,"å¤§åĸľ":604,"èĴ":605,"åħĦ":606,"æĹĹ":607,"å°ļ":608,"å¤į":609,"ç¨":610,"åİŁ":611,"éªĳ":612,"é½":613,"æĺŃ":614,"åĬŁ":615,"è¶³":616,"é¾":617,"çĹ":618,"å¥ı":619,"åķĨ":620,"ä¼ĳ":621,"åĲķå¸ĥ":622,"å¼łé£ŀ":623,"è¾¹":624,"åĿĲ":625,"å¸Ĳ":626,"çĭ":627,"éĥ¡":628,"éħĴ":629,"éĴ":630,"èĢģ":631,"å¥ī":632,"æĽ´":633,"åĬĽ":634,"èĳĽ":635,"çł´":636,"æł":637,"èģ":638,"ä¹ī":639,"å°±":640,"å¥Ķ":641,"ä¹±":642,"ç´":643,"å°ģ":644,"å¼Ģ":645,"ç®Ń":646,"ä¹ħ":647,"è¯¸èĳĽ":648,"çĬ":649,"åıį":650,"æľ¬":651,"è¦ģ":652,"åįĵ":653,"è¶ħ":654,"åĶ¤":655,"åķĨè®®":656,"åŃŁ":657,"é¼":658,"çĸĳ":659,"ç¤¼":660,"é¾Ļ":661,"æ®":662,"èĳ£":663,"å¤§æĢĴ":664,"å¦Ĥä½ķ":665,"å¤©ä¸ĭ":666,"è§£":667,"ä¸»åħ¬":668,"å²Ĥ":669,"æĹ¢":670,"çĥ":671,"å®«":672,"æĿ¨":673,"æ°ĳ":674,"ç»Ł":675,"éĥ¨":676,"æĶ¶":677,"é²":678,"æľĿ":679,"åīĳ":680,"åĬ¨":681,"åĽ¾":682,"å§ĵ":683,"ä¸Ģäºº":684,"æĵįæĽ°":685,"éĩĳ":686,"éŃıå»¶":687,"åŃĻæĿĥ":688,"çķĻ":689,"åĨĽé©¬":690,"èİ·":691,"æĵĴ":692,"é½Ĳ":693,"é£İ":694,"å±¯":695,"å¤§æĥĬ":696,"åŃĹ":697,"çª":698,"çľŁ":699,"èī¾":700,"çĿ£":701,"åĨĽå£«":702,"èµµäºĳ":703,"å½¼":704,"æīį":705,"éĥŃ":706,"å§ľ":707,"èĥĮ":708,"äº¤":709,"å·¦åı³":710,"åł":711,"æ¶":712,"è¿ĳ":713,"éļ¾":714,"ç©":715,"ç¼":716,"éŁ©":717,"éŃıåħµ":718,"ä»ģ":719,"èĢ¶":720,"æŀª":721,"è§Ĥ":722,"åĪĺå¤ĩ":723,"åı«":724,"éĢģ":725,"çļĩ":726,"éĤĵ":727,"äº®":728,"åģ":729,"æ³ķ":730,"ç¬ĳæĽ°":731,"å¾Ħ":732,"çĤ":733,"å·Ŀ":734,"åı¸é©¬æĩ¿":735,"è¿ľ":736,"é¡»":737,"å¼ĥ":738,"çĿĢ":739,"åĴ":740,"å¸¦":741,"éĵ":742,"èī¯":743,"å¤«äºº":744,"ä½Ĩ":745,"æľĪ":746,"åĽ´":747,"åĵŃ":748,"æ¨":749,"å§ľç»´":750,"èħ":751,"åĦ":752,"è¿ĺ":753,"å¯Ĩ":754,"æ¬¡æĹ¥":755,"çı":756,"è¾ŀ":757,"èįī":758,"ç½ª":759,"ä½ł":760,"æ°Ķ":761,"éĶĭ":762,"åħ«":763,"å°Ħ":764,"çĮ®":765,"ä¸ª":766,"åİ»äºĨ":767,"éĹ®æĽ°":768,"ä¿¡":769,"æıĲ":770,"çĻ½":771,"æ²³":772,"åı¹":773,"é²ģ":774,"å·®":775,"å°ĳ":776,"ä¼ł":777,"æĬĬ":778,"æĢĿ":779,"åįĬ":780,"å¥½":781,"é¥®":782,"ä¸ľåĲ´":783,"äºİæĺ¯":784,"åĿļ":785,"è¢ģç»į":786,"é¼ĵ":787,"å¨":788,"è¯ı":789,"åı·":790,"éĥĥ":791,"éĤ£":792,"æµģ":793,"å¸¸":794,"æīĵ":795,"åįģä½Ļ":796,"æİ¢":797,"åĭ¿":798,"ä¸įçŁ¥":799,"è½»":800,"è§Ĩä¹ĭ":801,"éĽĦ":802,"å®ŀ":803,"ä»ĬæĹ¥":804,"åºŀ":805,"è¯¸å°Ĩ":806,"èĤ¯":807,"æ»":808,"æĲ":809,"è±":810,"åħ±":811,"åĨ²":812,"æľį":813,"å®³":814,"åĳ¨çĳľ":815,"ä¸įæķ¢":816,"æ¢":817,"èĢĮåİ»":818,"ä¼Ĺå°Ĩ":819,"ç¬¬":820,"è°¢":821,"èĽ":822,"å®ľ":823,"æ±Ĥ":824,"çĴ":825,"æ·±":826,"å¼ķåĨĽ":827,"åĪ«":828,"çºµ":829,"çĹħ":830,"Ľä¸ĭ":831,"ä»»":832,"è¾½":833,"å®¹":834,"åĨ³":835,"ä¹Ĳ":836,"èĢĮèµ°":837,"èĻİ":838,"äººé©¬":839,"è°·":840,"åĲĳ":841,"åĸĬ":842,"æļĹ":843,"åĬ©":844,"çŃĶ":845,"åħģ":846,"ä¹ĭäºĭ":847,"è¯Ĺ":848,"è®¾":849,"éĻĽä¸ĭ":850,"æŃ¢":851,"å¥Ī":852,"ä¸¾":853,"ä¸ĸ":854,"è¡£":855,"æ±īä¸Ń":856,"ä¸ĥ":857,"èĦ":858,"åıĶ":859,"å®ģ":860,"åŃ¤":861,"è´¤":862,"å¤º":863,"ä»ĺ":864,"é©¬è¶ħ":865,"éĥ½çĿ£":866,"èĻļ":867,"ä¿Ŀ":868,"ç¥ŀ":869,"æ¥":870,"çĶ²":871,"è°ģ":872,"å¾ģ":873,"æĺŁ":874,"æĸŃ":875,"åľŁ":876,"å±ħ":877,"èĴĻ":878,"å¹¸":879,"è¾¾":880,"æĮĩ":881,"æī¿":882,"åı¬":883,"åı²":884,"åħĥ":885,"ç¨ĭ":886,"å¯¹":887,"åĲİä¸»":888,"æģ©":889,"é£Ł":890,"å¤©åŃĲ":891,"å¨ģ":892,"ä¾į":893,"æ¸¡":894,"åħ¨":895,"åıªè§ģ":896,"æ¯į":897,"éªĤ":898,"æķ£":899,"æģ¨":900,"èĮ":901,"éľĩ":902,"ç¿¼":903,"èĶ":904,"é¸":905,"ä¸ĢåĨĽ":906,"çĽ®":907,"é¡¾":908,"ç§°":909,"éĻĨ":910,"æħĮ":911,"åį¿":912,"èī²":913,"èĲ½":914,"éĻµ":915,"è°ı":916,"æĻĥ":917,"èģļ":918,"ä¸Ĭé©¬":919,"åĭĩ":920,"æĽ¾":921,"æľīä¸Ģ":922,"çī¹":923,"é©¾":924,"éģĩ":925,"éĢŁ":926,"å²±":927,"é»Ħå¿ł":928,"çĵ":929,"è£":930,"åĩ»":931,"æĸ°":932,"æ°ı":933,"çº¦":934,"æľķ":935,"åĪº":936,"æĺĶ":937,"åºľ":938,"å»º":939,"çŁ³":940,"ä¸ķ":941,"åħŃ":942,"çĴĭ":943,"å¼łéĥĥ":944,"ç³":945,"äº¡":946,"ä¼Ĳ":947,"èĥĮåĲİ":948,"ä¸įå¾Ĺ":949,"å¿§":950,"æĸĻ":951,"æ¸Ĭ":952,"ä¸´":953,"å¤§åı«":954,"æĭ¨":955,"åŁİä¸Ń":956,"åĸĿ":957,"è¤":958,"ä¹ĭè¨Ģ":959,"åį±":960,"éĢĬ":961,"å¹²":962,"å¥³":963,"èĢĮæĿ¥":964,"èĽ®":965,"åı±":966,"æľ¯":967,"å¼ĵ":968,"æŃ¤äºº":969,"ç»Ĩ":970,"éĿĴ":971,"åħĪä¸»":972,"ç²¾":973,"èµĲ":974,"éĢĥ":975,"ç¥ĸ":976,"æŀľ":977,"å¤ªå®Ī":978,"æ¡¥":979,"èµı":980,"å¯»":981,"èĭ±":982,"ä½¿äºº":983,"åĴĮ":984,"è¯Ī":985,"ç»ĵ":986,"çļĦ":987,"èĶ¡":988,"å¤§åĨĽ":989,"ç»Ŀ":990,"ç¦»":991,"åĲ¦":992,"æŃ¥":993,"çĽĸ":994,"éĺŁ":995,"æİ¨":996,"çī©":997,"ä¸ĢéĿ¢":998,"çĶĺ":999,"ä½ķä¸į":1000,"å¿½æĬ¥":1001,"åħī":1002,"è¥Ħ":1003,"çıŃ":1004,"ä¸¥":1005,"ä¹Ŀ":1006,"åĲİäºº":1007,"è¢Ń":1008,"çĻ»":1009,"åĢĴ":1010,"æľīè¯Ĺ":1011,"ä¾Ŀ":1012,"åħĪçĶŁ":1013,"é¡º":1014,"æ·®":1015,"åłĤ":1016,"å¢":1017,"åĸĦ":1018,"æľ¨":1019,"å®´":1020,"åĬł":1021,"ä½ķæķħ":1022,"ä¿±":1023,"ä¸įå¦Ĥ":1024,"è´Ł":1025,"çīĽ":1026,"ä»ĩ":1027,"æĿ¾":1028,"çĽĽ":1029,"æĥ§":1030,"æģ¯":1031,"çĦ¶åĲİ":1032,"æĹ§":1033,"è§Ĵ":1034,"ä»¤äºº":1035,"èĭŀ":1036,"åħĪéĶĭ":1037,"åĮ¹":1038,"çĲĨ":1039,"åŃŁèİ·":1040,"åįİ":1041,"æ³°":1042,"çªģ":1043,"åĺ":1044,"æī§":1045,"æĥĩ":1046,"æħĪ":1047,"éĤĵèī¾":1048,"åĬ³":1049,"æĭĴ":1050,"æĥħ":1051,"ç½¢":1052,"åħ¸":1053,"ä¹ĭè®¡":1054,"é¢ľ":1055,"è¯¸èĳĽäº®":1056,"ç¦ģ":1057,"ä½į":1058,"å¥ıæĽ°":1059,"ŀį":1060,"èµ´":1061,"æ´ª":1062,"åı¹æĽ°":1063,"éĢł":1064,"è¤ļ":1065,"ä¸Ģå£°":1066,"ä¸ĭé©¬":1067,"åĬ«":1068,"æĭĽ":1069,"äºĮåįģ":1070,"æ±ĿçŃī":1071,"æĮº":1072,"å²¸":1073,"æķ¬":1074,"åĬĿ":1075,"åĩºåŁİ":1076,"å¦»":1077,"çĿ¿":1078,"åİŁæĿ¥":1079,"é©±":1080,"ä¹ĭäºº":1081,"å¼Ĥ":1082,"åİ¿":1083,"ä¿®":1084,"èµ¶æĿ¥":1085,"å®¤":1086,"ä¼¤":1087,"åİļ":1088,"åĦ¿":1089,"æ»¡":1090,"åĻ":1091,"å®Ĺ":1092,"å¿Ļ":1093,"å¼łè¾½":1094,"éĽį":1095,"ç¾¤":1096,"éľ¸":1097,"åĲİäººæľīè¯Ĺ":1098,"å¤§å°Ĩ":1099,"æĬ¤":1100,"æĽ¹ä»ģ":1101,"åħ¥åŁİ":1102,"æĮģ":1103,"çģµ":1104,"æ±Łä¸ľ":1105,"å¥Īä½ķ":1106,"æĴ":1107,"äºŃ":1108,"åĪ©":1109,"èĩ´":1110,"äºĮå°Ĩ":1111,"çĳ¾":1112,"ä»ª":1113,"åĨĽä¸Ń":1114,"ä¸ļ":1115,"åľ¨æŃ¤":1116,"æŃ£æĺ¯":1117,"å¾Ĳå·ŀ":1118,"èİ«":1119,"åıĺ":1120,"ä¹ĭåħµ":1121,"åĪĿ":1122,"è¯Ń":1123,"é¢Ĩåħµ":1124,"æĪĲéĥ½":1125,"ģå±±":1126,"å°ī":1127,"æľ±":1128,"çģŃ":1129,"å¾ĲæĻĥ":1130,"å¤§äºĭ":1131,"è®¨":1132,"æĸĹ":1133,"åĮĸ":1134,"å¿½çĦ¶":1135,"ä¹ĭåĲİ":1136,"ä»¥ä¸º":1137,"å¯¨ä¸Ń":1138,"æĻļ":1139,"åĤķ":1140,"æ®¿":1141,"åĸĬå£°":1142,"åŀ":1143,"ä¸įåĩº":1144,"å¾¡":1145,"è¿Ļ":1146,"éĢļ":1147,"æĢĢ":1148,"éĥİ":1149,"éĩİ":1150,"åĥ":1151,"å¤§è´¥":1152,"æĽ¹åħµ":1153,"åĢĺ":1154,"ç©º":1155,"ä¸įè§ģ":1156,"æ±ľ":1157,"èĢĮåĩº":1158,"éĻ©":1159,"æľªçŁ¥":1160,"åĽłæŃ¤":1161,"ä¹¾":1162,"æĬĺ":1163,"åħ¶è¨Ģ":1164,"ä¼Ĺå®ĺ":1165,"ç¥ģå±±":1166,"çĻ¾å§ĵ":1167,"æĸ©ä¹ĭ":1168,"é²ģèĤĥ":1169,"æĳ":1170,"éº":1171,"æľº":1172,"åįĴ":1173,"äººæĬ¥":1174,"ç»Ī":1175,"åħ·":1176,"åį§":1177,"åĽ°":1178,"æī¶":1179,"æĢ§":1180,"åĢĻ":1181,"åĭĴ":1182,"æĭĶ":1183,"ä»İä¹ĭ":1184,"å«":1185,"äºī":1186,"æĿ¥è§ģ":1187,"æĥŁ":1188,"æŀģ":1189,"æ¨Ĭ":1190,"åºŀå¾·":1191,"åĲī":1192,"åĩĨ":1193,"çĭ¬":1194,"æĿĢä¹ĭ":1195,"èµ·åħµ":1196,"çĻ¾ä½Ļ":1197,"æİ¥åºĶ":1198,"æ½":1199,"é©¬å²±":1200,"è®«":1201,"åĪĺè¡¨":1202,"çºµé©¬":1203,"å¼º":1204,"æĺ¥":1205,"ä¸ĭå¯¨":1206,"æĥ³":1207,"æµİ":1208,"ä¸ģ":1209,"æīĺ":1210,"å½ª":1211,"éĻ¤":1212,"è¡Ģ":1213,"æİ©":1214,"å¿ĥä¸Ń":1215,"è¿Ľåħµ":1216,"æĪª":1217,"è¢į":1218,"å¿ħæľī":1219,"åĵį":1220,"åĤħ":1221,"èĳ£åįĵ":1222,"ç³ľ":1223,"ä¸Ī":1224,"ä¸Ģé½Ĳ":1225,"æľīä½ķ":1226,"æ¯Ķ":1227,"ç¥Ń":1228,"æ´Ľ":1229,"èĴĭ":1230,"Ġç¬¬":1231,"è¯Ĩ":1232,"ä¸ĭæĸĩ":1233,"èĢĮè¡Į":1234,"å¹¼":1235,"è´¾":1236,"åĪĨä»ĺ":1237,"è®¸è¤ļ":1238,"æ´ŀ":1239,"çĬ¹":1240,"æ¨ª":1241,"è¯Ľ":1242,"æŀĹ":1243,"ä¹ĭæĽ°":1244,"å¿Ĺ":1245,"éĢĨ":1246,"æ¯ı":1247,"ç²®èįī":1248,"æįī":1249,"èĤĥæĽ°":1250,"ä¸§":1251,"å®Ŀ":1252,"åĩºé©¬":1253,"åŁİä¸Ĭ":1254,"åĪĨè§£":1255,"è®¸éĥ½":1256,"åĻ¨":1257,"é¹":1258,"è°ĥ":1259,"ä¸īåįĥ":1260,"åįģä¸ĩ":1261,"ä¼ĹçļĨ":1262,"ç¥¸":1263,"åĵ¨":1264,"åĵī":1265,"çĥ§":1266,"çĤ¹":1267,"èª":1268,"èµį":1269,"åĳ¼":1270,"æĭ¥":1271,"éķĩ":1272,"æ³£":1273,"åŃĻçŃĸ":1274,"è¿½èµ¶":1275,"çļĩåıĶ":1276,"èĦ±":1277,"æ¼":1278,"åĨĢ":1279,"å¥ĭ":1280,"åıªå¾Ĺ":1281,"åĪĨåħµ":1282,"æ²»":1283,"çłį":1284,"å¤ıä¾¯æĥĩ":1285,"å¤§æĢĴæĽ°":1286,"èħ¹":1287,"å´":1288,"éĨ":1289,"åĪĩ":1290,"çİī":1291,"æĸĩæŃ¦":1292,"ä¸ĭæĸĩåĪĨè§£":1293,"ä¹ĭåľ°":1294,"æĪŁ":1295,"å¸Ń":1296,"çĶ°":1297,"åĽŀæĬ¥":1298,"æĦŁ":1299,"èĮĥ":1300,"ä»Ĺ":1301,"æĺĮ":1302,"äºİé©¬":1303,"åº¶":1304,"è½¬":1305,"äºĶåįĥ":1306,"ç¼ļ":1307,"åı¤":1308,"ä»ĵ":1309,"æķ´":1310,"äºİåľ°":1311,"éĽ¨":1312,"æĻ®":1313,"æµ·":1314,"éļıåĲİ":1315,"æ´Ľéĺ³":1316,"åħį":1317,"è®º":1318,"æĬµ":1319,"æĿĢæĿ¥":1320,"éĵģ":1321,"è¿Ł":1322,"ä¼¯":1323,"åı¯ä»¥":1324,"éĺ²":1325,"èįĢ":1326,"å°½çļĨ":1327,"ä¸Ķè¯´":1328,"çŃĶæĽ°":1329,"ä¹ĭæĦı":1330,"éģį":1331,"éģĹ":1332,"çºª":1333,"éª¤":1334,"çķ¥":1335,"çĳľæĽ°":1336,"æį®":1337,"åĳĬæĽ°":1338,"èŀį":1339,"å¾Ĵ":1340,"èĭ¥ä½ķ":1341,"åĲ¬å¾Ĺ":1342,"æ¡ĵ":1343,"åħĦå¼Ł":1344,"çĬ¯":1345,"èªĵ":1346,"èĹ":1347,"åįĩ":1348,"åĪĹ":1349,"å¥¸":1350,"åħ³åħ´":1351,"éĴŁ":1352,"çĨ":1353,"äººä¹Ł":1354,"çİ°":1355,"è°Ń":1356,"èĭ¥ä¸į":1357,"ç²¾åħµ":1358,"ä¸ĢæĹ¥":1359,"åĩł":1360,"çĽĬ":1361,"æĬ«":1362,"åīįéĿ¢":1363,"çĹĽ":1364,"æĺŁå¤ľ":1365,"æ¿":1366,"ç±":1367,"çŀ":1368,"åĩī":1369,"åįģéĩĮ":1370,"éĹ®ä¹ĭ":1371,"çĳģ":1372,"äºĶçĻ¾":1373,"ç´ł":1374,"æĮºæŀª":1375,"è²":1376,"åŃĿ":1377,"éķ¿å®ī":1378,"åŃĻä¹¾":1379,"æł¡":1380,"ä¸įèĤ¯":1381,"åĳĺ":1382,"å¥ĩ":1383,"çĽ¸è§ģ":1384,"èĻĳ":1385,"çİĭå¹³":1386,"å»·":1387,"èĤī":1388,"æĺĵ":1389,"è¯¯":1390,"è¿Ĳ":1391,"åŁĭ":1392,"èĭ¦":1393,"åħ¥è§ģ":1394,"åŃĲé¾Ļ":1395,"çº³":1396,"æĻº":1397,"è¥¿å·Ŀ":1398,"èħ¾":1399,"çĵĴ":1400,"èĸ":1401,"èµ¤":1402,"çº¢":1403,"ç«ĭäºİ":1404,"åĩĨå¤ĩ":1405,"å³":1406,"æº":1407,"åĲı":1408,"å°Ŀ":1409,"æĿ¡":1410,"æ³ª":1411,"äº²èĩª":1412,"èĬ³":1413,"è±«":1414,"è°ıæĽ°":1415,"è§Ī":1416,"æĽ¹çľŁ":1417,"çº§":1418,"æĿĥæĽ°":1419,"çķª":1420,"ç¢":1421,"éŀ":1422,"åĨĽå¸Ī":1423,"æŃ¤äºĭ":1424,"ç»£":1425,"æĪĳçŃī":1426,"éŃıä¸»":1427,"åĲ´åħµ":1428,"æĮī":1429,"è¢ģæľ¯":1430,"èĬĤ":1431,"æĤ£":1432,"æ£":1433,"ä¹ĭä¸Ń":1434,"ä¸įåıĬ":1435,"æĪĸ":1436,"æĽ¹æ´ª":1437,"å¼łç¿¼":1438,"è¾ħ":1439,"åºŁ":1440,"è¨ĢæĽ°":1441,"ä¸īäºº":1442,"åĪĺçĴĭ":1443,"çĪ½":1444,"åı¸é©¬æĺŃ":1445,"ä»²":1446,"åħ¶äºº":1447,"åŁİä¸ĭ":1448,"å¼ķä¸ĢåĨĽ":1449,"æĶ¸":1450,"ç«Ł":1451,"éĶ¦":1452,"å¤ıä¾¯æ¸Ĭ":1453,"èĭ±éĽĦ":1454,"çĶĺå®ģ":1455,"Ġæ¬¡æĹ¥":1456,"ä¹¡":1457,"åıĮ":1458,"ä»°":1459,"æŃĩ":1460,"å¤§çİĭ":1461,"æĿ¥æĹ¥":1462,"ä¸īåĨĽ":1463,"ä¼ĹåĨĽ":1464,"é¡¿":1465,"å²ģ":1466,"å¿½è§ģ":1467,"ç§ĭ":1468,"ä¸Ķçľĭ":1469,"ç®¡":1470,"åĤ¬":1471,"åŃŁè¾¾":1472,"èĽ®åħµ":1473,"èµŀ":1474,"çİĩ":1475,"éģ¿":1476,"èĪį":1477,"å°ıè·¯":1478,"ä¼ıåħµ":1479,"éŁ¦":1480,"ä¸Ģå½ª":1481,"æĸ½":1482,"çļĵ":1483,"æĮĤ":1484,"ä¸¤è·¯":1485,"åĲķèĴĻ":1486,"ä¹ĺåĬ¿":1487,"å¸Ĳä¸ĭ":1488,"æľĿå»·":1489,"å·®äºº":1490,"é¸£":1491,"éĻĨéĢĬ":1492,"è¸":1493,"ä¸ĵ":1494,"åı°":1495,"äºİç¦ģ":1496,"å¯¿":1497,"å¦¾":1498,"éļĲ":1499,"é¦ĸçº§":1500,"æ¢ģ":1501,"å¡":1502,"Ġä¸Ķè¯´":1503,"å¤¹":1504,"åĨĻ":1505,"æĺı":1506,"è¯©":1507,"å¿į":1508,"æĿ¥è¿İ":1509,"çĶ»":1510,"æĹłä¸į":1511,"å½ĵåħĪ":1512,"è¶Ĭ":1513,"ä¸¤åĨĽ":1514,"æĩ¿æĽ°":1515,"è¥Ħéĺ³":1516,"èĿ":1517,"ä¹ŀ":1518,"ä¹ĭå¿ĥ":1519,"è¯Ŀ":1520,"å¹¿":1521,"åĲ¾ä»Ĭ":1522,"æĽ¹ä¸ķ":1523,"æŃ»æĪĺ":1524,"èĪŁ":1525,"æĿİåĤķ":1526,"æ¤":1527,"ĠæľªçŁ¥":1528,"ä¸įä½ı":1529,"æī¬":1530,"ä½ķäºº":1531,"åħ¬åŃĻ":1532,"æ¬º":1533,"æĬ¥çŁ¥":1534,"ç¥İ":1535,"æŀĿ":1536,"ç¦ı":1537,"çĤ®":1538,"åŁĭä¼ı":1539,"âĢĶ":1540,"åıĤ":1541,"ä¹ĭéĹ´":1542,"æĺİåħ¬":1543,"è¾±":1544,"æĺ¯å¤ľ":1545,"ä¸īè·¯":1546,"ç«¥":1547,"éª¨":1548,"èĳ¬":1549,"æ²Ľ":1550,"æķ°åįģ":1551,"èĬĿ":1552,"ä¼łä»¤":1553,"åĿļå®Ī":1554,"æĲ¦":1555,"å©":1556,"ä¹ĭæĹ¶":1557,"åįķ":1558,"æŃĨ":1559,"å¤§å°ĨåĨĽ":1560,"åĳĪ":1561,"éĺ´":1562,"å¼łèĭŀ":1563,"åº¦":1564,"åĽŀè§ģ":1565,"åĢŁ":1566,"æļĤ":1567,"æĬķéĻį":1568,"åħ»":1569,"åį«":1570,"åį°":1571,"åİ®":1572,"å¦Ļ":1573,"åī²":1574,"éĺ»":1575,"æĿĢåĩº":1576,"å¿ħçĦ¶":1577,"æĻĭ":1578,"å¸ĥæĽ°":1579,"åĽĽéĿ¢":1580,"æ±ŁåįĹ":1581,"ç¾Į":1582,"éģ£ä½¿":1583,"å¤§éľĩ":1584,"å°Ĩå£«":1585,"æŃ¤æĹ¶":1586,"éģ¥":1587,"åĩºæĪĺ":1588,"è´µ":1589,"æİĮ":1590,"çľ¼":1591,"éĽ·":1592,"å»ĸ":1593,"æľĽè§ģ":1594,"å¤ªåĲİ":1595,"ç§¦":1596,"å¹¶æĹł":1597,"åºŀç»Ł":1598,"ç¯":1599,"ä¸įä»İ":1600,"å®¢":1601,"å·¾":1602,"è°¦":1603,"è´¹":1604,"å®īæķ¢":1605,"ä¼ıäºİ":1606,"ç¿»":1607,"åĦĴ":1608,"äºİé©¬ä¸ĭ":1609,"éŀŃ":1610,"åĹ":1611,"æľŁ":1612,"åĩ¤":1613,"ä¸ºåħĪéĶĭ":1614,"çĶ³":1615,"åĩºè¿İ":1616,"æĢ¨":1617,"å¦Ĥä¹ĭ":1618,"æĢĴæĽ°":1619,"æ¶Ī":1620,"æ¥¼":1621,"ä¸°":1622,"æľĹ":1623,"å¼©":1624,"è®©":1625,"è·ĥ":1626,"å¿ĥèħ¹":1627,"é¢Ħ":1628,"æĻ¯":1629,"éĥŃæ·®":1630,"æ¨ĬåŁİ":1631,"ä¸Ķçľĭä¸ĭæĸĩåĪĨè§£":1632,"æ¦":1633,"å¿µ":1634,"ä¸ŃåİŁ":1635,"è´£":1636,"æŃ»äºİ":1637,"å¸Ĳä¸Ń":1638,"å±¯åħµ":1639,"åĺī":1640,"å»ĸåĮĸ":1641,"ç°":1642,"å°¸":1643,"ä½ĵ":1644,"ä¼¼":1645,"ç»ı":1646,"æĬļ":1647,"æĽ¹åĨĽ":1648,"è¾Ĥ":1649,"æľªåı¯":1650,"æ±īå®¤":1651,"æĿİåħ¸":1652,"è¿ŀå¤ľ":1653,"ç´¯":1654,"ç®Ńå°Ħ":1655,"çī¹æĿ¥":1656,"å«Ĥ":1657,"å¤§éªĤ":1658,"ä¸ŃåĨĽ":1659,"éĢ¢":1660,"éĺ¿":1661,"æĭ¦":1662,"èĥĨ":1663,"åīįæĿ¥":1664,"éĽĨ":1665,"æŃ¦å£«":1666,"çĲ¦":1667,"åĤį":1668,"èĥľè´Ł":1669,"æľ¬éĥ¨":1670,"åĩ»ä¹ĭ":1671,"åŃ¦":1672,"è¯ļ":1673,"ä¸Ģéĺµ":1674,"çĶ±":1675,"å½§":1676,"åī¯":1677,"å¼łé²ģ":1678,"æĭį":1679,"å¼ķä¸Ģ":1680,"åŃĲæķ¬":1681,"ä½¿åĲĽ":1682,"åĲ´ä¾¯":1683,"éħį":1684,"éģ£äºº":1685,"åħ´åħµ":1686,"å°º":1687,"æĹı":1688,"å¤§åĸĿ":1689,"è§ģäºĨ":1690,"è¡¡":1691,"åħ³å¹³":1692,"ä½¿èĢħ":1693,"éģĤä»¤":1694,"éļĺ":1695,"çĸ¾":1696,"é¢Ĩåĳ½":1697,"å¥Ķèµ°":1698,"ç´¢":1699,"ç©¿":1700,"ç»Ĩä½ľ":1701,"å¢ĥ":1702,"åĨĢå·ŀ":1703,"éĨī":1704,"æ¤į":1705,"å¤§åĵŃ":1706,"ä¸Ģå°Ĩ":1707,"èĢĮæŃ»":1708,"æĿĢåħ¥":1709,"æİĪ":1710,"ä¼Ĺäºº":1711,"ç«º":1712,"æĮ¥":1713,"éĹ»ä¹ĭ":1714,"è¥¿åĩī":1715,"ç½®":1716,"æĭľè°¢":1717,"å¤§æĥĬæĽ°":1718,"äº¤éĶĭ":1719,"¶Ŀ":1720,"ç¶Ŀ":1721,"åħ¼":1722,"å°Ĭ":1723,"å¾®":1724,"æķĪ":1725,"å·±":1726,"æ±ł":1727,"åľ£":1728,"æĢ»":1729,"æĭĨ":1730,"èĩªæľī":1731,"åĽŀé©¬":1732,"éĹ®åħ¶":1733,"ä»İåħ¶è¨Ģ":1734,"åĽ½å®¶":1735,"è¦Ĩ":1736,"æĸ§":1737,"è´º":1738,"å£®":1739,"åħĪå¸Ŀ":1740,"å½ĵæĹ¥":1741,"å±±ä¸Ĭ":1742,"ä¸įåı¯è½»":1743,"éĴ¦":1744,"ä¸Ģå½ªåĨĽ":1745,"èĿī":1746,"å¼±":1747,"æĿ¥åĪ°":1748,"æŃ¤è¨Ģ":1749,"èĢĮåħ¥":1750,"èĢĮéĢĢ":1751,"è¾Ī":1752,"æĶ¹":1753,"æİĴ":1754,"çĦī":1755,"æ³½":1756,"äºĶä¸ĩ":1757,"å¤ªåı²":1758,"çĪ±":1759,"çĪµ":1760,"éĶĲ":1761,"è®¾å®´":1762,"ç¨ĭæĻ®":1763,"å¦Ĥä¹ĭå¥Īä½ķ":1764,"åµ":1765,"ä¹Į":1766,"æĹĮ":1767,"èĢĮåĽŀ":1768,"ä½ķä»¥":1769,"ä½ķå¤Ħ":1770,"åĲ¾å·²":1771,"åŁİéĹ¨":1772,"æģ¶":1773,"åīįè¿Ľ":1774,"æ¸ħ":1775,"è®¸æĺĮ":1776,"çĪ¶åŃĲ":1777,"éŁ©éģĤ":1778,"é¥®éħĴ":1779,"æ¢¦":1780,"æĲ¦æĪĺ":1781,"ĠåŃĶæĺİ":1782,"ä¹ĭä¼Ĺ":1783,"éģµ":1784,"ä¸ºé¦ĸ":1785,"èĢĮè¿Ľ":1786,"åŁİå¤ĸ":1787,"æģª":1788,"æĪĺä¸į":1789,"æ³ī":1790,"éĽª":1791,"æ²Ļ":1792,"ä¸¤ä¸ª":1793,"ç§ģ":1794,"ç¤¼æ¯ķ":1795,"å²Ĥåı¯":1796,"æħĮå¿Ļ":1797,"åİ®æĿĢ":1798,"¹ĩ":1799,"åħħ":1800,"ä»£":1801,"ä¸įè¶³":1802,"å®¡":1803,"æĹ¨":1804,"æĪĪ":1805,"éĻ¶":1806,"å¯ĩ":1807,"å¦Ħ":1808,"æĭ¾":1809,"èĥ¡":1810,"å£ģ":1811,"åĪĺçİĦå¾·":1812,"ä¸ľåįĹ":1813,"æķ°çĻ¾":1814,"ç§»":1815,"è°ĭå£«":1816,"æłĳ":1817,"å¤§åı«æĽ°":1818,"æĢ§åĳ½":1819,"ĠçİĦå¾·":1820,"ä¸ĳ":1821,"å®£":1822,"å®ł":1823,"è§ī":1824,"éĢī":1825,"å¯¸":1826,"å¼łæĺŃ":1827,"è¨Ģæľª":1828,"é»ĦçĽĸ":1829,"åħ³åħ¬æĽ°":1830,"èģĮ":1831,"ç´§":1832,"éĥŃæ±ľ":1833,"éĵľ":1834,"åĲĳåīį":1835,"æ¥Ļ":1836,"æĴŀ":1837,"æİ©æĿĢ":1838,"ä¸¹":1839,"æĺ¨":1840,"æľīå¤±":1841,"æīİ":1842,"ä¾Ħ":1843,"éĺģ":1844,"è¨Ģè®«":1845,"çĽ¸å¾ħ":1846,"å·²å®ļ":1847,"åĿ¡":1848,"è½½":1849,"è¿Ľåıĳ":1850,"æ¸Ń":1851,"æ±Łå¤ı":1852,"æŁ´":1853,"çķĮ":1854,"æĺĶæĹ¥":1855,"èĹı":1856,"å¤¹æĶ»":1857,"ä¹ĭçŃĸ":1858,"å¿ĺ":1859,"å¤§åħµ":1860,"éģŃ":1861,"ä¸ºåīį":1862,"çŃĳ":1863,"æĥľ":1864,"èį¯":1865,"èĪŀ":1866,"æ¸Ĳ":1867,"åį³æĹ¥":1868,"å¾ĢæĿ¥":1869,"åĲĦèĩª":1870,"åĲ¬çŁ¥":1871,"çģ«èµ·":1872,"çģ«åħī":1873,"çĮĽ":1874,"çĭ±":1875,"æ±īä¸Ńçİĭ":1876,"ç¾¤èĩ£":1877,"å³»":1878,"é¬":1879,"åıĻ":1880,"å·¡":1881,"æŃ¤ä¹ĥ":1882,"è°¡":1883,"éĥĳ":1884,"å¼łä»»":1885,"éĩı":1886,"æĿĢåĪ°":1887,"æĦļ":1888,"åĵĢ":1889,"éĹ»è¨Ģ":1890,"äºĶåįģ":1891,"å¾ĲçĽĽ":1892,"é¦Ĩ":1893,"æĹ©æľī":1894,"éĥ¨å°Ĩ":1895,"éŁ©å½ĵ":1896,"èĶ¡çĳģ":1897,"âĢĻ":1898,"åŃĺ":1899,"äººä¹ĭ":1900,"å¤§ç¬ĳæĽ°":1901,"æĬ±":1902,"ä½ķå¦Ĥ":1903,"éĺ¶":1904,"éŃıçİĭ":1905,"åįĹéĥ¡":1906,"æ¸©":1907,"åĳ¨æ³°":1908,"ç¾İ":1909,"æĶ¾çģ«":1910,"åĨįä¸ī":1911,"ä¸¥é¢ľ":1912,"å¶":1913,"æª":1914,"åĨµ":1915,"æĹ¦":1916,"åĽº":1917,"éĻĩ":1918,"åº§":1919,"åĵ¥":1920,"æĶ»æīĵ":1921,"çĥĪ":1922,"æĸ°éĩİ":1923,"éĴŁä¼ļ":1924,"ĤèĿī":1925,"åħļ":1926,"ä¹ĭä¸Ĭ":1927,"ä¹ĭå£«":1928,"åħµåĪ°":1929,"åĲ¾ä¸İ":1930,"åĽŀé¡¾":1931,"éĿĻ":1932,"åħ¥å¸Ĳ":1933,"æ°¸":1934,"èĩ³æŃ¤":1935,"æ±Ŀåı¯":1936,"æĬ¥è¯´":1937,"èľĢä¸Ń":1938,"æķ°åĲĪ":1939,"ç¦ħ":1940,"è´¥èµ°":1941,"ç®Ĺ":1942,"é¦Ļ":1943,"ç¤¾":1944,"çĽ´åıĸ":1945,"æŀľçĦ¶":1946,"èİ«éĿŀ":1947,"åĭĴé©¬":1948,"è²ĤèĿī":1949,"å¤ªåı²æħĪ":1950,"Ġæĵį":1951,"ãĢĬ":1952,"ãĢĭ":1953,"æĿľ":1954,"å®½":1955,"åħµæĿ¥":1956,"å¤§å¯¨":1957,"åĩĮ":1958,"æĸľ":1959,"åİī":1960,"åĩºæĽ°":1961,"åħ¬çĳ¾":1962,"åŁº":1963,"å·²æ¯ķ":1964,"ç«¯":1965,"æĤĶ":1966,"æ®ĭ":1967,"åĺ±":1968,"åĳĪä¸Ĭ":1969,"å¶·":1970,"åħĭ":1971,"ä¹ı":1972,"ä¹ĭåŃĲ":1973,"ä¸įåĲ¬":1974,"åĽŃ":1975,"ç»§":1976,"éĢ¼":1977,"ä¹ĥæĺ¯":1978,"åºĦ":1979,"äºĮåįģä½Ļ":1980,"æĶ¿":1981,"åĪĺå°ģ":1982,"æĬ¥ä»ĩ":1983,"åı¸é©¬å¸Ī":1984,"å¤§åĸľæĽ°":1985,"æĶ¶æĭ¾":1986,"åĽ¾ä¹ĭ":1987,"çļĩå¸Ŀ":1988,"çĤİ":1989,"æ¶Īæģ¯":1990,"åµ©":1991,"åĪ¶":1992,"äººçļĨ":1993,"å¤§åįĬ":1994,"å·´":1995,"äºİæŃ¤":1996,"åĬ¡":1997,"åı¯éĢŁ":1998,"åºĻ":1999,"åĿĽ":2000,"æĸĩä¸ĳ":2001,"æħ¢":2002,"è¿İæķĮ":2003,"è°ģæķ¢":2004,"è´¾è¯©":2005,"æĭįé©¬":2006,"æĹĮæĹĹ":2007,"æ¹":2008,"âĢĺ":2009,"ä¸įè¿ĩ":2010,"ä¸įæĽ¾":2011,"è¿Ŀ":2012,"çİ¯":2013,"çİº":2014,"ä¾§":2015,"æĿĢäºĨ":2016,"ä¸īåįģ":2017,"æĦĪ":2018,"å¿ħä¸º":2019,"å®īèĥ½":2020,"é£ŀæĬ¥":2021,"è¿ĽæĽ°":2022,"çĻ¾å®ĺ":2023,"çīĻ":2024,"æīĭä¸ĭ":2025,"ç¾½":2026,"éĻĪå®«":2027,"ç¼ĵ":2028,"æ³ķæŃ£":2029,"æĭ¨é©¬":2030,"ä¸ģå¥ī":2031,"è±«å·ŀ":2032,"ç¹ĩ":2033,"ä¹ĭå¤Ħ":2034,"ä¸įå¿ħ":2035,"æĺ±":2036,"è¯»":2037,"è¯ķ":2038,"çĽĳ":2039,"å¦ĩ":2040,"åĲİåĨĽ":2041,"åĲİéĿ¢":2042,"éĺľ":2043,"åħ¶ä½Ļ":2044,"åĽŀåĪ°":2045,"åĽŀå¯¨":2046,"èįĲ":2047,"æ³Ħ":2048,"å®ĪæĬĬ":2049,"è¯¸ä¾¯":2050,"é»Ħç¥ĸ":2051,"äºĳéķ¿æĽ°":2052,"åĿĲäºİ":2053,"æĿ¨ä»ª":2054,"äº¤æĪĺ":2055,"åĪºåı²":2056,"ç³ľç«º":2057,"é¬¼":2058,"çħ":2059,"å°Ķ":2060,"æľĢ":2061,"ä¸įè®¸":2062,"è¯±":2063,"èĩĤ":2064,"ä¸ĢçĻ¾":2065,"ä¸Ģä¸ª":2066,"é©¬èħ¾":2067,"çĽŁ":2068,"èĢĮä¸į":2069,"åĲ¾çŃī":2070,"æĭ¿":2071,"ä¸īä¸ĩ":2072,"æ±ĿäºĮäºº":2073,"èĻŀ":2074,"é¢ĩ":2075,"ä¾¿èµ°":2076,"éĹ»çŁ¥":2077,"æ´»":2078,"è¢ģå°ļ":2079,"è¿İæİ¥":2080,"èĬ±":2081,"æĶ¶åĨĽ":2082,"åģĩ":2083,"æ²³åĮĹ":2084,"åĸĬå£°å¤§éľĩ":2085,"èįĢå½§":2086,"çĨŁ":2087,"çĽĬå·ŀ":2088,"æł¡å°ī":2089,"å¡ŀ":2090,"èĨ":2091,"ä¹ł":2092,"åĲĬ":2093,"åĲŀ":2094,"æĺ¾":2095,"è¿ģ":2096,"æĪ®":2097,"éĹŃ":2098,"éĢĤ":2099,"å¼łå¶·":2100,"è¾Ľ":2101,"åĮ»":2102,"éĢĢåħµ":2103,"æĸ¹åı¯":2104,"åĽ½å¤ª":2105,"ç¾Ĭ":2106,"èµ¶åĪ°":2107,"è¿½ä¹ĭ":2108,"çĭĤ":2109,"å±¯äºİ":2110,"åģľ":2111,"åı±æĽ°":2112,"åĲİäººæľīè¯Ĺèµŀ":2113,"åŀĤ":2114,"æĭĶåīĳ":2115,"âĢĿãĢĤ":2116,"è¯ŀ":2117,"é©°":2118,"å¤§å°ı":2119,"å¤§ä¹±":2120,"å¤§åĳ¼":2121,"ä¸ĢåĪĢ":2122,"æĿ¥éĻį":2123,"éĻ·":2124,"è¡Ĺ":2125,"å±ŀ":2126,"äºĮæĽ´":2127,"æĹłæķ°":2128,"åīįåİ»":2129,"å½ĵå¤ľ":2130,"èį£":2131,"çº·":2132,"è®¡è®®":2133,"é»ĳ":2134,"æ··":2135,"è½¦ä»Ĺ":2136,"ç¨·":2137,"çĬ¶":2138,"èĳ£æī¿":2139,"ç³»":2140,"éª¤é©¬":2141,"åİīå£°":2142,"è¯º":2143,"åĩ¶":2144,"ç»Ń":2145,"åľĨ":2146,"è°ķ":2147,"å½¢":2148,"åħ¶äºĭ":2149,"èĩªå¼ķ":2150,"åľ¨åĲİ":2151,"çĽ¸åĬ©":2152,"ä¸īæĹ¥":2153,"åĪ°æŃ¤":2154,"çŁ¥ä¹ĭ":2155,"æŃ£æ¬²":2156,"æŃ£éģĩ":2157,"ç«¹":2158,"ç«ł":2159,"åŃĻåĿļ":2160,"åıĸèįĨå·ŀ":2161,"é£ŀé©¬":2162,"æķ°æĹ¥":2163,"çī§":2164,"çĶ¨åħµ":2165,"å¿łä¹ī":2166,"æħ°":2167,"æŁĲæĦ¿":2168,"èĲ¥ä¸Ń":2169,"è§Ĥä¹ĭ":2170,"çıŃå¸Ī":2171,"ç¤¾ç¨·":2172,"æŃĮ":2173,"èĩ¾":2174,"åĩ¡":2175,"æĬ¼":2176,"è°¨":2177,"ä½ķè¶³":2178,"åĲ¾æ¬²":2179,"ä¸İæĪĳ":2180,"åŁİæ±ł":2181,"çļĨæĺ¯":2182,"èį¡":2183,"æĻĵ":2184,"åĽĽäºº":2185,"ä¸¤è¾¹":2186,"ç§¯":2187,"å°ıæ²Ľ":2188,"çĸı":2189,"æĶ»ä¹ĭ":2190,"ç¤º":2191,"æı´":2192,"çĽ´èĩ³":2193,"å¤ıä¾¯éľ¸":2194,"å¦ĤæŃ¤å¦ĤæŃ¤":2195,"ä¹ħçŁ£":2196,"åģı":2197,"é¡»èĩ¾":2198,"æ±Ĥæķĳ":2199,"åĪĨä»ĺæĽ°":2200,"æĬµæķĮ":2201,"çŀĴ":2202,"åħĸ":2203,"ä¹ĭä¸ĭ":2204,"æĺĤ":2205,"åĩŃ":2206,"çŁĽ":2207,"ä»Ĭå¤ľ":2208,"èĩªæŃ¤":2209,"æĹłäºº":2210,"ç«ĸ":2211,"çģ¯":2212,"å§ĭ":2213,"ç¦Ħ":2214,"çĲ®":2215,"å²Ĥä¸į":2216,"çªĥ":2217,"æıĲåħµ":2218,"ä¹Ĳè¿Ľ":2219,"æ¯ıæĹ¥":2220,"åĨł":2221,"ä¸įå·²":2222,"å®¾":2223,"å¿«":2224,"éĹ²":2225,"éĹ¿":2226,"æľīäºº":2227,"æŃ¤å¤Ħ":2228,"ç»¶":2229,"çŁ¢":2230,"åĲ¾å½ĵ":2231,"è·Ł":2232,"çĦļ":2233,"æ¯Ĵ":2234,"æ¯Ľ":2235,"çľģ":2236,"å²Ń":2237,"åĽĽä¸ĭ":2238,"éĹ¨å¤ĸ":2239,"æĸ¹æ¬²":2240,"éĴ±":2241,"åĽ´ä½ı":2242,"è±¡":2243,"ä¸Īå¤«":2244,"æ¯ĶåıĬ":2245,"èĸĦ":2246,"ç¯¡":2247,"æĽ²":2248,"ä»į":2249,"å°¹":2250,"å°¾":2251,"ä½Ĺ":2252,"é©¬å¿ł":2253,"æĪ´":2254,"æŃ¤è®¡":2255,"ä¾µ":2256,"å¯Į":2257,"æĽ¹ä¼ĳ":2258,"ä»Ĭèĭ¥":2259,"æİ·":2260,"ä¸īåįģä½Ļ":2261,"åīįåĨĽ":2262,"åıĪåĶ¤":2263,"å®īå¾Ĺ":2264,"éĽĴ":2265,"è½®":2266,"çĻ¾ä¸ĩ":2267,"ä¸¤ä¸ĭ":2268,"é»Ħå·¾":2269,"Ġåį´è¯´æĽ¹æĵį":2270,"éĺµåīį":2271,"æłħ":2272,"æĶ¶åħµ":2273,"å¾ĦåĪ°":2274,"æİ¨åĩº":2275,"åĬ«å¯¨":2276,"æ½ĺ":2277,"å¥ĭåĬĽ":2278,"ç±į":2279,"çĤ®åĵį":2280,"æªĦ":2281,"éŀį":2282,"ĠæĹ¶":2283,"èĢĢ":2284,"åĽĬ":2285,"æĪ·":2286,"ä¸ºå¤§":2287,"èĢĮèµ·":2288,"ä½ķå¿ħ":2289,"åĲ¾èĩª":2290,"æĢľ":2291,"åħ³æŁĲ":2292,"æĹ¶åĪĨ":2293,"å±±è°·":2294,"éģĤåĳ½":2295,"æŃ»èĢħ":2296,"æ²ī":2297,"å¤ªåĤħ":2298,"åĢ¾":2299,"çĶŁæĵĴ":2300,"Ġåį´è¯´åŃĶæĺİ":2301,"è´¥åĨĽ":2302,"èįĨè¥Ħ":2303,"å°ļä¹¦":2304,"ç©·":2305,"åı·ä»¤":2306,"çĵĺ":2307,"è£ħ":2308,"é¢ľèī¯":2309,"è®¨è´¼":2310,"åĥļ":2311,"åī¯å°Ĩ":2312,"çĩ":2313,"éĦ":2314,"ä¸ĺ":2315,"äº¬":2316,"ä¸įæĥ³":2317,"åħµèĩ³":2318,"èµĸ":2319,"å¸ħ":2320,"æĵįä»¤":2321,"éĻĦ":2322,"å¯Ĵ":2323,"æĽ¹çĿ¿":2324,"å±Ī":2325,"æ¬£":2326,"äºĮåŃĲ":2327,"åħ¥åĲİ":2328,"åīįåĲİ":2329,"åıªæĺ¯":2330,"æŃ£è¡Į":2331,"åĲ´ä¸»":2332,"åı¸å¾Ĵ":2333,"ç¦Ģ":2334,"æ·Ŀ":2335,"ç®Ģ":2336,"æŃ¦ä¾¯":2337,"åĲĪæ·Ŀ":2338,"æĹ©æĻļ":2339,"åķĨè®®æĽ°":2340,"çĥ¦":2341,"çĥŁ":2342,"èĽĩ":2343,"èĦļ":2344,"éªĤæĽ°":2345,"æĳĨ":2346,"éº¦":2347,"å´Ķ":2348,"æºª":2349,"å¤ķ":2350,"ä¹ĭæīĢ":2351,"ä¹ĭåĬ¿":2352,"æĿŁ":2353,"åįł":2354,"å®Į":2355,"è¯ī":2356,"å¤§ç¬ĳ":2357,"é©¬ä¸Ĭ":2358,"æĿ¥æķĳ":2359,"å¸Ĥ":2360,"ä¸ĭä»¤":2361,"äºİè·¯":2362,"åľº":2363,"ä¸ºä¸Ĭ":2364,"éĥĿ":2365,"åİ»è·¯":2366,"èĩªåĽŀ":2367,"åº·":2368,"åħ¥å®«":2369,"æģ°":2370,"å¿ħä¸į":2371,"æŃ£åľ¨":2372,"èµ·èº«":2373,"ä¿Ń":2374,"ç¬Ķ":2375,"çĸ®":2376,"å¾Ĳåº¶":2377,"ç»´æĽ°":2378,"çľĭæĹ¶":2379,"æĪĲåĬŁ":2380,"åįĥä½Ļ":2381,"éĩįèµı":2382,"èĲ¥å¯¨":2383,"é½¿":2384,"éĤĵèĬĿ":2385,"åĦģ":2386,"èĻļå®ŀ":2387,"åħ¸éŁ¦":2388,"åħ¬åŃĻçĵĴ":2389,"å®¡éħį":2390,"ĠæĽ¹æĵį":2391,"åħ°":2392,"å°ĺ":2393,"å®ĭ":2394,"åħµä¸į":2395,"é©¬è°¡":2396,"æĪ¿":2397,"æĪı":2398,"ä¼ĺ":2399,"æŃ¤åİ»":2400,"æŃ¤æĺ¯":2401,"ä¸ºåı·":2402,"è§ģä¹ĭ":2403,"æĢİ":2404,"æĽ¹åħ¬":2405,"åħ¬åŃĲ":2406,"çŃµ":2407,"åºĬ":2408,"äºĨä¸Ģ":2409,"æĻĶ":2410,"çīµ":2411,"åĢ¼":2412,"æĸ¹æīį":2413,"ç»įæĽ°":2414,"åĪĢæĸ§":2415,"è¿½æĿĢ":2416,"æļ´":2417,"æį¢":2418,"å¤ıä¾¯æ¥Ļ":2419,"æĤ¬":2420,"ç¿Ķ":2421,"è¶³ä¸ĭ":2422,"è°¢æĽ°":2423,"åĮ¹å¤«":2424,"åħ·è¨Ģ":2425,"éģ¥æľĽ":2426,"è¡ĹäºŃ":2427,"åħĸå·ŀ":2428,"æĿ¯":2429,"ä¸įèĥľ":2430,"åħµè´¥":2431,"å¤§è·¯":2432,"å¤§èµ·":2433,"è¿·":2434,"è´¨":2435,"å¯Ł":2436,"åħ¬æĽ°":2437,"åŃĶèŀį":2438,"åºĨ":2439,"æİª":2440,"æİĺ":2441,"åĿł":2442,"é£ŀæĽ°":2443,"èĲĮ":2444,"éľ²":2445,"å¦Ĥä½ķä¸į":2446,"æĿ¨å¥ī":2447,"éĥ¨ä¸ĭ":2448,"çıł":2449,"æŃ¢æľī":2450,"æĪªä½ı":2451,"ç±³":2452,"âĢĶâĢĶ":2453,"åĩĮç»Ł":2454,"å¤§åĳ¼æĽ°":2455,":âĢĺ":2456,"åħ®":2457,"é©¿":2458,"ç»ķ":2459,"çŁŃ":2460,"è§ģçİĦå¾·":2461,"è°Ī":2462,"åĲ¾ä¸»":2463,"å¯¡":2464,"èĩªæĿ¥":2465,"åŃĶæĺİç¬ĳæĽ°":2466,"å¾Ĺèĥľ":2467,"å¤©æ°´":2468,"åĪĺçĲ¦":2469,"éķ¿åŃĲ":2470,"éļĶ":2471,"é¡·":2472,"èĪħ":2473,"ç«ĭé©¬":2474,"éĩįåĽ´":2475,"ä»ĸäºº":2476,"æĹĹåı·":2477,"èĢģå¤«":2478,"èģĺ":2479,"æ®µ":2480,"å¾Ħåıĸ":2481,"éĵ¶":2482,"çıª":2483,"é¼ĵè§Ĵ":2484,"è¯¸å°ĨæĽ°":2485,"ä¼Ĺå°ĨæĽ°":2486,"ç¨ĭæĺ±":2487,"å¼ĵå¼©":2488,"çĻ¾ä½Ļäºº":2489,"éĽĴåŁİ":2490,"åħĨ":2491,"ä¹ĭæīį":2492,"æĿĤ":2493,"å®¿":2494,"ä½Ĳ":2495,"å¼ĺ":2496,"å¤§å¤«":2497,"èµĦ":2498,"èµļ":2499,"ä¼Ĭ":2500,"ç»ª":2501,"éĢĶ":2502,"æĽ¹çĪ½":2503,"èĩªçĽ¸":2504,"æĥ¶":2505,"æĺ¯ä¹Ł":2506,"æİ£":2507,"åĪ°æĿ¥":2508,"å·²è¢«":2509,"å®īæ°ĳ":2510,"éĽ¶":2511,"è¡Įä¸į":2512,"æľªåıĬ":2513,"æľªå°Ŀ":2514,"æķ°ä¸ĩ":2515,"å¤ªå¸Ī":2516,"å¤ªå°ī":2517,"å®ĺåĥļ":2518,"ç¾ŀ":2519,"é«ĺé¡º":2520,"æĵĴä¹ĭ":2521,"åı«æĽ°":2522,"å¤«äººæĽ°":2523,"æıĲåĪĢ":2524,"å¤ºäºĨ":2525,"æ¸¡æ±Ł":2526,"éº¾":2527,"åį§é¾Ļ":2528,"éļĺåı£":2529,"éĹ®åħ¶æķħ":2530,"éĻ¶è°¦":2531,"®éĺ³":2532,"ä¹Ķ":2533,"æĿ°":2534,"ä¸įçĶ¨":2535,"ä¸įç»Ŀ":2536,"å®ĩ":2537,"å¤§èĩ£":2538,"ä¸ĢæĹ¶":2539,"éĹª":2540,"å¸Ľ":2541,"ç»ĥ":2542,"ä¸Ńéĥİ":2543,"æĬĹ":2544,"ä¸ºäºº":2545,"å½Ŀ":2546,"åĲ¾æĸĻ":2547,"å±ı":2548,"ä¸İçİĦå¾·":2549,"æĭ©":2550,"åħ¶åŃĲ":2551,"è¾Ĩ":2552,"åĽŀåİ»":2553,"æĥĳ":2554,"ä¸īåĲĪ":2555,"åħ³ä¸Ĭ":2556,"åįģäºĮ":2557,"æ±ĿåįĹ":2558,"èĭ¥å¾Ĺ":2559,"æĪĺèĪ¹":2560,"å¯¨æłħ":2561,"é¡¹":2562,"åįĹå®ī":2563,"æ±Łè¾¹":2564,"å¹³çĶŁ":2565,"çķı":2566,"å¾ħä¹ĭ":2567,"æĶ»åŁİ":2568,"è¿İä¹ĭ":2569,"æįŁ":2570,"èĻ½æľī":2571,"çĪ¶äº²":2572,"ä¹ĺèĻļ":2573,"åłª":2574,"çĮ®å¸Ŀ":2575,"å¸¸ä¾į":2576,"å¹¸å¾Ĺ":2577,"ç¿¼å¾·":2578,"åįİæŃĨ":2579,"åĲİäººæľīè¯Ĺåı¹æĽ°":2580,"ç³ľèĬ³":2581,"é¹¿":2582,"å´©":2583,"ç¿»èº«":2584,"è¨Ģæľªæ¯ķ":2585,"ä¸ºåīįéĥ¨":2586,"ĲåĸĬ":2587,"ä¹ĭåĨħ":2588,"ä¹ĭæ³ķ":2589,"åĨĴ":2590,"ä¸įåĪĨ":2591,"ä¸įå¿į":2592,"ä¸Ģå¤Ħ":2593,"å°ĨæĿ¥":2594,"å·¢":2595,"æľīæŃ¤":2596,"æĬĦ":2597,"çĶ«":2598,"åĩºå¸Ī":2599,"åĲ¾ä¹ĥ":2600,"æĢª":2601,"æĢķ":2602,"åı¯ä¹Ł":2603,"åĳĲåĸĬ":2604,"ä¸Ĭè¡¨":2605,"å¼łç»£":2606,"ä»¤åĨĽå£«":2607,"éĿĸ":2608,"æĺ¯æĹ¥":2609,"æİł":2610,"ä¸īæĽ´":2611,"å¤©æĺİ":2612,"ç¥¥":2613,"æ³¸":2614,"éĤĢ":2615,"æ²¿":2616,"åĽĽæķ£":2617,"åį³æĹ¶":2618,"æµ©":2619,"æµ®":2620,"å·¦è¾¹":2621,"é«¦":2622,"é«¯":2623,"èµ¶ä¸Ĭ":2624,"åĲĽä¾¯":2625,"æģĲæľī":2626,"å§ĵåĲį":2627,"æ¶ķ":2628,"éĤ£éĩĮ":2629,"åĨ²çªģ":2630,"é©±åħµ":2631,"åĵ¨é©¬":2632,"å¯¿æĺ¥":2633,"æĭ¦ä½ı":2634,"çĩķ":2635,"åĪĢæĸ§æīĭ":2636,"±¼":2637,"é±¼":2638,"åħĶ":2639,"ä¹ĭåĬĽ":2640,"ä¸įèĭ¥":2641,"ä¸įçĦ¶":2642,"åįļ":2643,"åįľ":2644,"ä½¯":2645,"ä½İ":2646,"ä¸Ģæŀª":2647,"æĿ¥æĬ¥":2648,"çĽĶ":2649,"èĢĮè¨ĢæĽ°":2650,"åĲ¾å¼Ł":2651,"æĺİæĹ¥":2652,"å±¡":2653,"åħ¶è®¡":2654,"çİĦå¾·ä¸İ":2655,"èĭı":2656,"åħ³äºĳéķ¿":2657,"è·ª":2658,"éķľ":2659,"æ³ł":2660,"ä¾¿åı¯":2661,"ä»İäºº":2662,"åĽĽæĸ¹":2663,"éĢĢåĨĽ":2664,"éĹ¨æĹĹ":2665,"æ°´åĨĽ":2666,"è´¥åħµ":2667,"çľĭæ¯ķ":2668,"åºĶå£°":2669,"éĺ³å¹³":2670,"éĺµä¸Ń":2671,"æĺŃæĽ°":2672,"éĴ§":2673,"æ¶ª":2674,"åģļ":2675,"èī¯ä¹ħ":2676,"æİ¢çŁ¥":2677,"æĲŃ":2678,"è´¤å¼Ł":2679,"èĲ½é©¬":2680,"è£Ĥ":2681,"å»ºå®ī":2682,"æĿ¾æĽ°":2683,"ä¹ĭè®¡ä¹Ł":2684,"ä¿®ä¹¦":2685,"åĥ»":2686,"æĳĩ":2687,"çŀ»":2688,"ä»²è¾¾":2689,"è·ĥé©¬":2690,"éĶĲæ°Ķ":2691,"æĸľè°·":2692,"ĺçĦ¶":2693,"ä¹ĭåĬŁ":2694,"ä¹ĭç½ª":2695,"ä¹ĭæģ©":2696,"ä¹ĭçī©":2697,"åĪļ":2698,"ä¼į":2699,"åİĨ":2700,"éģ®":2701,"è°¯":2702,"åĲ¾ä¹ĭ":2703,"åĲ¾æľī":2704,"äºĮå«Ĥ":2705,"è¨Ģè¯Ń":2706,"æģ¢":2707,"çŁ¥åħ¶":2708,"å¿ħæĿ¥":2709,"éŃıåĨĽ":2710,"èįĴ":2711,"ä½¿åĳ½":2712,"çİĭåħģ":2713,"éģĤä¸İ":2714,"åĿĳ":2715,"ä¾¿æĺ¯":2716,"éĤº":2717,"è¯¸åĨĽ":2718,"çĿ¡":2719,"æ¸¸":2720,"åį³ä»¤":2721,"åĢį":2722,"åĲĦå¤Ħ":2723,"éĻĪä»ĵ":2724,"èĻ½çĦ¶":2725,"å¼ĢéĹ¨":2726,"çĬ¬":2727,"çªľ":2728,"çļĩåĲİ":2729,"åĨ²å¤©":2730,"è¯Īè´¥":2731,"åĵ¨æİ¢":2732,"éĻĩè¥¿":2733,"æ³¸æ°´":2734,"æ³łèĭŀ":2735,"ç¡":2736,"åĲŁ":2737,"ä¸įåľ¨":2738,"åĨĽæ°ĳ":2739,"å¿Į":2740,"è§ĳ":2741,"é©¬åĮ¹":2742,"è®°":2743,"æī¯":2744,"ä½ķä¹Ł":2745,"å½°":2746,"å¾ĹèĦ±":2747,"è¢ĸ":2748,"æĿĢå¥Ķ":2749,"æģĥ":2750,"åįģäºĶ":2751,"éŃĤ":2752,"å½ĵä¸ĭ":2753,"åĲ´çıŃ":2754,"ä¾¿æķĻ":2755,"å£«åįĴ":2756,"æ²¹":2757,"åįĹéĺ³":2758,"åĽĽå°Ĩ":2759,"éĢĢåİ»":2760,"è¥¿åĮĹ":2761,"ä¸ĶåĲ¬":2762,"å¸ĿæĽ°":2763,"åĳ¨éĥİ":2764,"éĺµåĬ¿":2765,"éŁ³":2766,"èĪ¹ä¸Ĭ":2767,"è¡¨æĽ°":2768,"æİ¥åħ¥":2769,"é¥Ń":2770,"åıĹè®¡":2771,"å¼łé£ŀæĽ°":2772,"èĢģå°ı":2773,"æł¹":2774,"è¯¸èĳĽçĳ¾":2775,"é¼ł":2776,"åłĨ":2777,"å¯Ĩä¹¦":2778,"éĤ£æĹ¶":2779,"è±ª":2780,"æ¥ļ":2781,"æĸŃåĲİ":2782,"çºªçģµ":2783,"è²Į":2784,"éĺ¶ä¸ĭ":2785,"éĴ±ç²®":2786,"åıĭ":2787,"ä¸įæĪĺ":2788,"ä¸įæľį":2789,"åĨĽå¿ĥ":2790,"åĨĽåĻ¨":2791,"è¯¡":2792,"æĵĤ":2793,"æĵįè´¼":2794,"æĬ¢":2795,"è§ģåŃĶæĺİ":2796,"åı¯æĵĴ":2797,"åī¿":2798,"æĭĪ":2799,"ä¹ĥè°ĵ":2800,"èĩªé¢Ĩ":2801,"åħ¥åĨħ":2802,"ä¸īåįģéĩĮ":2803,"åĪĺçļĩåıĶ":2804,"å±±åĿ¡":2805,"æ¯Ĺ":2806,"éķ¿åı²":2807,"æ³¢":2808,"å®īèĤ¯":2809,"åıĸäºĨ":2810,"éĤ³":2811,"èľĢå°Ĩ":2812,"æīĭæī§":2813,"Ġåį´è¯´çİĦå¾·":2814,"éĶģ":2815,"èĪ¹åıª":2816,"éĻĪçķĻ":2817,"éĻĪæ³°":2818,"æĿİåĦĴ":2819,"è½¦ä¸Ĭ":2820,"æıĴ":2821,"çĭ¼":2822,"åīĳéĺģ":2823,"èī¯çŃĸ":2824,"æµģé©¬":2825,"è±¹":2826,"åľŁäºº":2827,"åħĥå¹´":2828,"åºľä¸Ń":2829,"å¯»æĢĿ":2830,"æ·®åįĹ":2831,"æľ¨çīĽ":2832,"åĲİäººæľīè¯ĹæĽ°":2833,"æĴ¤":2834,"çķ¥æĽ°":2835,"çĨĻ":2836,"æĿ¡è·¯":2837,"ç¾Įåħµ":2838,"è´¹ç¥İ":2839,"åĹ£":2840,"ç°ĩ":2841,"é¦Ĩé©¿":2842,"æ½ĺçĴĭ":2843,"å½ĿéĻµ":2844,"æ§":2845,"ä¸įå®ī":2846,"ä¸įåĪ©":2847,"ä¸įè¯Ĩ":2848,"å®ħ":2849,"è¯į":2850,"å¿¿":2851,"å¤§è¿Ľ":2852,"ä¸ĭéĤ³":2853,"ä¸Ńè®¡":2854,"èĢĮå·²":2855,"ä½ķè¿Ľ":2856,"éĻ¢":2857,"è´¢":2858,"å¦¹":2859,"èĥĦ":2860,"å¼ķæľ¬éĥ¨":2861,"åħĪè¡Į":2862,"åįģæķ°":2863,"å½ĵä¹ĭ":2864,"ä¼Ĺè§Ĩä¹ĭ":2865,"åĿŀ":2866,"å®ĪåŁİ":2867,"æľªæķ¢":2868,"å¹³åİŁ":2869,"æµħ":2870,"å¤ªåŃĲ":2871,"åįĥéĩĮ":2872,"å¹¶åĬĽ":2873,"èµµåŃĲé¾Ļ":2874,"æİ¥çĿĢ":2875,"åĨįæĭľ":2876,"åħĦéķ¿":2877,"ä¼ĳçŁ£":2878,"ä¼ĳèµ°":2879,"æľ¬å¯¨":2880,"æĲ¬":2881,"ä¾įä¸Ń":2882,"æľīä¸Ģè®¡":2883,"ä¼ĲåĲ´":2884,"åį±çŁ£":2885,"éĢłåıį":2886,"ä¸Ģå£°çĤ®åĵį":2887,"æĬĺäºĨ":2888,"æ¼ı":2889,"éĨĴ":2890,"å¤§åĸĿæĽ°":2891,"ç®ĢéĽį":2892,"ä¸ĶåĲ¬ä¸ĭæĸĩåĪĨè§£":2893,"äºĽ":2894,"åĨ¬":2895,"åį¢":2896,"åį·":2897,"å®ª":2898,"åĨĽåīį":2899,"åħµé©¬":2900,"åħµæ³ķ":2901,"å¤§åĬŁ":2902,"ä¸ĢåĲĮ":2903,"å°Ĩèĩ³":2904,"éĹ·":2905,"çĽĺ":2906,"æŃ¤å¿ħ":2907,"ç»µ":2908,"çĶ·":2909,"å¹½":2910,"éĻħ":2911,"å¯Ŀ":2912,"ä»¥æĿ¥":2913,"ä»¥éĺ²":2914,"èĥ¤":2915,"èĥ¸":2916,"èĩªå·±":2917,"éĩĬ":2918,"è·³":2919,"çŁ¥æĺ¯":2920,"éŃıå°Ĩ":2921,"åıĪä»¤":2922,"å·²åĪ°":2923,"å·²æŃ»":2924,"ä¼Ĺè°ĭå£«":2925,"äºĳæĽ°":2926,"æŃ£åĲĪ":2927,"çİĭæľĹ":2928,"åıĸä¹ĭ":2929,"éĽ¾":2930,"è¡Įèĩ³":2931,"åĲ´æĩ¿":2932,"æĮĳ":2933,"å£«ä»ģ":2934,"ä»İäºĭ":2935,"èĪ¬":2936,"èĪĮ":2937,"ç¬¦":2938,"æĢ¥ä»¤":2939,"åĽĽæµ·":2940,"å§Ķ":2941,"åį³åĳ½":2942,"æīĢè¨Ģ":2943,"æīĢæĿĢ":2944,"åĢļ":2945,"ç§į":2946,"è¥¿èľĢ":2947,"è¯·çİĦå¾·":2948,"é¢ĨåĨĽ":2949,"åı³è¾¹":2950,"çĲ°":2951,"æį·":2952,"çĮİ":2953,"æ¡ĳ":2954,"è¿ŀæĹ¥":2955,"æĤ¦":2956,"æĽ´åħ¼":2957,"åĬ¨éĿĻ":2958,"éĥŃåĺī":2959,"è¿ĳèĩ£":2960,"çĻ½æĹĹ":2961,"å¤ºè·¯":2962,"æ½ľ":2963,"æĬ«æĮĤ":2964,"äºĶçĻ¾åĨĽ":2965,"è¸ı":2966,"åį°ç»¶":2967,"åĹŁ":2968,"çħ§":2969,"æİ¨åĩºæĸ©ä¹ĭ":2970,"æľ¨çīĽæµģé©¬":2971,"è¹":2972,"ä¹ĭéģĵ":2973,"åĨ¯":2974,"ä¸įä¸ĭ":2975,"å¼ı":2976,"ä¸Ģä¸ĩ":2977,"ä¸ĢæľĪ":2978,"ä¸ĢæŀĿ":2979,"è®¤":2980,"èĢĮéĢĥ":2981,"åĲ¾ä¸į":2982,"æĢı":2983,"ä»¥èĩ´":2984,"åħ¬çŃī":2985,"ä¸İåĲ¾":2986,"åħ¶ä¸į":2987,"åħ¶æķ°":2988,"çİĦå¾·å¤§åĸľ":2989,"åŁİåĨħ":2990,"åº¸":2991,"å¼ķä¸īåįĥ":2992,"åħ¥æľĿ":2993,"æģŃ":2994,"ä¸īçĻ¾":2995,"ä¸»ä¸Ĭ":2996,"åīįäºĭ":2997,"å¤©åľ°":2998,"çļĨè¢«":2999,"äºĭä¸į":3000,"åıĪè§ģ":3001,"åıªæľī":3002,"å±±åĲİ":3003,"å±±åĥ»":3004,"æ¯ģ":3005,"ç«Ń":3006,"åŃĻç¤¼":3007,"éļĨ":3008,"çīĩ":3009,"ç§Ģ":3010,"å°ıåĦ¿":3011,"é»Ħæĺı":3012,"æĥĬæĽ°":3013,"çĸ²":3014,"è®¸æĶ¸":3015,"è¢ģè°Ń":3016,"åĨħåºĶ":3017,"éħ£":3018,"å¤ļæľī":3019,"æĭľè¾ŀ":3020,"å®ļåĨĽ":3021,"è¿ĩåİ»":3022,"çĲ¬":3023,"éĻĪçĻ»":3024,"å½Ĵè·¯":3025,"æ¡ĥ":3026,"èģª":3027,"é½Ĳåĩº":3028,"åŃĹåŃĲ":3029,"åģ·":3030,"éĵł":3031,"ä½Ĩè§ģ":3032,"å°ĳé¡·":3033,"æİ¢åĲ¬":3034,"åħģæĽ°":3035,"ä¸ĸä¹ĭ":3036,"åıĶçĪ¶":3037,"ä¼ĲéŃı":3038,"éĿĴå·ŀ":3039,"è¯ĪéĻį":3040,"åĮ¹é©¬":3041,"å¦»åŃĲ":3042,"åŀĴ":3043,"è´¾åħħ":3044,"è¿Ĳç²®":3045,"ç¢İ":3046,"æ¹ĸ":3047,"æ··æĪĺ":3048,"çĺ":3049,"ä¹ĭåīį":3050,"ä¹ĭåĳ½":3051,"åįĪ":3052,"æĹ±":3053,"æĺ¼":3054,"èĢ¿":3055,"å¤§å¼Ģ":3056,"çĽĹ":3057,"æĵįå¤§åĸľ":3058,"ç»Ļ":3059,"è§ģæĵį":3060,"éĢĲ":3061,"ä½ķåľ¨":3062,"åĩºç¥ģå±±":3063,"å¦ĥ":3064,"ä»Ĭåı¯":3065,"ä»ĬåıĪ":3066,"ä¸İæĽ¹æĵį":3067,"å£ķ":3068,"äºĮåįĥ":3069,"æĥŃ":3070,"çļĨæľī":3071,"åĪĺçĴ":3072,"åıªåľ¨":3073,"æĬ¥åħ¥":3074,"éķ¿æ²Ļ":3075,"åŃĻç¶Ŀ":3076,"åĮ¡":3077,"çŃīåĢĻ":3078,"æķ°éĩĮ":3079,"å¿½éĹ»":3080,"æ±īæ°´":3081,"çĶŁæŃ»":3082,"è¥¿éĹ¨":3083,"æ·»":3084,"åĽ½ä¹ĭ":3085,"åĸľæĽ°":3086,"å¤ļå°ĳ":3087,"æĭľä¼ı":3088,"çĲ¼":3089,"æļ¹":3090,"æĿİä¸¥":3091,"çĶļæĺ¯":3092,"å½ĴéĻį":3093,"æĤŁ":3094,"ä¹ĺé©¬":3095,"ç¨į":3096,"é¼İ":3097,"ç»ŁæĽ°":3098,"ç¼º":3099,"æ»ļ":3100,"åħ±è®®":3101,"åĨ³ä¸Ģ":3102,"åĬ©æĪĺ":3103,"åį±æĢ¥":3104,"æ»¡å®ł":3105,"äºŃä¾¯":3106,"æĹ¦å¤ķ":3107,"ä¸Ńéĥİå°Ĩ":3108,"ä¹ĭæĥħ":3109,"åĨ·":3110,"ä¸įä¿¡":3111,"ä¸įå®¹":3112,"ä½¥":3113,"ä½©":3114,"ä¸Ģéªĳ":3115,"è§¦":3116,"æĿ¥ä½¿":3117,"æī«":3118,"ç»°":3119,"è°ħ":3120,"åĲ¾åĨĽ":3121,"åĲ¾äº¦":3122,"åĲ¾æĦı":3123,"åı¯å¾Ĺ":3124,"å¼łæĿ¾":3125,"åħ¶å¿ĥ":3126,"æ¬¢":3127,"åºĲ":3128,"æĺ¯è°ģ":3129,"å¾ĹäºĨ":3130,"æĹłè·¯":3131,"æĹłè°ĭ":3132,"æĹłç¤¼":3133,"æģĭ":3134,"æģķ":3135,"æ±Ŀä½ķ":3136,"åıĪæľī":3137,"åıªåĲ¬å¾Ĺ":3138,"åį´è¢«":3139,"æ¯ĭ":3140,"ç¥ľ":3141,"æľªè¿Ł":3142,"æ²®":3143,"éĿ¢çĽ®":3144,"åĽĽåįģ":3145,"é»ĺçĦ¶":3146,"ä¸¤å®¶":3147,"äºĶåħŃ":3148,"æ°´éķľ":3149,"çĸĨ":3150,"è®¸å¤ļ":3151,"åĲįæĽ°":3152,"å¤ļè¨Ģ":3153,"çľĭçľĭ":3154,"é«ĺå®ļ":3155,"ä¼ļåĲĪ":3156,"æĦ¿å¾Ģ":3157,"å¥ĶåĽŀ":3158,"ä¹±ç®Ńå°Ħ":3159,"åįĵæĽ°":3160,"åŃŁå¾·":3161,"å®«æĽ°":3162,"æ¶Ĥ":3163,"åĴ¨":3164,"çºµæ¨ª":3165,"æŃ¥åĨĽ":3166,"éĽįå·ŀ":3167,"éĽįéĹ¿":3168,"æ¼«":3169,"äºĶåįĥåħµ":3170,"èµ¤åħĶ":3171,"é¸£éĩĳ":3172,"æķ°åįģéªĳ":3173,"æĻ¯åįĩ":3174,"æ¦»":3175,"ç°¿":3176,"åĵ¥åĵ¥":3177,"åĲİäººæľīè¯ĹèµŀæĽ°":3178,"åħ¥åĲİåłĤ":3179,"éĺ³å¹³åħ³":3180,"ĠæŃ£":3181,"ãĢĤâĢĻ":3182,"åı©":3183,"åĲĲ":3184,"ä¸įå¹¸":3185,"æĹ·":3186,"å¤§ä¸Īå¤«":3187,"ä¸Ģè·¯":3188,"ä¸ĢåįĬ":3189,"ä¸Ģåĳĺ":3190,"é©¬èī¯":3191,"ä¸ĭå±±":3192,"äºİåĲī":3193,"ä¸Ńæľī":3194,"ä¸ºä½¿":3195,"èĢĮåĵŃ":3196,"ä»¥æŃ¤":3197,"ä»¥åĽ¾":3198,"çļĤ":3199,"äºĮä¸ĩ":3200,"äºĮè´¼":3201,"å¼ķæķ°":3202,"èĩ³ä»Ĭ":3203,"è·µ":3204,"å¤©æĸĩ":3205,"åıĪæĽ°":3206,"å±±è·¯":3207,"æ¬²æĿĢ":3208,"æŃ£ä¸Ń":3209,"æŃ£ä¸İ":3210,"çľī":3211,"å®īèĲ¥":3212,"ä¸ľéĹ¨":3213,"å¹³æĽ°":3214,"æĸ¹ä»Ĭ":3215,"æ°´éĻĨ":3216,"è¥¿åįĹ":3217,"é»Ħçļĵ":3218,"éĶĻ":3219,"å¾ħæĪĳ":3220,"å¤ļè°ĭ":3221,"æķĳåºĶ":3222,"çŃĸæĽ°":3223,"åĬ¿å¤§":3224,"éªĳå°ĨåĨĽ":3225,"éĴº":3226,"åıįè´¼":3227,"æľ¬åĪĿ":3228,"åĶ¤åħ¥":3229,"è¾½ä¸ľ":3230,"è°·åı£":3231,"ä¸¾çģ«":3232,"æī¿æĽ°":3233,"ä¸įå¾Ĺå·²":3234,"å®ĹæĹı":3235,"å«ģ":3236,"æ³£æĽ°":3237,"èįĢæĶ¸":3238,"çİ°åľ¨":3239,"ä»°å¤©":3240,"åıĤåĨĽ":3241,"éĺ¿æĸĹ":3242,"ä¸ºé¦ĸå¤§å°Ĩ":3243,"æĢ§åĳ½å¦Ĥä½ķ":3244,"è¯¡è®¡":3245,"¡é¡»":3246,"Ġäºİæĺ¯":3247,"ä¸įä¸º":3248,"ä¸įæīį":3249,"å®°":3250,"åĪ»":3251,"åĪĳ":3252,"åŃ£":3253,"å¼¦":3254,"åĨĽä»¤":3255,"ä¸ĢåĲĪ":3256,"ä¸Ģç®Ńå°Ħ":3257,"æĿ¥åıĸ":3258,"æĿ¥æĶ»":3259,"è®¿":3260,"ä¸ĭèĪ¹":3261,"éĢı":3262,"ä½ķä¸º":3263,"åĲ¾åħĦ":3264,"å¦ĸ":3265,"ä¸Ĭå°Ĩ":3266,"å±ĭ":3267,"å±ķ":3268,"æĭĸ":3269,"åħ¶ç¼ļ":3270,"çŃı":3271,"æ¬¾":3272,"åĽŀåĨĽ":3273,"åĽŀèº«":3274,"åľ¨å¤ĸ":3275,"åħ¥å·Ŀ":3276,"åħ³éļĺ":3277,"åŃĲæľį":3278,"èį¼":3279,"åĪĺå²±":3280,"åĪĺè±«å·ŀ":3281,"åĪĺç¹ĩ":3282,"åıªæģĲ":3283,"å±±ä¸Ń":3284,"ä»İèĢħ":3285,"éĤĪ":3286,"æľªåĨ³":3287,"èĳĹ":3288,"åįĹå¾ģ":3289,"éĥ½å°ī":3290,"æīĢä»¥":3291,"è®®äºĭ":3292,"åĲ¬ä»¤":3293,"æķĳäºĨ":3294,"å¤ıåı£":3295,"è¿ĩæĿ¥":3296,"æĸ©é¦ĸ":3297,"æį§":3298,"æĶ¾å¿ĥ":3299,"å¤±èī²":3300,"èĴ¯":3301,"å¸Ĳåīį":3302,"ä¹ħéĹ»":3303,"æ®·":3304,"å®«ä¸Ń":3305,"éĥŃåĽ¾":3306,"ä½ĨæģĲ":3307,"é¼ĵå£°":3308,"æİ¢é©¬":3309,"è¾½æĽ°":3310,"è¡£çĶ²":3311,"æĸŃåħ¶":3312,"åı±æŃ¦å£«":3313,"éĿĴé¾Ļ":3314,"äºĮåįģéĩĮ":3315,"åĢĺæľī":3316,"æŀģå¤ļ":3317,"æīĺåŃ¤":3318,"èĴĭéĴ¦":3319,"é¹¤":3320,"çİīçİº":3321,"çĶ°ä¸°":3322,"æ¿¡é¡»":3323,"ç´łçŁ¥":3324,"èĸĽ":3325,"éĽ·éĵľ":3326,"å¼ķä¸Ģåįĥ":3327,"èĪŀåĪĢ":3328,"æĳĨå¼Ģ":3329,"èģªæĺİ":3330,"åĪĺçĴĿ":3331,"æĽ¿":3332,"åĲ¹":3333,"ä¹ĭä¸»":3334,"ä¹ĭä»ĩ":3335,"åįĸ":3336,"ä¸Ģå°ģ":3337,"èµ¦":3338,"èµł":3339,"å·¨":3340,"åĩ¯":3341,"æĵįåħµ":3342,"éĻĲ":3343,"æĢ¯":3344,"æĢł":3345,"ä»¥åħµ":3346,"ä»¥æīĭ":3347,"åħ¬ä¹ĭ":3348,"åħ¬åį¿":3349,"ä»Ĭçķª":3350,"ä¸İæ±Ŀ":3351,"åİ»åıĸ":3352,"åħ¶æĦı":3353,"ä¹ĥä»¤":3354,"èĭį":3355,"äºĮå¤«äºº":3356,"åŃĶæĺİä»¤":3357,"å¦ĤéĽ¨":3358,"åľ¨æīĭ":3359,"æĿĢèĩ³":3360,"ä¸īå¹´":3361,"è¯´ä¹ĭ":3362,"æĪĳåĨĽ":3363,"æĪĳä¹Ł":3364,"å¤©åĳ½":3365,"åıĪæĿ¥":3366,"åĪĺçĲ®":3367,"åĪĺæĻĶ":3368,"èĭ¥éĿŀ":3369,"æŃ£è¨Ģ":3370,"å¯¨åīį":3371,"èĻĶ":3372,"çİĭå¿ł":3373,"ç¥Ģ":3374,"åŃĻå¤«äºº":3375,"å®īæİĴ":3376,"åĮº":3377,"æĮŁ":3378,"æ²¡":3379,"é£ŀå¥Ķ":3380,"èĩ£çŃī":3381,"é»İ":3382,"æ±ŁéĻµ":3383,"äºĶè·¯":3384,"æ±īæľĿ":3385,"åĽ½èĪħ":3386,"åĨħå¤ĸ":3387,"èº«éķ¿":3388,"ç«ĭåĬŁ":3389,"çľĭäºĨ":3390,"åºĶæĽ°":3391,"åĳ¨ä»ĵ":3392,"ä½ľä¹¦":3393,"åĲĽèĩ£":3394,"è½¦é©¾":3395,"æĹ©éĻį":3396,"èĬ¦":3397,"å¤±äºĨ":3398,"ç¨ł":3399,"åĿĲå®ļ":3400,"èĢģäºº":3401,"çł´æĽ¹":3402,"èĳ£èį¼":3403,"äº¤é©¬":3404,"å·¦åı³æĽ°":3405,"åłķ":3406,"éļ¾ä»¥":3407,"ä½Ĩæľī":3408,"åĵŃæĭľ":3409,"åħ«åįģ":3410,"åįĬè·¯":3411,"åĭ¿å¿§":3412,"æĲº":3413,"æ·±åħ¥":3414,"èĦĳ":3415,"èĮħ":3416,"åįİéĽĦ":3417,"å¼Ĥå¿ĥ":3418,"æ¿Ģ":3419,"çº¢æĹĹ":3420,"åŁºä¸ļ":3421,"æ´»æįī":3422,"éĥĿæĺŃ":3423,"æµ®æ¡¥":3424,"ä¸ĢæŀªåĪº":3425,"æĵĤé¼ĵ":3426,"å®ļåĨĽå±±":3427,"èĳ£èį¼éĤ£":3428,"ä»Ļ":3429,"ä¹ĭèĩ£":3430,"æĿĳ":3431,"æĹ¬":3432,"èĢ»":3433,"å¤§ä¼ļ":3434,"ä¸Ģåįĥ":3435,"æĪĴ":3436,"çĽı":3437,"æī®":3438,"æĵįç¬ĳæĽ°":3439,"ä¸Ńåıĸ":3440,"èĢĮåĿĲ":3441,"å¹¡":3442,"åĲ¾éĹ»":3443,"åĲİæĤ£":3444,"ä»¥å®ī":3445,"ä¸Ĭå±±":3446,"ä¸Ĭä¹¦":3447,"å¼łæµİ":3448,"åİ»è®«":3449,"è¾Ķ":3450,"èĩªçĦ¶":3451,"èĩªå¼ķåħµ":3452,"åºŃ":3453,"åľ¨åīį":3454,"æĺ¯ä½ķ":3455,"çĽ¸äº¤":3456,"çĽ¸åºľ":3457,"ä¸īæ±Ł":3458,"åįģå¸¸ä¾į":3459,"æĦģ":3460,"çĦ¦":3461,"æ¬²ä¸İ":3462,"éģĤå¼ķ":3463,"èµ·å¤Ħ":3464,"èµ·ç¨ĭ":3465,"éĽĢ":3466,"åĿĤ":3467,"é¡¶":3468,"è¯¸è·¯":3469,"æ²Ł":3470,"ä¸¤é©¬":3471,"ä¸¤éĺµ":3472,"æŁ³":3473,"æĸĩä¹¦":3474,"åĭ¤":3475,"åĭĭ":3476,"åĲĦå¼ķ":3477,"è¯·åħ¥":3478,"ä¸įåı¯ä¸į":3479,"å®ĺæ¸¡":3480,"èº«ä¸Ĭ":3481,"å¤ļæĹ¶":3482,"å¤ļå®ĺ":3483,"æĪĲéĺµåĬ¿":3484,"æĸ©äºĨ":3485,"æ¬¡åŃĲ":3486,"å¤´ä¸Ĭ":3487,"è¡¨å¥ı":3488,"å½Ĵå¯¨":3489,"æĶ¾èµ·":3490,"éļıåį³":3491,"éħĴé£Ł":3492,"èĢģæ¯į":3493,"ç´«":3494,"å½¼åĨĽ":3495,"å¾Ħå¥Ķ":3496,"å¼ĥäºĨ":3497,"å°ĳå¹´":3498,"å®³æĪĳ":3499,"æŃ¢ä¹ĭæĽ°":3500,"è¡£æľį":3501,"åħĥçĽ´":3502,"åĲİä¸»æĽ°":3503,"èĮĤ":3504,"é¸¡":3505,"çĵ¦":3506,"åı±éĢĢ":3507,"åħĪä¸»æĽ°":3508,"æŃ¥è¡Į":3509,"æĭĴæķĮ":3510,"åŀĵ":3511,"äººæĬ¥çŁ¥":3512,"æķ´é¡¿":3513,"çĹĽåĵŃ":3514,"éĶ¦è¢į":3515,"å©¿":3516,"å¤§éªĤæĽ°":3517,"å¤§åĸĿä¸Ģå£°":3518,"ä¸įåı¯è½»æķĮ":3519,"æĪĺä¸įæķ°åĲĪ":3520,"è¾Ľæ¯Ĺ":3521,"å±±è°·ä¸Ń":3522,"åĨ³ä¸ĢæŃ»æĪĺ":3523,"äº«":3524,"åħĢ":3525,"åĲĥ":3526,"åĨľ":3527,"ä¸įè¿ľ":3528,"ä¸įæĢĿ":3529,"åįı":3530,"å®¦":3531,"åĨĽæ³ķ":3532,"åĽļ":3533,"å¤§æ±ī":3534,"è¿¤":3535,"æĿ¥ä¸İ":3536,"åĩĽ":3537,"æĵħ":3538,"ä¸ºä½ķ":3539,"ä¸ºåĲİ":3540,"ä¸ºæĪĳ":3541,"åĩºå¸Ĳ":3542,"éĥ¿":3543,"åı¯çł´":3544,"åı¯æĥľ":3545,"è´¡":3546,"ä»¥å¾ħ":3547,"çļ®":3548,"ä»Ĭå·²":3549,"éĺĶ":3550,"å¦Ĥæľī":3551,"æĥł":3552,"æĹłä¸Ģ":3553,"æĹłæīĢ":3554,"æĹłçĽĬ":3555,"åħĪåıĸ":3556,"ä¸»ç°¿":3557,"é£ĺ":3558,"å¤©èī²":3559,"å¿ħå°Ĩ":3560,"å½ĵæĹ¶":3561,"åıªéģĵ":3562,"å±±ä¸ľ":3563,"éķ¿åĿĤ":3564,"çİĭåıĮ":3565,"ç¥Ŀ":3566,"å®īå¿į":3567,"æŃ»ä¸į":3568,"åĿĩ":3569,"æŀŃ":3570,"ä¾¿åĽŀ":3571,"ä¾¿æ¬²":3572,"è¯¸åħ¬":3573,"èĪĴ":3574,"èīº":3575,"èµ°èĦ±":3576,"æŁ©":3577,"å¹³æĺİ":3578,"åľ°çĲĨ":3579,"æĸĩèģĺ":3580,"éĻįèĢħ":3581,"éĻįè¯ı":3582,"çĶ¨ä¹ĭ":3583,"é»ĦæĿĥ":3584,"è´¼åħµ":3585,"è¢ģçĨĻ":3586,"æķĻæĪĳ":3587,"æķĳä¹ĭ":3588,"é«ĺè§ģ":3589,"ç²®é£Ł":3590,"åıĳåħµ":3591,"çĽ´åħ¥":3592,"æĤ²":3593,"æĤĮ":3594,"åĬ¨åħµ":3595,"æ¶ī":3596,"è¿ĳéĹ»":3597,"åģ¶":3598,"å¾ĦæĬķ":3599,"è¿ľæĿ¥":3600,"åĴ¬":3601,"è¾ŀåİ»":3602,"æıĲéĺ²":3603,"é¥®å®´":3604,"åįģä½ĻéĩĮ":3605,"è¯¸å°ĨçļĨ":3606,"æ¢°":3607,"æĮĩæĽ°":3608,"é¸¯":3609,"è£¹":3610,"è¤Ĵ":3611,"æľ±åĦģ":3612,"åĤħå£«ä»ģ":3613,"çĬ¹è±«":3614,"ä¼¯çº¦":3615,"ç«¥åŃĲ":3616,"æĢ»çĿ£":3617,"å£®å£«":3618,"çĭĤé£İ":3619,"çŁ¢çŁ³":3620,"æ¬£çĦ¶":3621,"éĤºéĥ¡":3622,"åŀĵå¿ĥ":3623,"ç£":3624,"ä¹°":3625,"å¤®":3626,"ä¹ĭè°ĭ":3627,"ä¹ĭæ°ĳ":3628,"ä¹ĭè¾Ī":3629,"åĨĪ":3630,"æľ«":3631,"ä¸įé¡»":3632,"å®Ľ":3633,"åĪİ":3634,"ä¸Ģå¸¦":3635,"è®²":3636,"æĵįåĨĽ":3637,"æĵįèĩª":3638,"æŃ¤åŁİ":3639,"ç»©":3640,"ä¸ĭæīĭ":3641,"åĩºå¯¨":3642,"åĩºéĺµ":3643,"åı¯ä¸º":3644,"åı¯ä½¿":3645,"ä»¥æĬ¥":3646,"éĺļ":3647,"å¼łåįĹ":3648,"åİ»æķĳ":3649,"æĹ¥æľĪ":3650,"ä¹ĥä¸İ":3651,"ä¹ĥéĹ®":3652,"è¾©":3653,"è¾°":3654,"è¾ĵ":3655,"äºĮå¼Ł":3656,"åĽŀå¤´":3657,"è¨Ģä¹ĭ":3658,"çĽ¸è¿İ":3659,"å¾Ĺä¸Ģ":3660,"æĿĢä¸Ģéĺµ":3661,"æĪĳä»Ĭ":3662,"çŁ¥åĲ¾":3663,"æĦ§":3664,"å¿ħé¡»":3665,"å½ĵæŃ¤":3666,"éŃıå¯¨":3667,"å·²æľī":3668,"éķ¿æ±Ł":3669,"é¢į":3670,"æŃ»çŁ£":3671,"éĽħ":3672,"å®Īä¹ĭ":3673,"åĪĨæĭ¨":3674,"ä¹¦ä¿¡":3675,"éĤķ":3676,"æľªå®ļ":3677,"æĻĮ":3678,"èĳŃ":3679,"èľĢå¯¨":3680,"åįĹéĹ¨":3681,"åįĹéĥĳ":3682,"åĽĽæĽ´":3683,"æķ°äºº":3684,"çī¢":3685,"æµĭ":3686,"æĩ¦":3687,"å°½èµ·":3688,"æīĭèµ·":3689,"ç½Ĺ":3690,"ç®ķ":3691,"æ´¥":3692,"æħ¨":3693,"åĨħæľī":3694,"éģĵèį£":3695,"åºĶåħģ":3696,"é«ĺç¥ĸ":3697,"äº²å¾Ģ":3698,"è¿½è¢Ń":3699,"åĶĲ":3700,"çĶļæĢ¥":3701,"åĳĬæĢ¥":3702,"æĶ¾å£°":3703,"é¥±":3704,"é¥¶":3705,"å¤ıä¾¯å°ļ":3706,"æĤī":3707,"ç¨½":3708,"çł´æķĮ":3709,"æł·":3710,"åŃŁä¼ĺ":3711,"å²Ĥæľī":3712,"çķĻä¸ĭ":3713,"é½Ĳé¸£":3714,"èħ°":3715,"è¾ŀäºĨ":3716,"æµģæ¶ķ":3717,"æĲľ":3718,"åı¬åħ¥":3719,"å¯¹åľĨ":3720,"ç»ĵè¿ŀ":3721,"æĭĴä¹ĭ":3722,"å²¸ä¸Ĭ":3723,"åĪ©å®³":3724,"å¾¡æŀĹ":3725,"åĭĴåħµ":3726,"èĴĭçĲ¬":3727,"åĻ¨æ¢°":3728,"æ¿®éĺ³":3729,"é¡¿é¦ĸ":3730,"åĿļå®Īä¸įåĩº":3731,"å©¢":3732,"éĺ´å¹³":3733,"ç¾Įäºº":3734,"æ¥¼ä¸Ĭ":3735,"æ¦ľ":3736,"æ³½æĽ°":3737,"åĲĬæ¡¥":3738,"çıŃå¸ĪåĽŀ":3739,"æĬµæķĮä¸įä½ı":3740,"æİªæīĭ":3741,"è°¯åĳ¨":3742,"è±ªæĿ°":3743,"èµ¤åħĶé©¬":3744,"ĴçĽ¸":3745,"åħ½":3746,"åĲ¯":3747,"ä¹ĭå£°":3748,"ä¸įçĽ¸":3749,"ä¸įè®¡":3750,"ä¸įåıĹ":3751,"ä¸įä¹ħ":3752,"ä¸įçŃĶ":3753,"ä¸įæŃ¢":3754,"ä¸įè§ī":3755,"å®ĵ":3756,"åĪĽ":3757,"å¤§æĪĺ":3758,"æĿ¥çĽ¸":3759,"æĿ¥æĪĺ":3760,"æŃ¤åľ°":3761,"æŃ¤äºĮäºº":3762,"æŃ¤éĿŀ":3763,"åİĭ":3764,"éģģ":3765,"è§ģæĽ¹æĵį":3766,"èĢĮéĻį":3767,"éĢ¦":3768,"å½Ń":3769,"åĲ¾éĿŀ":3770,"è´±":3771,"å¯¼":3772,"å¯Ħ":3773,"å¼łå®Ŀ":3774,"æĭ½":3775,"èĭĹ":3776,"èĩªæĢĿ":3777,"èĩªå¹¼":3778,"èĩªåĪİ":3779,"åľ¨åŀĵå¿ĥ":3780,"æĹłäºĭ":3781,"ä¸»äºº":3782,"åīįèĩ³":3783,"çļĨåľ¨":3784,"æ±Ŀä¹ĥ":3785,"åıĪè¢«":3786,"åıªå®ľ":3787,"åŃĻæ¡ĵ":3788,"å®īå®ļ":3789,"å®Īå¾¡":3790,"éªģ":3791,"ä¾¿ä»¤":3792,"éĤ®":3793,"æľªå¾Ĺ":3794,"çĿģ":3795,"éĿ¢åīį":3796,"éĹ¨åĲı":3797,"ç²ī":3798,"æĸĩå®ĺ":3799,"å°ıç«¥":3800,"è¥¿å°ĨåĨĽ":3801,"èº¯":3802,"é»ĦéĹ¨":3803,"æ·³":3804,"åĲķèĮĥ":3805,"è¢ģæ°ı":3806,"æĶ»åĩ»":3807,"è¿½èĩ³":3808,"çĶļåİļ":3809,"è§Ĩåħ¶äºº":3810,"åħ´å¸Ī":3811,"çĭŃ":3812,"èĢģå°Ĩ":3813,"è¯¸èĳĽè¯ŀ":3814,"é²į":3815,"çª¥":3816,"ä»ģä¹ī":3817,"éĤĵè´¤":3818,"åįĬæĻĮ":3819,"é¼ĵåĵį":3820,"åįģä½Ļäºº":3821,"ä¿ĿæĬ¤":3822,"æ¥·":3823,"å±ħæ°ĳ":3824,"åħ¨å®¶":3825,"åı±å·¦åı³":3826,"ç¦»åŁİ":3827,"çªģåĩº":3828,"çªģéª¨":3829,"æĭĶå¯¨":3830,"æ¨Ĭç¨ł":3831,"äºİåľ°æĽ°":3832,"å¿ĥèħ¹äºº":3833,"æľªåı¯è½»":3834,"æķ°çĻ¾äºº":3835,"é¦ĨèĪį":3836,"å¦ĩäºº":3837,"çº·çº·":3838,"å¯Įè´µ":3839,"åįĥä½Ļäºº":3840,"ç«ĭé©¬äºİ":3841,"ä¼Ĭç±į":3842,"ä¸įåĪĨèĥľè´Ł":3843,"éĻĪçķĻçİĭ":3844,"ç»µç«¹":3845,"ä¸Ģåĳĺå¤§å°Ĩ":3846,"åħĢçªģéª¨":3847,"è¿¤éĢ¦":3848,"èĳŃèĲĮ":3849,"æİªæīĭä¸įåıĬ":3850,"ä¸įè®¡åħ¶æķ°":3851,"äºĴçĽ¸":3852,"åĲ«":3853,"âĢĿ,":3854,"ä¹ĭçĬ¶":3855,"ä¸įå®ļ":3856,"ä¸įåĬ¨":3857,"æĹĭ":3858,"åĪĥ":3859,"å¼Ħ":3860,"åĨĽåħµ":3861,"åĨĽåĪ°":3862,"å¤§ä½ľ":3863,"ä¸Ģè¡Į":3864,"å°Ĩä»¤":3865,"å°Ĩè¿ĳ":3866,"æīĩ":3867,"æĵįä¹ĥ":3868,"æĵįæķĻ":3869,"æŃ¤è´¼":3870,"åİħ":3871,"äºİå¸Ĥ":3872,"ä¸ºä¹ĭ":3873,"ä¸ºåĨħåºĶ":3874,"åĬŀ":3875,"åĩºæŃ¤è¨Ģ":3876,"åĲ¾ä»¥":3877,"åĲ¾èĭ¥":3878,"åĲ¾åĦ¿":3879,"åĲ¾èĩªæľī":3880,"å¯º":3881,"å¥İ":3882,"ä¸Ĭåº¸":3883,"è¡°":3884,"ä¸İåŃĶæĺİ":3885,"åħ¶ä¸»":3886,"è¾Ħ":3887,"è¾ķ":3888,"è¾Ł":3889,"èĩªä¸İ":3890,"éĩĩ":3891,"æģĻ":3892,"åīįèĢħ":3893,"åīįéĥ¨":3894,"åįģæĹ¥":3895,"å½ĵå¹´":3896,"åıĪæĹł":3897,"åıªé¡¾":3898,"åıªä¸ĢåĲĪ":3899,"å·ŀéĥ¡":3900,"å®īæŃĩ":3901,"èµ·è¡Į":3902,"è¡Įä¹ĭ":3903,"å®Īä½ı":3904,"åĲ´çİĭ":3905,"è®¡çŃĸ":3906,"æĮ¡":3907,"æĮ«":3908,"ä¾¿è¡Į":3909,"éĤĳ":3910,"èľĢäºº":3911,"èľĢä¸»":3912,"ä¾¯æĪĲ":3913,"åĽĽè·¯":3914,"å¿½ä¸Ģäºº":3915,"æµª":3916,"æ°´ä¸Ń":3917,"åĭĥ":3918,"å·¦æľī":3919,"å·¦å°ĨåĨĽ":3920,"å¿łèĩ£":3921,"æħİ":3922,"åĲĮåİ»":3923,"åĲĮå¾Ģ":3924,"æŃ¦èīº":3925,"æŁĲçŃī":3926,"åĲĪåħµ":3927,"åı³æľī":3928,"é«ĺè§Ī":3929,"é«ĺç¿Ķ":3930,"åĮĹæµ·":3931,"èĥľä¹Ł":3932,"éĻĪæŃ¦":3933,"åĶĩ":3934,"æ¯ķç«Ł":3935,"è°ĵçİĦå¾·æĽ°":3936,"é¦ĸå°¾":3937,"åıĹäºĨ":3938,"éħĴèĩ³":3939,"å¥īè¯ı":3940,"è¦ģåİ»":3941,"éĩĳçıł":3942,"é½Ĳåıĳ":3943,"æµģæĺŁ":3944,"åħĥå¸ħ":3945,"éľĩåľ°":3946,"å¢ĵ":3947,"ç½¢åħµ":3948,"éĢłé¥Ń":3949,"æĭĽå®ī":3950,"åİ¿ä»¤":3951,"åİļæģ©":3952,"æĬ¤éĢģ":3953,"æľ±çĦ¶":3954,"çĻ¾ä½Ļéªĳ":3955,"æ½¼":3956,"éĢĨè´¼":3957,"å®Ŀåīĳ":3958,"çİ°ä¸º":3959,"èµ¤å£ģ":3960,"æºĥ":3961,"ä¸¤è·¯åħµ":3962,"æŁ´æ¡ĳ":3963,"æĹ©æľīç»Ĩä½ľ":3964,"æĤĶä¹ĭ":3965,"æ³Ħæ¼ı":3966,"æŁĲæĦ¿å¾Ģ":3967,"è¡Įä¸įåĪ°":3968,"æ²¿æ±Ł":3969,"é»İéĺ³":3970,"ä¸¤éĺµå¯¹åľĨ":3971,"Ġæĺ¯å¤ľ":3972,"äºķ":3973,"åı¥":3974,"åı¶":3975,"åıĽ":3976,"ä¹ĭéĻ©":3977,"æĿĸ":3978,"ä¸įå®ľ":3979,"åįŀ":3980,"èĢ½":3981,"åħµåĻ¨":3982,"å¤§ä¹¦":3983,"è¿¹":3984,"ä¸Ģä¸Ģ":3985,"ä¸ĢéĺŁ":3986,"å·¥":3987,"æ±Ĺ":3988,"æľīåĬŁ":3989,"æĵįè§ģ":3990,"ç»¢":3991,"éĢµ":3992,"å½¤":3993,"åĩºèĲ¥":3994,"å¦¨":3995,"åħ¬ä¹ĥ":3996,"å±¥":3997,"æĭĤ":3998,"èĩªåİ»":3999,"äºĮå¤Ħ":4000,"è¨Ģç½¢":4001,"åħ¥å¯¨":4002,"çĽ¸éļı":4003,"çĽ¸æĭĴ":4004,"æĹłè®¡":4005,"æĿĢæķ£":4006,"æĶ¯":4007,"æģ¤":4008,"æģ¼":4009,"åħĪåİ»":4010,"åħĪåĪ°":4011,"ä¸īéĥ¡":4012,"åĸ§":4013,"åĸı":4014,"æ±ĿæĹ¢":4015,"éŃıåĽ½":4016,"åıªçķĻ":4017,"èĭ¥æľī":4018,"èĭ¥å¦ĤæŃ¤":4019,"çĦ°":4020,"åį´æķĻ":4021,"éķ¿åı¹":4022,"éģĤä¸į":4023,"åıĸèĥľ":4024,"éĽı":4025,"èĢħä¹Ł":4026,"ä¿Ĭ":4027,"éªĩ":4028,"éĤ½":4029,"è¯¸éĥ¡":4030,"èĤĿ":4031,"éĿ¢å¦Ĥ":4032,"èĩ£ä¹ĭ":4033,"çĻ¾éĩĮ":4034,"çīĮ":4035,"ä¸ĩä½Ļ":4036,"å°ıå°Ĩ":4037,"å°ıèĪŁ":4038,"ç½ļ":4039,"è´¼ä¼Ĺ":4040,"æķĳåĩº":4041,"å¹´å¹¼":4042,"ç¾ķ":4043,"éŁ¶":4044,"ç²®éģĵ":4045,"è¿½åħµ":4046,"è¿½æĿ¥":4047,"éĻĪå¼ı":4048,"è°ĵæĽ°":4049,"éļıè¡Į":4050,"æĽ´ä¸į":4051,"è¯¸èĳĽæģª":4052,"çĸĳæĥĳ":4053,"é²Ĥ":4054,"éĩĳå¸Ľ":4055,"åŃĹåħ¬":4056,"çĿ£éĤ®":4057,"æ¶Į":4058,"éŁ©æļ¹":4059,"è§Ĥåħ¶":4060,"éĤĵå¿ł":4061,"å¾Ħå¾Ģ":4062,"å¼ĥåŁİ":4063,"çĻ½é©¬":4064,"é¼ĵåĻ":4065,"å¯¹æĽ°":4066,"æ¸¡æ²³":4067,"çĽ®ä»Ĭ":4068,"é¡¾è°ĵ":4069,"è£´":4070,"åĸĿä»¤":4071,"å¢Ļ":4072,"æĹ§æĹ¥":4073,"ä¼Ĺå®ĺæĽ°":4074,"Ġç¬¬ä¸ĢçĻ¾":4075,"æ¨ªåĪĢ":4076,"æĭ¥åĩº":4077,"å¥ĭçĦ¶":4078,"è½¬è¿ĩ":4079,"å¥¸è®¡":4080,"å¥¸éĽĦ":4081,"è§Īæ¯ķ":4082,"æ£º":4083,"æĸ½ç¤¼":4084,"èĳ¬ä¹ĭ":4085,"åĽĽéĿ¢åĽ´":4086,"æĬļæħ°":4087,"ç½®éħĴ":4088,"çĪ±ä¹ĭ":4089,"ä¹Įå·¢":4090,"æĪĺä¸įä¸īåĲĪ":4091,"åĲ¾ä¸İæ±Ŀ":4092,"åħĭæĹ¥":4093,"äºĮåįģä½ĻéĩĮ":4094,"å²Ĥä¸įéĹ»":4095,"ä¸¤ä¸ĭå¤¹æĶ»":4096,"ä¸ºå¤§éĥ½çĿ£":4097,"ç¾ŀæĥŃ":4098,"æĭĪå¼ĵ":4099,"è·µè¸ı":4100,"æī®ä½ľ":4101,"éĺļæ³½":4102,"æĶ¾å£°å¤§åĵŃ":4103,"èĳŃèĲĮåħ³":4104,"åĭĥçĦ¶":4105,"é¼ĵåĻª":4106,"İéĩį":4107,"ä»Ĩ":4108,"ä¹ĭæķħ":4109,"ä¹ĭåĲį":4110,"ä¹ĭéĩį":4111,"ä¹ĭå¼Ł":4112,"ä¹ĭåĭĩ":4113,"ä¹ĭéĻħ":4114,"ä¸įä¸İ":4115,"åįĳ":4116,"åŃļ":4117,"å¼ĳ":4118,"äººæ°ĳ":4119,"åĨĽæĿ¥":4120,"å¤§éĺŁ":4121,"ä¸Ģè¿ŀ":4122,"ä¸ĢçıŃ":4123,"å·§":4124,"ä¼º":4125,"æĿ¥äºº":4126,"æĸ¤":4127,"æŃ¤ä½ķ":4128,"ä¸ĭåħ³":4129,"ä¸ºå°Ĩ":4130,"ä¸ºæ±ī":4131,"èĢĮåĲİ":4132,"è°Ĵ":4133,"éĢŀ":4134,"ä½ķæĹ¶":4135,"ä½ķå¾Ģ":4136,"ä½ķçĶ¨":4137,"ä½ķæķ¢":4138,"ä½ķåĨµ":4139,"åĩºéĥŃ":4140,"åı¯æĢľ":4141,"ä¹Łä¸į":4142,"ä»¥éŀŃ":4143,"å¥Ĥ":4144,"æĽ¹ä¸ŀçĽ¸":4145,"ä¸Ĭä¸ĭ":4146,"ä¸ĬéĤ½":4147,"ä¸İä¹ĭ":4148,"å¼łè§Ĵ":4149,"å¼łè®©":4150,"å¼łæ¸©":4151,"è¾İéĩį":4152,"åºĵ":4153,"äºĮåħ¬":4154,"åľ¨åŁİä¸Ń":4155,"æĥ¯":4156,"åħ¥åŁİä¸Ń":4157,"å¾ĹæŃ¤":4158,"æĿĢæŃ»":4159,"ä¸īåĪĨ":4160,"æĦ¤":4161,"å½ĵéĺ³":4162,"åıªå¾ħ":4163,"ä¼ĹåķĨè®®":4164,"æ¬²å¾ħ":4165,"çİĭç»ı":4166,"ç¥¢":4167,"éģĤå°Ĩ":4168,"éģĤåĶ¤":4169,"çº¯":4170,"çº¶":4171,"éĹ®ç½ª":4172,"çĦ¶åħ¶è¨Ģ":4173,"è¡ĮåĨĽ":4174,"åĮħ":4175,"ä¹¦çķ¥æĽ°":4176,"ä»İåĲİ":4177,"ä»İå°ıè·¯":4178,"æľªæľī":4179,"èĪĨ":4180,"éĿ¢ä¸Ĭ":4181,"æķ°åįĥ":4182,"éĥ½æĺ¯":4183,"æŁı":4184,"ç§ī":4185,"æ°´å¯¨":4186,"åĭī":4187,"éĻįå°Ĩ":4188,"çĶ¨çģ«":4189,"èº¬":4190,"æĥĬçĸĳ":4191,"æīĭæıĲ":4192,"Ġåį´è¯´åı¸é©¬æĩ¿":4193,"Ġåį´è¯´å§ľç»´":4194,"è¯·åŃĶæĺİ":4195,"å¾Ĳå¾Ĳ":4196,"æħķ":4197,"åĲĮå¿ĥ":4198,"åĲĮè°ĭ":4199,"æĦıæ¬²":4200,"çĲĬ":4201,"éľį":4202,"éĩįçĶ¨":4203,"çĽ´åĪ°":4204,"åıĹåĳ½":4205,"å°ļæľī":4206,"ç¨³":4207,"é¾ļ":4208,"çł´ä¹ĭ":4209,"çĬĴ":4210,"èĳ£è¢Ń":4211,"æĿ¨éĺľ":4212,"éĩĳé¼ĵ":4213,"å±¯æīİ":4214,"è¿ĳåīį":4215,"çļĩçĶ«":4216,"åģĥ":4217,"çĮ®è®¡":4218,"åı·ä¸º":4219,"åĨ²åĩº":4220,"åĨ²æĿĢ":4221,"åĨ³æĪĺ":4222,"è°·ä¸Ń":4223,"è¯ĹæĽ°":4224,"è°ģåı¯":4225,"å¹¸çĶļ":4226,"åį¿çŃī":4227,"ä¸ķæĽ°":4228,"ä¹ĭè¨Ģæĺ¯ä¹Ł":4229,"éĢĬæĽ°":4230,"èĭ±åĭĩ":4231,"æĬ¤åį«":4232,"æľºä¼ļ":4233,"ç»ĪæĹ¥":4234,"è¯Ľä¹ĭ":4235,"åĪĨåħµä¸¤è·¯":4236,"ä»Ĺåīĳ":4237,"éģįéĩİ":4238,"æ¿¬":4239,"çİĩåħµ":4240,"ä¸ĵæĿĥ":4241,"å¡«":4242,"çĶ»æĪŁ":4243,"åħ¬åŃĻæ¸Ĭ":4244,"éª¨èĤī":4245,"åĩ¤éĽı":4246,"éĢ¢çºª":4247,"èĥľè´Łå¦Ĥä½ķ":4248,"ç«¯åĿĲ":4249,"çĻ¾ä¸ĩä¹ĭä¼Ĺ":4250,"å°ĺå¤´":4251,"åĨ¯ä¹ł":4252,"è®¤å¾Ĺ":4253,"æ¯ĭä¸ĺ":4254,"æ·³äºİ":4255,"èŃ":4256,"Ġä¸į":4257,"Ġåħ³åħ¬":4258,"ä¹ĭæľī":4259,"ä¹ĭå¾Ĵ":4260,"æľµ":4261,"ä¸įæĺİ":4262,"åį¸":4263,"å¾ª":4264,"äººå¿ĥ":4265,"äººçī©":4266,"åħµå°ĳ":4267,"æķķ":4268,"å¤§æ±Ł":4269,"å¤§ä¹ī":4270,"å°Ĩæł¡":4271,"ä¼¦":4272,"åĩĢ":4273,"æĵįå¤§æĢĴ":4274,"æŃ¤æĿ¥":4275,"äºİå¤ĸ":4276,"ä¸ŃéĹ´":4277,"è°¥":4278,"å¹ķ":4279,"åĲ¾å¥ī":4280,"åı¯åħĪ":4281,"æĽ¹è´¼":4282,"æĽ¹æ°ı":4283,"ä»ĬæĽ¹æĵį":4284,"ä»ĬéĹ»":4285,"éĺĻ":4286,"æĭħ":4287,"åħ¶åĲİ":4288,"çİĦå¾·åľ¨":4289,"çĽ¸éģĩ":4290,"ä¸īåŃĲ":4291,"ä¸īä¸ª":4292,"èĩ³æĻļ":4293,"è·Į":4294,"åįģåĪĨ":4295,"äºĭå·²":4296,"éŃıç»Ń":4297,"åıĪæģĲ":4298,"å·²çŁ¥":4299,"ä½¿æĪĳ":4300,"å¯¨åĨħ":4301,"éķ¿é©±":4302,"çº²":4303,"çº¸":4304,"éĽķ":4305,"åĲ´åħ°":4306,"å°ĨåĨĽåı¯":4307,"æĮ½":4308,"çŃīå¤Ħ":4309,"ä¹¦ä¸İ":4310,"éĤ¦":4311,"æĿĥä¸Ķ":4312,"æĢ¥åĽŀ":4313,"æĢ¥æķĳ":4314,"æĢ¥éļ¾":4315,"å§ĳ":4316,"å¾Ģè§ģ":4317,"æľĽä¹ĭ":4318,"æľĽé£İ":4319,"å¤ªå¹³":4320,"æĸ¹åĽŀ":4321,"çĶ¨ä½ķ":4322,"å°ıåįĴ":4323,"åĲĦåĲĦ":4324,"è¯·ç½ª":4325,"è®¸ä¹ĭ":4326,"æĢĴæ°Ķ":4327,"å·¦åĨ²":4328,"ä¸įåı¯å½ĵ":4329,"æķĻåĨĽå£«":4330,"éģĵè·¯":4331,"ç«ĭæĸ©":4332,"ä¼ıåľ°":4333,"åºĶä¹ĭ":4334,"æķĮäºº":4335,"æĭľæĽ°":4336,"æĭľäºİ":4337,"æĭľè§ģ":4338,"è¿ĩäºĨ":4339,"åı³çªģ":4340,"å¹¶ä¸į":4341,"é«ĺåŀĴ":4342,"åĮĹéĹ¨":4343,"åĮĹåİŁ":4344,"æĿİä¹Ĳ":4345,"æ¡Ī":4346,"èĢģè´¼":4347,"ä¸»åħ¬åı¯":4348,"å²Ĥèĥ½":4349,"çĥĤ":4350,"èİ·æĽ°":4351,"è§Ĥçľĭ":4352,"çĻ½èĻİ":4353,"æĢĿä¹ĭ":4354,"å¸¸æľī":4355,"å¸¸å±±":4356,"æĲł":4357,"ç¬¬äºĮ":4358,"åĸĬèµ·":4359,"ä¸ĸåŃĲ":4360,"çĽ®è§Ĩ":4361,"èģļæĸĩæŃ¦":4362,"æĸ°åŁİ":4363,"ä¼ĲèľĢ":4364,"å¤§åı«ä¸Ģå£°":4365,"åĸĿæĽ°":4366,"èĽ®çİĭ":4367,"èĶ¡åĴĮ":4368,"è§Ĵä¸Ĭ":4369,"æ³°å±±":4370,"æħĪæĽ°":4371,"äºĮåįģä¸ĩ":4372,"æ»¡éĿ¢":4373,"è¿ĻéĩĮ":4374,"ä¼Ĺå®ĺçļĨ":4375,"æľīä½ķéĿ¢çĽ®":4376,"è°ĥéģ£":4377,"éķĩå®Ī":4378,"èĦ±èº«":4379,"åĪĩé½¿":4380,"èĹ¤":4381,"æĬ«åıĳ":4382,"éĶ¦åĽĬ":4383,"ç¥İæĽ°":4384,"æķ°åįģäºº":4385,"åįķç¦ı":4386,"å±¯åħµäºİ":4387,"å°¸é¦ĸ":4388,"è¾ĤæĽ°":4389,"å¼ķä¸Ģä¸ĩ":4390,"æĮ¥åĪĢ":4391,"è®¾å®´çĽ¸å¾ħ":4392,"å¼łæĺŃæĽ°":4393,"è´¾è¯©æĽ°":4394,"ç¾½æīĩ":4395,"éĹŃéĹ¨":4396,"åģľå½ĵ":4397,"å¯Łä¹ĭ":4398,"æ¡ĥåĽŃ":4399,"æ²®æİĪ":4400,"æŃ£è¨ĢéĹ´":4401,"ä¸¤é©¬çĽ¸äº¤":4402,"å®¦å®ĺ":4403,"ç¥¢è¡¡":4404,"æ¯ĭä¸ĺä¿Ń":4405,"å·¦åĨ²åı³çªģ":4406,";âĢľ":4407,"Ġå¿½":4408,"Ĥéĺ³":4409,"ħçĲĬ":4410,"ä»¶":4411,"ä¹ĭå¾·":4412,"ä¹ĭæĹ¥":4413,"ä¹ĭä¹¦":4414,"ä¹ĭè¥¿":4415,"ä¹ĭç¤¼":4416,"ä¹ĭå¿Ĺ":4417,"ä¹ĭç¥¸":4418,"ä¸įä»¥":4419,"ä¸įæĪĲ":4420,"ä¸įä»ģ":4421,"ä¸įæĺĵ":4422,"åĨĽäºº":4423,"èĩ§":4424,"å¤§èĥľ":4425,"ä¸ĢåĲį":4426,"ä¸Ģéģĵ":4427,"ä¸ĢæĹ¦":4428,"é©¬åĨĽ":4429,"é©¬éģµ":4430,"å°Ĩæ¬²":4431,"æĿ¥æĬķ":4432,"æĵįéĹ®":4433,"æŃ¤å¤©":4434,"æŃ¤éĹ´":4435,"ç»¿":4436,"ä¸ĭæĿ¥":4437,"äºİäºº":4438,"äºİå¤©ä¸ĭ":4439,"ä¸Ńå¤®":4440,"ä¸ºä¸»":4441,"ä¸ºåĲĽ":4442,"è°Ĺ":4443,"åĲ¾è§ģ":4444,"åĲ¾æķħ":4445,"ä¾Ľ":4446,"åı¯ä¹ĺ":4447,"è´ª":4448,"æĽ¹èĬ³":4449,"åħ¬è¨Ģ":4450,"åħ¬å®ī":4451,"ä¸ĬåŁİ":4452,"åī©":4453,"éĺĨ":4454,"å¼łèĻİ":4455,"æĭĺ":4456,"ä¹ĥåĶ¤":4457,"èĩªæĺ¯":4458,"èĩªåıĸ":4459,"åĽŀä¹¦":4460,"åĽŀèįĨå·ŀ":4461,"åĽŀèĲ¥":4462,"åľ¨é©¬ä¸Ĭ":4463,"çĽ¸æķĳ":4464,"çĽ¸æĮģ":4465,"æĹłåı¯":4466,"æĹłå¿§":4467,"æĹłæģĻ":4468,"è¯´ç½¢":4469,"æĪĳåħµ":4470,"åŃĲä¸¹":4471,"åĪ°å½¼":4472,"åĪ°ä¹ĭå¤Ħ":4473,"æĹ¶å¹´":4474,"å½ĵä»¥":4475,"éŃıäºº":4476,"åĪĺè¾Ł":4477,"å·²äº¡":4478,"åıªåı¯":4479,"æ¯«":4480,"æĪĺåĪ°":4481,"çİĭä¸Ĭ":4482,"æŀī":4483,"éªł":4484,"ä¹¦ä¸Ń":4485,"æľªå¿ħ":4486,"è¿ĽéĢĢ":4487,"åĽĽå¹´":4488,"æķ°å·¡":4489,"å¿½åĲ¬å¾Ĺ":4490,"ä¸¤å·Ŀ":4491,"æ±ŁåĮĹ":4492,"æŁĵ":4493,"æķħæĦı":4494,"çĶŁçģµ":4495,"èĲ§":4496,"å°ıè½¦":4497,"åĲĦæľī":4498,"ä½Ļä¼Ĺ":4499,"è®®æĽ°":4500,"åĲ¬ç½¢":4501,"åĽ½èĢģ":4502,"å¿łæĽ°":4503,"å¾ħåħ¶":4504,"å¾Ĳæ¯į":4505,"é¦¥":4506,"éĿŀä¹Ł":4507,"éĿŀå¸¸":4508,"éħĮ":4509,"å¤ļçĸĳ":4510,"æŃ¦æĺĮ":4511,"åĳ¨åĽ´":4512,"å¼ķåħµèĢĮåİ»":4513,"çĲħçĲĬ":4514,"æ¡Ĥéĺ³":4515,"æĹ©æĹ©":4516,"æİ¥æĪĺ":4517,"çĪ¶æ¯į":4518,"ç¿Ĭ":4519,"ä¼ĳå¾Ĺ":4520,"éĴ¢":4521,"æľ¬æ¬²":4522,"è¶ħæĽ°":4523,"å±¯ä½ı":4524,"åłĳ":4525,"ç¼ĺ":4526,"éĢģä¸İ":4527,"å¯Ĩè¯ı":4528,"åħ«æľĪ":4529,"å°Ħä¸Ń":4530,"çĻ½å¸Ŀ":4531,"åįĬéħ£":4532,"é¥®é£Ł":4533,"åĭ¿å¾Ĺ":4534,"æ·±æ²Ł":4535,"åĪ«æĹł":4536,"åĪ«é©¾":4537,"ä¹Ĳç¶Ŀ":4538,"å¨ģé£İ":4539,"å¨ģéľĩ":4540,"èĮ¶":4541,"é¡¾éĽį":4542,"èģļéĽĨ":4543,"ä¼Ĳä¹ĭ":4544,"ä¸´è¡Į":4545,"ç»ĵä¸º":4546,"æİ¨è¾ŀ":4547,"å¢ŀ":4548,"åĬ³åĨĽ":4549,"åĬ«æİł":4550,"çĿ¿æĽ°":4551,"åıĺèī²":4552,"è®¨ä¹ĭ":4553,"ç©ºèĻļ":4554,"éº´":4555,"åĵįå¤Ħ":4556,"èĴĭå¹²":4557,"æ´ŀä¸Ń":4558,"æ´ŀä¸»":4559,"ä¸īåįĥåħµ":4560,"èµįä¹¦":4561,"åĪĩåĭ¿":4562,"åħįæŃ»":4563,"åįĩå¸Ĳ":4564,"ç¢§":4565,"éŃıä¸»æĽ¹çĿ¿":4566,"æĮīåīĳ":4567,"æĮīåħµä¸į":4568,"å¦Ļè®¡":4569,"ç¯ĩ":4570,"å¦ĦåĬ¨":4571,"æ¸Ńæ°´":4572,"çģ«åħīåĨ²å¤©":4573,"çĭ±ä¸Ń":4574,"éĥĳæĸĩ":4575,"æĶ¾çģ«çĥ§":4576,"æĿľé¢Ħ":4577,"æ¹¿":4578,"æĭ¨é©¬ä¾¿èµ°":4579,"èįĢå½§æĽ°":4580,"çĦļé¦Ļ":4581,"ç¯¡éĢĨ":4582,"æ²īåĲŁ":4583,"æŃ£è¡ĮéĹ´":4584,"åĲ´ä¸»åŃĻ":4585,"å´Ķè°ħ":4586,"å®ĭå®ª":4587,"é¼ĵè§Ĵé½Ĳé¸£":4588,"å¼ĵå¼©æīĭ":4589,"ç¡ķ":4590,"æĬ«æĮĤä¸Ĭé©¬":4591,"æ·±æ²Łé«ĺåŀĴ":4592,"èķ":4593,"Ġæ¯ķç«Ł":4594,"ĭéķ¿":4595,"ä¹Ī":4596,"ä¹ĭå°Ĩ":4597,"ä¹ĭè´¼":4598,"ä¹ĭå¸Ī":4599,"ä¸įèµ·":4600,"ä¸įä¹ī":4601,"ä¸įè¯Ń":4602,"åį¦":4603,"ä½³":4604,"è¯¦":4605,"åħµåĩº":4606,"åħµæĿĥ":4607,"é©»":4608,"å¤§èĪ¹":4609,"ä¸ĢåºĶ":4610,"ä¸ĢæĿ¡":4611,"ä¸Ģåľº":4612,"å¸ľ":4613,"æĸĽ":4614,"ç»³":4615,"ç»Ľ":4616,"äºİå±±":4617,"äºİå¸Ĳä¸ĭ":4618,"ä¸ºä¸Ģ":4619,"ä¸ºåĲį":4620,"ä¸ºåī¯å°Ĩ":4621,"è§ģåħ³åħ¬":4622,"èĢĮä¸ĭ":4623,"èĢĮæĹł":4624,"èĢĮå½Ĵ":4625,"ä½ķæĥ§":4626,"å½¦":4627,"å½±":4628,"åĩºåħµ":4629,"åĩºåħ³":4630,"åĲ¾æīĢ":4631,"åĲ¾è§Ĥ":4632,"éĥ¦":4633,"è´«":4634,"è´ŀ":4635,"ä»¥ç»Ŀ":4636,"åħ¬è¦Ĩ":4637,"ä¸Ĭæµģ":4638,"ä»Ĭæĵį":4639,"åħ¶å¦»":4640,"çŃ¹":4641,"èĩªå¾Ģ":4642,"èĩªä¹±":4643,"åĽŀè®¸éĥ½":4644,"åŃĶæĺİä¹ĥ":4645,"åŃĶæĺİåľ¨":4646,"å¼ķå¤§åĨĽ":4647,"åľ¨åŁİä¸Ĭ":4648,"åħ¥å¯ĩ":4649,"çĽ¸ä¼ļ":4650,"æĿĢå¾Ĺ":4651,"ä¸īå°º":4652,"å¤©æķ°":4653,"åįģåĲĪ":4654,"åįģä¸ĥ":4655,"å¿ħæĹł":4656,"å¿ħå½ĵ":4657,"å¿ħè´¥":4658,"åĪĺæ°ı":4659,"çĦķ":4660,"å±±ä¸ĭ":4661,"æĬ¥åĽ½":4662,"æ¬²æĸ©":4663,"çİĭå¿ħ":4664,"ç¥ļ":4665,"æ³¥":4666,"å¿ĥçĶļ":4667,"èĢħæĸ©":4668,"å®Īåħ³":4669,"è®¡èĢĮè¡Į":4670,"æĮ¯":4671,"çŃīçļĨ":4672,"ä¾¿äºĨ":4673,"éĤ°":4674,"æĻı":4675,"èĪľ":4676,"ç¬¼":4677,"ä¸ľåĮĹ":4678,"æĢ¥éĢĢ":4679,"åįĹå¾Ĳ":4680,"åĽĽåŃĲ":4681,"æ¸´":4682,"å¤ĩè¨Ģ":4683,"äºĶæĽ´":4684,"éĹ¨ä¸ĭ":4685,"æķħçī¹":4686,"çķ¿":4687,"æĸĩè¿ľ":4688,"æĸĩéĴ¦":4689,"åĲĦäºº":4690,"å°½åĬĽ":4691,"æīĭè¶³":4692,"ç¦¹":4693,"åĲķæĹ·":4694,"ä¸Ķä¼ĳ":4695,"è´¼å°Ĩ":4696,"é¢Ĩè¯º":4697,"æ´®":4698,"éħ¬":4699,"åĲĮå®Ĺ":4700,"åºĶè¯º":4701,"çģ«æĬĬ":4702,"å®¶å±ŀ":4703,"èµ¶åİ»":4704,"ä½ľä¸Ģ":4705,"ä¼ļæĽ°":4706,"æĿİèĤĥ":4707,"è½¦èĥĦ":4708,"è½¦éªĳå°ĨåĨĽ":4709,"æįĲ":4710,"æı¡":4711,"èĻ½ä¸įæīį":4712,"çĽ´æĬµ":4713,"æĹĹå¹¡":4714,"å°ļæľª":4715,"å¤įåĽŀ":4716,"èĢģå°ĨåĨĽ":4717,"æłĪ":4718,"å¥Ķåħ¥":4719,"ä¹ħå±ħ":4720,"çĸĳåħµ":4721,"æĹ¢æľī":4722,"æĿ¨æĿ¾":4723,"æ°ĳå¿ĥ":4724,"ç»Łå¤§åĨĽ":4725,"çķĻä¹ĭ":4726,"è¿ĳä¾į":4727,"éŁ©çİĦ":4728,"å¾ĦæĿ¥":4729,"åįĬå¤ľ":4730,"é¥®ä¹ĭ":4731,"åįģä½ĻåĲĪ":4732,"è½»éªĳ":4733,"æ¢¯":4734,"ç¬¬ä¸Ģ":4735,"åĪ«æľī":4736,"è®¾æľĿ":4737,"éĻĽä¸ĭåı¯":4738,"é¸Ł":4739,"ç§°è°¢":4740,"éĻĨåı£":4741,"æ¡¥ä¸Ĭ":4742,"ç»ĵä¹ī":4743,"éĺŁä¼į":4744,"åłĤä¸Ĭ":4745,"éĢłæ¬¡":4746,"ä¿®æĽ°":4747,"å®Ĺäº²":4748,"èĩ´ä¹¦":4749,"çĳ¾æĽ°":4750,"éĻ©è¦ģ":4751,"éĻ©å³»":4752,"æľºå¯Ĩ":4753,"åħ·è¯´":4754,"æī¶èµ·":4755,"åĲīå¹³":4756,"åĤħä½¥":4757,"å®ĿåĪĢ":4758,"æ¼Ķ":4759,"åĪĩä¸įåı¯":4760,"æĸĩæŃ¦å®ĺåĥļ":4761,"æĻ®åĩĢ":4762,"éĴŁç¹ĩ":4763,"èĭ¦è°ı":4764,"å¼łç¿¼å¾·":4765,"ç®¡è¾Ĥ":4766,"æĮĤåŃĿ":4767,"è¯©æĽ°":4768,"èĳ¬äºİ":4769,"åħ»çĹħ":4770,"ç§¦æľĹ":4771,"åºŀç»ŁæĽ°":4772,"çĶ³å¥ı":4773,"çĦīæķ¢":4774,"ä¸ľåįĹé£İ":4775,"æłĳæľ¨":4776,"éĵľéĽĢ":4777,"æ¸Ĳæ¸Ĳ":4778,"èĨĿ":4779,"åİīå£°æĽ°":4780,"æªĦæĸĩ":4781,"èĩªçĽ¸è·µè¸ı":4782,"éĹ¨æĹĹä¸ĭ":4783,"è¿ĳèĩ£å¥ıæĽ°":4784,"é¢įå·Ŀ":4785,"è¾ķéĹ¨":4786,"æ½¼åħ³":4787,"çº¶å·¾":4788,"æľµæĢĿ":4789,"æĮīåħµä¸įåĬ¨":4790,"èĵ":4791,"é³":4792,"åı¦":4793,"ä¹ĭå¤ĸ":4794,"ä¹ĭé¦ĸ":4795,"ä¹ĭæĤ£":4796,"ä¸įä¸Ĭ":4797,"ä¸įæĿĢ":4798,"ä¸įåĪ°":4799,"ä¸įåıĸ":4800,"ä¸įéĻį":4801,"èĢķ":4802,"ä¸Ģè¨Ģ":4803,"ä¸Ģé¼ĵ":4804,"ä¸Ģæĭ¥":4805,"ä¸Ģè¾Ĩ":4806,"ä¼Ł":4807,"æĿ¥çľĭ":4808,"æ±¤":4809,"è®¶":4810,"è®Ń":4811,"æľīæīĢ":4812,"æī°":4813,"æŃ¤åŃĲ":4814,"ä¸ºå°ĨåĨĽ":4815,"ä¸ºä¸¤":4816,"çŁ«":4817,"èĢĮèĩ³":4818,"èĢĮç«ĭ":4819,"éĢ¸":4820,"ä½ķèĥ½":4821,"ä½ķæĦı":4822,"åĲ¾ä»¤":4823,"è´¬":4824,"ä»¥è¨Ģ":4825,"æĽ¹æ¤į":4826,"åħ¬åı¯":4827,"ä¸Ĭå²¸":4828,"ä»ĬæĻļ":4829,"ä¸İæĵį":4830,"ä¸İå°ĨåĨĽ":4831,"ä¸İäºĳéķ¿":4832,"å¼łåħģ":4833,"æĭ±":4834,"åħ¶åĬ¿":4835,"çİĦå¾·ä¹ĥ":4836,"çİĦå¾·éĹ®":4837,"æ¬ł":4838,"åŁİè¾¹":4839,"èĭŁ":4840,"èĩªéĢĢ":4841,"èĩªå¼ķåĨĽ":4842,"äºĮå°ĨåĨĽ":4843,"åĽŀèĩ³":4844,"åĽŀå®¶":4845,"å¼ķä¼Ĺ":4846,"å¼ķæķ°åįģéªĳ":4847,"åľ¨å¯¨ä¸Ń":4848,"æĹłåıĬ":4849,"æĿĢäºº":4850,"æĿĢéĢĢ":4851,"ä¸īæĹı":4852,"åīįéĺŁ":4853,"åħ³ä¸Ń":4854,"è·¨":4855,"äºĭä¹ĭ":4856,"äºĭæĢ¥":4857,"èį·":4858,"åıĪéĹ®":4859,"åĪĺä½¿åĲĽ":4860,"åĪĺç¦ħ":4861,"å·²åĨ³":4862,"å±±éĻ©":4863,"æ¬²ä»¥":4864,"åį´æĺ¯":4865,"æŃ£æľĪ":4866,"å®īæľī":4867,"å®īåľ¨":4868,"å¿ĥçĸĳ":4869,"é¢ĺ":4870,"åıĸåĩº":4871,"èĢħä¸º":4872,"å®Īå°Ĩ":4873,"åĲ´äºº":4874,"ä¾¿å°Ĩ":4875,"ä¾¿åİ»":4876,"åĪĨå¸ĥ":4877,"å£«åħĥ":4878,"ä»İæŃ¤":4879,"éĤª":4880,"å»ī":4881,"é¡Ĺ":4882,"å²ĳ":4883,"èī°":4884,"èĤ¡":4885,"è¶ĭ":4886,"ä¸ľå·Ŀ":4887,"åĽĽè½®":4888,"ä¸¤äºº":4889,"å¾ĢèįĨå·ŀ":4890,"æ±Łåı£":4891,"æīĢå¾Ĺ":4892,"æīĢèİ·":4893,"å¹³åľ°":4894,"æķħäºº":4895,"æķħæĿ¥":4896,"çķĶ":4897,"åĲĦå¸¦":4898,"å°½å¼ĥ":4899,"èºĩ":4900,"åĲķèĻĶ":4901,"åĲ¬åĢĻ":4902,"å·¦æħĪ":4903,"æ´®éĺ³":4904,"åĲįä¸º":4905,"è¢ģåĨĽ":4906,"ä¼ıåĲİ":4907,"æĦıèĭ¥ä½ķ":4908,"åĳ¨é²Ĥ":4909,"çģ«éĢŁ":4910,"æĸ©äºİé©¬ä¸ĭ":4911,"å¼ķåħµæĿ¥":4912,"ä¼ļäºİ":4913,"ä¼ļç¨½":4914,"ç²®è½¦":4915,"å¤ĸäºº":4916,"èĪ¹ä¸Ń":4917,"æļ®":4918,"éĻĪçıª":4919,"çĶļåĸľ":4920,"æĦ¿éĹ»":4921,"æĦ¿éĻĽä¸ĭ":4922,"æĹ©è¢«":4923,"æĶ¾ç®Ń":4924,"é¥¥":4925,"å¤įæĿ¥":4926,"çĹĬ":4927,"çĭĹ":4928,"å¥īåħĪ":4929,"çł´èľĢ":4930,"å¼Ģå¤Ħ":4931,"é¼»":4932,"ç¤¼çī©":4933,"æĿ¨ä»»":4934,"èİ·åħ¨":4935,"å±¯ç²®":4936,"å±¯çĶ°":4937,"çľŁæĽ°":4938,"çľŁç¥ŀ":4939,"èµµäºĳæĽ°":4940,"å½¼å¿ħ":4941,"èĥĮåıį":4942,"äº¤åī²":4943,"æ¶§":4944,"éŃıåħµå¤§è´¥":4945,"å·Ŀåħµ":4946,"åĴ½":4947,"å¸¦åīĳ":4948,"å¯Ĩè®¡":4949,"åħ«å°º":4950,"å°Ħä¹ĭ":4951,"æıĲå¤ĩ":4952,"æ²³åĨħ":4953,"å·®çŁ£":4954,"éĤ£é©¬":4955,"æ»¨":4956,"ä¼Ĺå°ĨçļĨ":4957,"è°¢æģ©":4958,"åĲĳå¯¼":4959,"ä¿Ŀå®Ī":4960,"çĶ²åħµ":4961,"åľŁå±±":4962,"æĮĩæĮ¥":4963,"å¨ģå°ĨåĨĽ":4964,"èĶ½":4965,"è£¨":4966,"å»ºåħ´":4967,"æĭ¨åĽŀé©¬":4968,"èµıåĬ³":4969,"èĶ¡ä¸Ń":4970,"èĶ¡å¤«äºº":4971,"ä¸ĢéĿ¢å·®äºº":4972,"å¢¨":4973,"çīĽéĩĳ":4974,"ä¸Ģå£°åĸĬèµ·":4975,"åĥŃ":4976,"æĳ©":4977,"æī¶æ±īå®¤":4978,"è¡Ģæµģ":4979,"è½¬åĩº":4980,"éĵģéªĳ":4981,"æ£ĭ":4982,"è¾ħä½Ĳ":4983,"è¸Į":4984,"è¶ĬåĲī":4985,"æī¬å·ŀ":4986,"å©ļ":4987,"æ¦ĩ":4988,"æĺ¨æĹ¥":4989,"æĭ¿ä½ı":4990,"åĲŀå¹¶":4991,"æĪ´éĻµ":4992,"æŃ£è¡Įä¹ĭéĹ´":4993,"å®Įå¤ĩ":4994,"ç¨ĭæĺ±æĽ°":4995,"éĽ¶éĻµ":4996,"éº¾ä¸ĭ":4997,"ç¿»èº«èĲ½é©¬":4998,"æĲŃç®Ń":4999,"åı¯æĵĴçŁ£":5000,"å¿¿æĢĴ":5001,"åį¢æ¤į":5002,"æĺ¼å¤ľ":5003,"åŃ£çİī":5004,"æĹ¬æĹ¥":5005,"è¯¸è·¯åĨĽé©¬":5006,"å®ĽåŁİ":5007,"ç®ķè°·":5008,"..":5009,"ĠåıĪ":5010,"Ġå¿½æĬ¥":5011,"ä¸Ľ":5012,"äº¥":5013,"å¤¸":5014,"ä¹ĭå¤§":5015,"ä¹ĭä¹ī":5016,"ä¸įæĺ¯":5017,"ä¸įæķ°åĲĪ":5018,"å®µ":5019,"åħµå¤ļ":5020,"å¿»":5021,"æķ·":5022,"å¤§åĲį":5023,"ä¸ĢåĽŀ":5024,"ä¸Ģå·ŀ":5025,"ä¸Ģæīĭ":5026,"ä¸Ģå¤ľ":5027,"ä¸Ģç°ĩ":5028,"ä¸ĢèĪ¬":5029,"é©¬åīį":5030,"é©¬åĪ°":5031,"æĵįæĢ¥":5032,"æĵįå¤§æĥĬ":5033,"æĵįè§Ĩä¹ĭ":5034,"äºİå¸Ĳä¸Ń":5035,"ä¸ŃåĽ½":5036,"æĬ¹":5037,"æĬĽ":5038,"ä¸ºçİĭ":5039,"ä¸ºåĽ½":5040,"ä¸ºå¸Ŀ":5041,"è§ģä¸Ģ":5042,"è°Į":5043,"ä½ķæĹ¥":5044,"åĩºæĿ¥":5045,"åı¯å°Ĩ":5046,"å¦Ĩ":5047,"åĲİæľī":5048,"ä»¥å¤ĩ":5049,"å¥¢":5050,"ä»ĬåĲİ":5051,"ä»Ĭå°ĨåĨĽ":5052,"ä»Ĭä¸»åħ¬":5053,"åİ»è§ģ":5054,"åİ»åħ¶ç¼ļ":5055,"æĹ¥ä¹ħ":5056,"è¾ĩ":5057,"åĽŀåħµ":5058,"åĽŀæĪĲéĥ½":5059,"åŃĶæĺİèĩª":5060,"å¼ķè´¥åħµ":5061,"åľ¨å·¦":5062,"åľ¨åı³":5063,"åľ¨ä½ķå¤Ħ":5064,"æĹłçĶ¨":5065,"æĹłç²®":5066,"æĹłç½ª":5067,"åħĪåĽŀ":5068,"ä¸īåįģä¸ĩ":5069,"ä¸»å°Ĩ":5070,"æĪĳä¸İ":5071,"åħ³åīį":5072,"åħ³å°ĨåĨĽ":5073,"åŃĲçĳľ":5074,"åįģä¸ī":5075,"åįģäºĶä¸ĩ":5076,"æĦķ":5077,"æ±Ŀä¸º":5078,"æ±Ŀèĭ¥":5079,"åıĪå°Ĩ":5080,"åıĪæ¬²":5081,"åĪĺæĻ¯åįĩ":5082,"å·²å°½":5083,"å·²å¤±":5084,"åıªçŃī":5085,"åıªæİ¨":5086,"å±±å·Ŀ":5087,"å±±èĥĮåĲİ":5088,"æ¬²æĸ©ä¹ĭ":5089,"æ¯ħ":5090,"æŃ£å½ĵ":5091,"æŃ£èµ°":5092,"æŃ£è¿İ":5093,"æŃ£è¦ģ":5094,"å¯¨å¤ĸ":5095,"çİĭåŁº":5096,"ç¥Ī":5097,"åŃĻå³»":5098,"å®īåı¯":5099,"éģĤåĲĮ":5100,"é¢Ŀ":5101,"åıĸè¥¿å·Ŀ":5102,"çĦ¶åĪĻ":5103,"ä¿ĥ":5104,"ä¿Ĺ":5105,"éªĦ":5106,"çŃīéĹ²":5107,"ä¾¿è¯·":5108,"çģĮ":5109,"ä¹¦æĽ°":5110,"éĤ¹":5111,"è¯¸äºº":5112,"çĳŀ":5113,"æ²ĵ":5114,"ä¾¯åĪĺ":5115,"é£ŀèº«":5116,"æĢ¥æŃ¢ä¹ĭæĽ°":5117,"è¿Ľåıĸ":5118,"åįĹæĸ¹":5119,"åįĹå²¸":5120,"åį³å½ĵ":5121,"å¿½æľī":5122,"å¾ĢæĬķ":5123,"æīĢè°ĵ":5124,"æīĢæĵĴ":5125,"æīĢåĪ°ä¹ĭå¤Ħ":5126,"äºĶåįģéĩĮ":5127,"éĢĢåħ¥":5128,"æľĽè¥¿":5129,"æµĳ":5130,"éĻįåħµ":5131,"å°ıèĪ¹":5132,"å£°åĬ¿":5133,"å°½è¢«":5134,"äº¦ä¸į":5135,"åĲķç¿Ķ":5136,"ä½ıé©¬":5137,"é¢ĨäºĨ":5138,"åı¸é©¬æľĽ":5139,"æķĻä»ĸ":5140,"éħĭéķ¿":5141,"ä¼ıè·¯":5142,"æŃ¦å°Ĩ":5143,"æŁĲå½ĵ":5144,"éĺµæ³ķ":5145,"å®¶å°ı":5146,"åı£ä¸Ń":5147,"å¹¶è¿Ľ":5148,"å¹¶ä¸įè§ģ":5149,"éŁ¬":5150,"çĲ´":5151,"ç²®å°½":5152,"åĤ²":5153,"èµµèĮĥ":5154,"è°ĭåıį":5155,"åĶ¾":5156,"çĮª":5157,"æĶ¾åĽŀ":5158,"åıĹç¦ħ":5159,"åĨįä½ľ":5160,"æĹĹå¸ľ":5161,"è¶³åı¯":5162,"å¸Ĳä¸Ĭ":5163,"éĥ¡å¤ªå®Ī":5164,"èĢģå¹¼":5165,"å¥īåŃĿ":5166,"æĽ´æľī":5167,"å°±ä»¤":5168,"ç®Ńçĸ®":5169,"çĸĳèĻĳ":5170,"å²ĤèĤ¯":5171,"çĥĽ":5172,"æĿ¨ä¿®":5173,"æĿ¨å½ª":5174,"é²ľ":5175,"åĽ¾ä¹Ł":5176,"åĽ¾æľ¬":5177,"åŃĹåħĥ":5178,"èī¾æĽ°":5179,"è¿ĳæĹ¥":5180,"éŁ©æµ©":5181,"éŁ©èĥ¤":5182,"å¼ĥä¹ĭ":5183,"åĴ¸":5184,"èī¯è°ĭ":5185,"èī¯åĽ¾":5186,"åħ«è·¯":5187,"åħ«ä¹Ŀ":5188,"çĮ®ä¸İ":5189,"å¥½è¨Ģ":5190,"æļĹåĸľ":5191,"çŃĶç¤¼":5192,"è´¤å£«":5193,"å¹¸åĭ¿":5194,"ä¾įéĥİ":5195,"æ¸¡åı£":5196,"æ¯įäº²":5197,"è£ģ":5198,"æĸ°è´¥":5199,"ä¸´ç»Ī":5200,"èĽ®æĸ¹":5201,"å¼ĵç®Ń":5202,"éĢĥåĳ½":5203,"ç¥ĸå®Ĺ":5204,"æŀľæľī":5205,"è¥Ħå¹³":5206,"åĢĴäºİåľ°":5207,"ä¾Ŀè¨Ģ":5208,"åĸĦè¨Ģ":5209,"çīĽé©¬":5210,"æĥĩæĽ°":5211,"èµ´è®¸éĥ½":5212,"æĮģèĬĤ":5213,"æľ±æ¡ĵ":5214,"æ®¿ä¸ĭ":5215,"å¾¡é©¾":5216,"èĢĮåĩºæĽ°":5217,"æĥŁæľī":5218,"æŀģåħ¶":5219,"çĻ¾ä½ĻéĩĮ":5220,"ä¸ģåİŁ":5221,"è¯ĽæĪ®":5222,"é¹°":5223,"èµįè¯ı":5224,"æ¼³":5225,"åº¶æĽ°":5226,"éļıåĲİèµ¶æĿ¥":5227,"æĬµå½ĵ":5228,"éª¤èµ·":5229,"å¥ĩåħµ":5230,"æĻºåĭĩ":5231,"æ£¹":5232,"æ£Ĵ":5233,"å¹¿éĻµ":5234,"ĠæľªçŁ¥èĥľè´Łå¦Ĥä½ķ":5235,"æ¬ºåĲĽ":5236,"è¾±éªĤ":5237,"æĻĭä¸»":5238,"ä¸°æĽ°":5239,"ä¼¼æŃ¤":5240,"æ±īå®¤å®Ĺäº²":5241,"èĥ¡éģµ":5242,"æ¸ŃåįĹ":5243,"çŃĳèµ·":5244,"å·¡åĵ¨":5245,"åĺ±æĽ°":5246,"ä¹ĭåŃĲä¹Ł":5247,"ä½ĹæĽ°":5248,"æŃ»èĢħæĹłæķ°":5249,"äº¬å¸Ī":5250,"è¯īè¯´":5251,"æĪªä½ıåİ»è·¯":5252,"éĹªåĩº":5253,"çĬ¬é©¬":5254,"è´¢çī©":5255,"å¤ºè·¯èĢĮèµ°":5256,"æĢıæĢı":5257,"ç«ŃåĬĽ":5258,"æ¬¾å¾ħ":5259,"éĿĴé¾ĻåĪĢ":5260,"å¼ķä¸ĢåįĥåĨĽ":5261,"åĲĪåħµä¸Ģå¤Ħ":5262,"åĸ§å¤©":5263,"å¸¸å±±èµµåŃĲé¾Ļ":5264,"éĺĨä¸Ń":5265,"è¸Įèºĩ":5266,"èļ":5267,"éĬ":5268,"éı":5269,"Ġäºĳéķ¿":5270,"Ġä¸įçŁ¥":5271,"Ġä¸ĢæĹ¥":5272,"ĸåŁİ":5273,"ä¹ĭæ°´":5274,"ä¹ĭæīĭ":5275,"ä¹ĭåĬ³":5276,"ä¹ĭå¦»":5277,"ä¹ĭåħĨ":5278,"å°ĸ":5279,"ä¸įå¹³":5280,"ä¸įéĢļ":5281,"ä¸įåłª":5282,"å¾½":5283,"åĨĽå¤§è´¥":5284,"å¤§åĪĢ":5285,"å¤§éĽ¨":5286,"å¤§æĸ§":5287,"è¿°":5288,"è¿¸":5289,"ä¸ĢæĪĺ":5290,"ä¸Ģåı£":5291,"ä¸ĢæĬĬ":5292,"è§ħ":5293,"é©¬ä¹ı":5294,"èµĭ":5295,"ä¼ª":5296,"æĿ¥æĿĢ":5297,"æĿ¥èĢħ":5298,"å¸Ĩ":5299,"æľīåıĺ":5300,"æĸŁ":5301,"åİ¥":5302,"ç»ĳ":5303,"äºİåĨħ":5304,"ä¸Ńè·¯":5305,"ä¸Ńç®Ń":5306,"ä¸ºå¿µ":5307,"èĢĮäº¡":5308,"è°£":5309,"åĬŃ":5310,"éĢĴ":5311,"åĩºåħ¥":5312,"åĩºå¾ģ":5313,"åĩºçıŃ":5314,"åĲ¾åħµ":5315,"åı¯æĸ½":5316,"ä»¥éĽª":5317,"æĽ¹è±¹":5318,"åħ¬è·¯":5319,"åħ¬æĹ¢":5320,"ä¸Ĭæ®¿":5321,"åīĬ":5322,"è¡¥":5323,"è¡Ļ":5324,"çļĸåŁİ":5325,"ä»Ĭæ¬²":5326,"ä»Ĭå¹¸":5327,"ä¸İæĪĺ":5328,"ä¸İåŃĻä¹¾":5329,"å¼łçº":5330,"å¼łæĿ¨":5331,"åİ»å¤Ħ":5332,"åħ¶æ¯į":5333,"æĹ¥å¤ľ":5334,"åŁİéĥŃ":5335,"è¾ĥ":5336,"èĩªçŁ¥":5337,"èĩªåı¤":5338,"åºµ":5339,"äºĮæĹ¥":5340,"åĽŀæĿ¥":5341,"åĽŀæĹ¶":5342,"åĽŀéĺµ":5343,"åŃĶæĺİæķĻ":5344,"å¼ķè·¯":5345,"åľ¨åľ°":5346,"åľ¨èįĨå·ŀ":5347,"æĺ¯åĲ¾":5348,"æĺ¯ä»¥":5349,"æ°ħ":5350,"æĹłå¤ĩ":5351,"æĹłä¹ī":5352,"æİ³":5353,"æİİ":5354,"æĪĳå½ĵ":5355,"åīįå¾Ģ":5356,"çŁ¥æĪĳ":5357,"å¤©æ°Ķ":5358,"åįģåĽĽ":5359,"åĸĥ":5360,"å¿ħå¾Ĺ":5361,"å¿ħçĶŁ":5362,"æ±Ŀä¸į":5363,"æĹ¶åĢ¼":5364,"å½ĵä¸ĸ":5365,"åıĪéĹ»":5366,"åĪĺè´¤":5367,"èĭ¥ä»¥":5368,"èĭ¥èĥ½":5369,"æŃ£è¯´":5370,"æŃ£è®®":5371,"å¯¨éĹ¨":5372,"èĻĲ":5373,"çİĭçĵĺ":5374,"çľ·":5375,"éģĤæĽ°":5376,"éĹ®æĹ¶":5377,"é¢Ī":5378,"é¢Ĺ":5379,"éļĻ":5380,"çĦ¶ä¹ĭ":5381,"éĽĮ":5382,"èĢħä¹İ":5383,"åĿ¦":5384,"åĿŁ":5385,"åĲ´å°Ĩ":5386,"åĮĨ":5387,"è®¡äºİ":5388,"ä¾¿åĶ¤":5389,"çģ¶":5390,"åĪĨå¤´":5391,"å¸ĥéĺµ":5392,"æĿĥå¤§åĸľ":5393,"æĢ¥åĶ¤":5394,"åįĹèĽ®":5395,"åĽĽéĹ¨":5396,"èĩ£æĦ¿":5397,"çĻ¾äºº":5398,"åį³å·®":5399,"åį³åı¬":5400,"æŁ±":5401,"æŁĶ":5402,"å¹³æĹ¥":5403,"éĢĢèµ°":5404,"æľĽåĮĹ":5405,"å¤ªçĶļ":5406,"ç§ĺ":5407,"æĸĩé¸¯":5408,"ç¦³":5409,"Ġåį´è¯´åŃĻæĿĥ":5410,"å¤ľè§Ĥ":5411,"äº¦æľī":5412,"æ·¹":5413,"åĲ¬ä¹ĭ":5414,"è¢«æĵĴ":5415,"ä¸Ķå¾ħ":5416,"æ´¾":5417,"åĲįå°Ĩ":5418,"å¾Ĳè´¨":5419,"ä¸ŀçĽ¸ä½ķæķħ":5420,"èº«æŃ»":5421,"åĳ¨åĸĦ":5422,"è¿ĩäºº":5423,"åı³å°ĨåĨĽ":5424,"é«ĺå¹²":5425,"ä¼ļåĸĥ":5426,"è¿İæĪĺ":5427,"åĮĹæĸ¹":5428,"éĻĪåºĶ":5429,"éĻĪéľĩ":5430,"çĶļåĸĦ":5431,"è½¦åīį":5432,"éĩįåľ°":5433,"éĩįåĬł":5434,"èĲ¥åĨħ":5435,"åıĳä¹¦":5436,"å¤±ä¿¡":5437,"æĹĹä¸Ĭ":5438,"å¥ıéĹ»":5439,"å¥īåĳ½":5440,"æĽ´å¾ħ":5441,"æĽ´è¡£":5442,"ä¹±åĨĽ":5443,"ä¹±è¨Ģ":5444,"åıįéĹ´":5445,"æĹ¢å·²":5446,"å®«å®¤":5447,"æĿ¨æĢĢ":5448,"æĿ¨æĺĤ":5449,"é½Ĳå£°":5450,"å½¼èĭ¥":5451,"ç©´":5452,"ç©Ĩ":5453,"è§ĤæľĽ":5454,"åı«éĹ¨":5455,"å¾Ħåĩº":5456,"èįīåłĤ":5457,"æĬĬçĽı":5458,"è¢ģç»įå¤Ħ":5459,"å¨ĺ":5460,"éĥĥæĽ°":5461,"éĤ£äºº":5462,"åįģä½Ļä¸ĩ":5463,"å®ŀä¸º":5464,"çĹħåį±":5465,"å®¹æŁĲ":5466,"æļĹæļĹ":5467,"è°ģæĥ³":5468,"æ¸¡æ°´":5469,"åħ¨æĹł":5470,"æģ¨æĹł":5471,"éĻĨç»Ń":5472,"çº¦ä¼ļ":5473,"åºľä¸ĭ":5474,"å»ºä¸ļ":5475,"å¹²æĽ°":5476,"å¹²æŁ´":5477,"éĢĥçªľ":5478,"æŀľè§ģ":5479,"è¯Īç§°":5480,"çļĦäºº":5481,"ä¹Ŀéĥ¡":5482,"çĻ»é«ĺ":5483,"åįİä½Ĺ":5484,"åĺ¶":5485,"å¦»å°ı":5486,"ä¼¤æĦŁ":5487,"æĬ¤åĨĽ":5488,"çģµæŁ©":5489,"åĪĿæĽ´":5490,"æľ±è¤Ĵ":5491,"ä¸įåĩºæĪĺ":5492,"å¤§è´¥èĢĮèµ°":5493,"æĳĦ":5494,"åĽ°äºİ":5495,"åĽ°ä¹ı":5496,"éĻ¤ä¹ĭ":5497,"æİ©éĿ¢":5498,"ä¸īåįĥåĨĽ":5499,"çĤ¹èµ·":5500,"çİīå¸¦":5501,"ä¼¯è¨Ģ":5502,"éª¤èĩ³":5503,"èŀįæĽ°":5504,"ä»°éĿ¢":5505,"åĤ¬åĨĽ":5506,"åĤ¬åħµ":5507,"éļĲéļĲ":5508,"åıĤè°ĭ":5509,"èĬĿæĽ°":5510,"ä¼łä»¤æĽ°":5511,"çĶ³æĬ¥":5512,"çĶ³èĢ½":5513,"é¢Ħå¤ĩ":5514,"è´£ä¹ĭæĽ°":5515,"å«Ĥå«Ĥ":5516,"éĺ¿ä¼ļåĸĥ":5517,"æĭ¦è·¯":5518,"åħĪå¸ĿæīĺåŃ¤":5519,"ä¸įåı¯è½»è¿Ľ":5520,"æķ°çĻ¾éªĳ":5521,"è¨Ģæľªå·²":5522,"çķĮåı£":5523,"æªĢ":5524,"æ°¸å®ī":5525,"å·´è¥¿":5526,"åĬ¡è¦ģ":5527,"ç¼ĵç¼ĵ":5528,"åĮ»æ²»":5529,"èĩªå¼ķå¤§åĨĽ":5530,"æ±Ĥæķĳäºİ":5531,"å®īå¾Ĺä¸į":5532,"è£ħè½½":5533,"éĻĦèĢ³":5534,"éĥĿèĲĮ":5535,"åºĬä¸Ĭ":5536,"åºĨè´º":5537,"ä¹ĶåĽ½èĢģ":5538,"æĭ¦ä½ıåİ»è·¯":5539,"ä½İå¤´":5540,"æ¶ªåŁİ":5541,"ç°ĩæĭ¥":5542,"æĲ¬è¿Ĳ":5543,"æŃ£åĲĪåĲ¾æĦı":5544,"èĢ¿çºª":5545,"æģĭæĪĺ":5546,"æ°´éķľæĽ°":5547,"ä¹±ç®Ńå°Ħä¸ĭ":5548,"é¸£éĩĳæĶ¶åĨĽ":5549,"å¼ķæķ°éªĳ":5550,"èįĢæĶ¸æĽ°":5551,"æ®·åĭ¤":5552,"é¹¤æ°ħ":5553,"æŁ³åŁİ":5554,"éĥ¿åĿŀ":5555,"å¾¡æŀĹåĨĽ":5556,"éħĴèĩ³åįĬéħ£":5557,"æĭĪå¼ĵæĲŃç®Ń":5558,"åĭīå¼º":5559,"çĶ¨çģ«æĶ»":5560,"çļĩçĶ«åµ©":5561,"åį¸çĶ²":5562,"èĹ¤çĶ²":5563,"èĩ§éľ¸":5564,"çĻ½å¸ĿåŁİ":5565,"æłĪéģĵ":5566,"æĦķçĦ¶":5567,"æ²ĵä¸Ń":5568,"éĬ®":5569,"éıĸ":5570,"å¼łçº®":5571,"£è¶³":5572,"ªåĬĽ":5573,"ºåŃĲ":5574,"Ġèĩ£":5575,"ĠåŃĻæĿĥ":5576,"äºı":5577,"åıŁ":5578,"ä»ķ":5579,"ä¹ĭä¸º":5580,"ä¹ĭçĲĨ":5581,"ä¹ĭè¯Ń":5582,"ä¹ĭèģĮ":5583,"åĨ¢":5584,"æľĶ":5585,"ä¸įæĿ¥":5586,"ä¸įåİ»":5587,"ä¸įä¾¿":5588,"ä¸įæĦı":5589,"ä¸įä¹Ĳ":5590,"ä¸įé¡¾":5591,"ä¸įç¥¥":5592,"ä¸įæĤ¦":5593,"åį¤":5594,"æĹģ":5595,"æĹħ":5596,"åŃºåŃĲ":5597,"äººäºº":5598,"äººè¨Ģ":5599,"äººåĽ°":5600,"åħµåİ»":5601,"åħµä¹¦":5602,"å¤§æĹĹ":5603,"å¤§è´¤":5604,"å¤§å®´":5605,"è¿«":5606,"ä¸Ģåıª":5607,"ä¸Ģè®¡":5608,"ä¸Ģç®Ń":5609,"é©¬æŃ¥":5610,"é©¬æŃ¥åĨĽ":5611,"å°Ĩä¹¦":5612,"å°Ĩé¦ĸçº§":5613,"èµ¢":5614,"æĪļ":5615,"ä¼´":5616,"çİł":5617,"æĿ¥è¿½":5618,"åĩ¿":5619,"æĸ¯":5620,"æŃ¤é©¬":5621,"æŃ¤ä¹¦":5622,"ä¸ĭäºĨ":5623,"ä¸ºèįĨå·ŀ":5624,"ä¸ºéĩį":5625,"ä¸ºå¤§å°Ĩ":5626,"ä¸ºéķĩ":5627,"ä¸ºèªĵ":5628,"ä¸ºè¾ħ":5629,"ä¸ºå¤§å°ĨåĨĽ":5630,"è§ģåŃĻæĿĥ":5631,"èĢĮåĪ«":5632,"åĬªåĬĽ":5633,"ä½ķåĩºæŃ¤è¨Ģ":5634,"å½¹":5635,"åĩºåħ¶ä¸į":5636,"åĲ¾è¨Ģ":5637,"åĲ¾åį´":5638,"åĲ¾äºĮäºº":5639,"åĲ¾åıĹ":5640,"åı¯ä»¤":5641,"åĲİäºĭ":5642,"ä»¥æĭĴ":5643,"æĺİçĻ½":5644,"ä¸ĬèĪ¹":5645,"ä¸Ĭè½¦":5646,"ä»Ĭæľī":5647,"ä»Ĭèĭ¥ä¸į":5648,"éĺİ":5649,"å¼łéĤ°":5650,"åħ¶çĪ¶":5651,"åħ¶ç½ª":5652,"çİĦå¾·è§ģ":5653,"ä¹ĥå¼ķ":5654,"ä¹ĥåĳ½":5655,"ä¹ĥåı¬":5656,"èĭĩ":5657,"èĩªåĩº":5658,"èĩªå®Ī":5659,"èĩªç§°":5660,"åŃĶæĺİå¤§åĸľ":5661,"å¼ķçĿĢ":5662,"å¼ķä¼Ĺå°Ĩ":5663,"å¼ķäºĶçĻ¾åĨĽ":5664,"å¼ķäºĶåįĥåħµ":5665,"åľ¨å®¶":5666,"åħ¥åºľ":5667,"æĹłè¨Ģ":5668,"æĹłéģĵ":5669,"æĿĢå°Ĩ":5670,"æĿĢæĪĳ":5671,"åħĪå°Ĩ":5672,"åħĪä»¤":5673,"åħĪå¾Ģ":5674,"ä¸īéĺŁ":5675,"æĪĳåıª":5676,"åīįæĹ¥":5677,"åħ³ä¸ĭ":5678,"è·£è¶³":5679,"åŃĲåŃĻ":5680,"åŃĲç¿¼":5681,"çŁ¥ä¹Ł":5682,"å¤©æĹ¶":5683,"åįģåħŃ":5684,"å¿ħæĺ¯":5685,"å¿ħæŃ»":5686,"å¿ħæĸ©":5687,"åıĪæĬ¥":5688,"å·²å¾Ĺ":5689,"åıªè¯´":5690,"åıªçľĭ":5691,"ä¼Ĺè¯¸ä¾¯":5692,"æ¬²ä»¤":5693,"æĪĺé©¬":5694,"å¯¨æĿ¥":5695,"å¯¨åĲİ":5696,"éķ¿åı¹æĽ°":5697,"ç«¿":5698,"çİĭå®¤":5699,"çİĭæ¿¬":5700,"ç¥·":5701,"åŃĻçļĵ":5702,"éĹ®ä½ķäºº":5703,"æŃ»ä¹ĭåĲİ":5704,"è¡ĮåĪ°":5705,"å®Īå¯¨":5706,"ä¿¯":5707,"åĮ¿":5708,"åĮł":5709,"å°ĨåĨĽèĭ¥":5710,"æŀ¯":5711,"ä¾¿æľī":5712,"ä¾¿å½ĵ":5713,"åĪĨä¸º":5714,"åĪĨä¸¤è·¯":5715,"è¯¸åĲĽ":5716,"èĤĭ":5717,"è¶ģ":5718,"æ²Ī":5719,"æ²Ķ":5720,"è¥Ł":5721,"ä¸ľå°ĨåĨĽ":5722,"æĢ¥ä¸Ĭé©¬":5723,"æ¸İ":5724,"æ¸ł":5725,"åį³éģ£":5726,"å¿½èµ·":5727,"å¿½åĲ¬":5728,"æ±Łä¸Ń":5729,"æ±Łå±±":5730,"æīĢè§ģ":5731,"äºĶéĩĮ":5732,"éĢĢèľĢåħµ":5733,"éĢĢå·¦åı³":5734,"æĸ¹å§ĭ":5735,"çĶŁå¾Ĺ":5736,"æĸĩéķ¿":5737,"æĸĩçİĭ":5738,"çĶ¨è®¡":5739,"å°ıå¿ĥ":5740,"åĲĦæī§":5741,"æķ¢ä¸į":5742,"èºģ":5743,"é»ĦæĹĹ":5744,"æĥĬæħĮ":5745,"æīĭä¸Ń":5746,"Ġåį´è¯´åĳ¨çĳľ":5747,"äº¦æĺ¯":5748,"ä¸Ķèµ°":5749,"é¢Ĩä¸ĢåĨĽ":5750,"åı¸é©¬çĤİ":5751,"å·¦æīĭ":5752,"éĶ¤":5753,"æ´Ĵ":5754,"å¾Ĳæ°ı":5755,"å®ĺåĨĽ":5756,"èº«æĬ«":5757,"ä¼ıå®Į":5758,"ç»įåĨĽ":5759,"æķĮæ¥¼ä¸Ĭ":5760,"å®ļçŁ£":5761,"å¹´æĺ¥":5762,"èµ¶èĩ³":5763,"ä½ľåħĪéĶĭ":5764,"åĽłè§ģ":5765,"çĲª":5766,"ç²®è¶³":5767,"ç²®ç±³":5768,"äº²å¾ģ":5769,"æĿİèĴĻ":5770,"éĩįä»»":5771,"åĳĬçŁ¥":5772,"æıª":5773,"èĻ½æĺ¯":5774,"èĬĴ":5775,"ä¸įèĥ½çĽ¸":5776,"ä¸įèĥ½è¡Į":5777,"ä¹ĺåħ¶":5778,"ä¹ĺéĹ´":5779,"åĬŁå¾·":5780,"åĿĲèĢĮ":5781,"è¯¸èĳĽä¸ŀçĽ¸":5782,"å²Ĥä¸įçŁ¥":5783,"çĥŃ":5784,"å®«éĹ¨":5785,"æĿ¨ç§ĭ":5786,"éĩĳçĸ®":5787,"æĵĴä½ı":5788,"å§ľåıĻ":5789,"äº¤åİļ":5790,"éŁ©ç¦ı":5791,"å¾Ħåħ¥":5792,"è¿ľè¿ľ":5793,"èī¯æĽ°":5794,"è¾ŀåĪ«":5795,"æµģè¡Ģ":5796,"çĹħéĩį":5797,"çŃĶè¯Ŀ":5798,"ä¸¾äºĭ":5799,"è¡£å¸¦":5800,"ä¸ĥåĨĽ":5801,"è´¤ä¾Ħ":5802,"å¤ºå¾Ĺ":5803,"å±ħä¸Ń":5804,"å¯¹æķĮ":5805,"æĻĥæĽ°":5806,"çº¦å®ļ":5807,"åĪºæĸľ":5808,"åħŃéĥ¡":5809,"çĴĭæĽ°":5810,"å¿§èĻĳ":5811,"å¹²æĪĪ":5812,"ç»Ĩè¨Ģ":5813,"èµĲä¹ĭ":5814,"éĢĥéļ¾":5815,"å¯»è·¯":5816,"ç»ĵå¥½":5817,"çĽĸæĽ°":5818,"åħīæŃ¦":5819,"ä¾Ŀæ¬¡":5820,"ä¸Ģå£°é¼ĵåĵį":5821,"åĲİäººæľīè¯Ĺåı¹":5822,"è¿Ļä¸ª":5823,"åĽ°åľ¨åŀĵå¿ĥ":5824,"äºīå¥Ī":5825,"åĲīåĩ¶":5826,"åĤħå½¤":5827,"æľīä½ķé«ĺè§ģ":5828,"è´¾éĢµ":5829,"æ¼ł":5830,"å¸Ńæķ£":5831,"äºİé©¬ä¸Ĭ":5832,"æµ·åĨħ":5833,"çĨĬ":5834,"äºĶçĻ¾äºº":5835,"ç´łæľī":5836,"å¥ĩæīį":5837,"ç¢į":5838,"æĪĳçŃīçļĨ":5839,"æĶ¸æĽ°":5840,"ä»°è§Ĥ":5841,"éģ¿ä¹ĭ":5842,"åĨĻä¹¦":5843,"æī¬éŀŃ":5844,"ä¼łä»¤æķĻ":5845,"éĺ´äºĳ":5846,"åį«çĵĺ":5847,"æĻĭåħ¬":5848,"æĬļæİĮ":5849,"è¡¡æĽ°":5850,"å¤§åĵŃæĽ°":5851,"åľ£äºº":5852,"æĭĨå°ģ":5853,"æĶ¹åħĥ":5854,"ä½ķä»¥çŁ¥ä¹ĭ":5855,"çĮĽå°Ĩ":5856,"åıĻç¤¼æ¯ķ":5857,"æĦļæĦı":5858,"æ¸©ä¾¯":5859,"åĽºå®Ī":5860,"çİºç»¶":5861,"çĽĳåĨĽ":5862,"æĭ¿ä¸ĭ":5863,"ä¸īä¸ĩåĨĽ":5864,"é¢ĩæľī":5865,"èĨº":5866,"åĲĬä¸§":5867,"ç¾Ĭç¥ľ":5868,"åģıå°ĨåĨĽ":5869,"è·Łéļı":5870,"éŀįé©¬":5871,"ä¸ºä¸ĬçŃĸ":5872,"é¼ĵè§Ĵåĸ§å¤©":5873,"éĹªè¿ĩ":5874,"åĽĽæķ£å¥Ķèµ°":5875,"åįļæľĽ":5876,"å»ºå®īäºĮåįģ":5877,"é¼łçªľ":5878,"åī¿éĻ¤":5879,"çĶ·å¥³":5880,"å¹½å·ŀ":5881,"è¹Ħ":5882,"ç»°æŀª":5883,"æ¦»åīį":5884,"ä¸¾çģ«ä¸ºåı·":5885,"ä¸Ģç®Ńå°Ħä¸Ń":5886,"é¼ĵå£°å¤§éľĩ":5887,"çŁ¢çŁ³å¦ĤéĽ¨":5888,"é¾ļéĥ½":5889,"æĭ±æīĭ":5890,"åĽĽè½®è½¦":5891,"æİİè§Ĵ":5892,"åĩºåħ¶ä¸įæĦı":5893,",âĢĿ":5894,"?âĢĻ":5895,"¤æŃ£":5896,"¨èī":5897,"¸é©¬":5898,"è¹ĩ":5899,"éī":5900,"ĠæĿĥ":5901,"Ġåįĵ":5902,"Ġåĳ¨çĳľ":5903,"ĠåİŁæĿ¥":5904,"ĠæŃ¤æĹ¶":5905,"Ġå½ĵæĹ¥":5906,"ĠæĹ©æľī":5907,"ĩäºŃ":5908,"åıī":5909,"ä¹ĭè§ģ":5910,"ä¹ĭåĪĨ":5911,"ä¹ĭéĿ¢":5912,"ä¹ĭåįĹ":5913,"ä¹ĭæľĽ":5914,"ä¹ĭå¤´":5915,"ä¹ĭäº¤":5916,"æĿĲ":5917,"åĨĮ":5918,"ä¸įéĢĢ":5919,"ä¸įå¤į":5920,"ä¸įä¸ĢæĹ¥":5921,"æĹĦ":5922,"åĨĽå°Ĩ":5923,"è¯£":5924,"è¯µ":5925,"åħµéĢĢ":5926,"å¿ĸ":5927,"é©´":5928,"é©¸é©¬":5929,"å¤§èĩ³":5930,"å¤§ä¸ļ":5931,"ä¸Ģæĸ¹":5932,"ä¸Ģå®¶":5933,"ä¸ĢæĪŁ":5934,"å·į":5935,"æĿ¥æŃ¤":5936,"æĿ¥è¯´":5937,"æĿ¥èµ¶":5938,"æĿ¥æİ¥åºĶ":5939,"æĵįéĹ®æĽ°":5940,"æŃ¤çļĨ":5941,"ç»ľ":5942,"éģı":5943,"ä¸ĭçĭ±":5944,"äºİæĵį":5945,"äºİåĲİ":5946,"äºİæĪĳ":5947,"ä¸ºå¤©ä¸ĭ":5948,"ä¸ºåĽ½å®¶":5949,"è§ģåħ¶":5950,"è§ģéŃıåħµ":5951,"ä½ķäºĭ":5952,"ä½ķè°ĵ":5953,"ä½ķæľŁ":5954,"å½ķ":5955,"éĥ¤æŃ£":5956,"ä¾ĭ":5957,"åı¯æĢ¥":5958,"è´¯":5959,"ä»¥æķĳ":5960,"ä»¥ç¤º":5961,"æĽ¹åµ©":5962,"æĽ¹å½°":5963,"åħ¬ä½ķ":5964,"ä¸Ĭåħ³":5965,"åīĸ":5966,"ä»Ĭå½ĵ":5967,"ä¸İåħ³":5968,"ä¸İåħ³åħ¬":5969,"ä¸İä»ĸ":5970,"ä¸İåĲķå¸ĥ":5971,"ä¸İåĪĺå¤ĩ":5972,"ä¸İä¼Ĺå°Ĩ":5973,"åİ»åĬ«":5974,"åħ¶ä¸Ń":5975,"åħ¶è¯´":5976,"åħ¶åľ°":5977,"æĹ¥è¡Į":5978,"ä»¤åħµ":5979,"ä»¤åħ¶":5980,"ä¹ĥæĽ°":5981,"ä¹ĥåŃĶæĺİ":5982,"ä¹ĥå¯Ĩ":5983,"èĩªåĪ°":5984,"äºĮå¿ĥ":5985,"äºĮè¢ģ":5986,"åĽŀçŃĶ":5987,"åŃĶæĺİäº¦":5988,"åŃĶæĺİåı¹æĽ°":5989,"å¦Ĥåħ¶":5990,"åľ¨æĹ¥":5991,"åľ¨å½¼":5992,"åľ¨å¸Ĳä¸Ń":5993,"æĺ¯æĪĳ":5994,"å¾Ĺå¿Ĺ":5995,"è¢ĭ":5996,"æĹłæķĮ":5997,"æĹłè¯Ń":5998,"æĿĢè´¥":5999,"æĶĢ":6000,"æģį":6001,"æİ¾":6002,"åħĪæķĻ":6003,"åħĪæĸ©":6004,"åħĪä½¿äºº":6005,"ä¸īåħ¬":6006,"ä¸īå¯¨":6007,"ä¸īå¤Ħ":6008,"ä¸īåĽ½":6009,"ä¸īå¯¸":6010,"æĪĳèĭ¥":6011,"åīįè¡Į":6012,"åŃĲå¸ĥ":6013,"åĪ°å¤Ħ":6014,"å¤©æĻļ":6015,"å¤©è±¡":6016,"åįģäºº":6017,"åįģåħ«":6018,"åĸī":6019,"å¿ħèĥľ":6020,"æ±Ŀåĭ¿":6021,"æ±Ŀå®īæķ¢":6022,"æĹ¶æľī":6023,"å½ĵä»Ĭ":6024,"åıĪæĺ¯":6025,"åıĪéĹ®æĽ°":6026,"åĪĺçĦī":6027,"åıªæķĻ":6028,"åıªåĽł":6029,"å±±åīį":6030,"å±±éĺ³":6031,"å±±é¡¶":6032,"æĬ¥æĽ°":6033,"æĬ¥æĿ¥":6034,"äºĳæ¢¯":6035,"æ¬²åıĸ":6036,"æ¬²ç«ĭ":6037,"æ¬²æĬķ":6038,"åį´å°Ĩ":6039,"åį´æĿ¥":6040,"åį´ä»¤":6041,"æŃ£åĢ¼":6042,"æĪĺå¿ĥ":6043,"æĪĺä¸Ķèµ°":6044,"ä½¿èĩ³":6045,"çİĭåŃĲæľį":6046,"å®īèº«":6047,"çºĤ":6048,"å®ĪéĹ¨":6049,"åĮ£":6050,"æŀ¶":6051,"çŃīä¸ĢçıŃ":6052,"ä¾¿éĹ®":6053,"ä¾¿åĳ½":6054,"åĪĨåĨĽ":6055,"æľªæĽ¾":6056,"èī¨èī":6057,"èĤ©":6058,"è¶±":6059,"ç¬ĥ":6060,"æĢ¥æ¬²":6061,"æĢ¥æĢ¥":6062,"æĢ¥åı¬":6063,"æĢ¥åĪĩ":6064,"åĽĽéĥ¡":6065,"æķ°æ¬¡":6066,"ä¸¤å¤´":6067,"æīĢçĶŁ":6068,"æīĢå®³":6069,"æīĢä½©":6070,"äºĶä¸Ī":6071,"éĢĢå®Ī":6072,"æµĬ":6073,"æķħäºĭ":6074,"æ°´åħ³":6075,"æ°´æĪĺ":6076,"æĩĪ":6077,"åĲĦå®Ī":6078,"åĲĦå¼ķåħµ":6079,"åĲĦèĲ¥":6080,"åĲĦå¼ķä¸ĢåĨĽ":6081,"å°½å¿ł":6082,"èº²":6083,"ä½ĻçļĨ":6084,"é»Ħåħ¬è¦Ĩ":6085,"æĥĬè®¶":6086,"Ġåį´è¯´éĤĵèī¾":6087,"äº¦è¢«":6088,"æ·«":6089,"åĲķåĩ¯":6090,"åĲ¬ä¿¡":6091,"åĽ½è´¼":6092,"ä¸ĶéĢĢ":6093,"ä¸Ķå®ľ":6094,"ä¸ĶæĪĺä¸Ķèµ°":6095,"é¢Ĩå¤§åĨĽ":6096,"è®¸éĿĸ":6097,"éĶ¡":6098,"å®ĺåĲı":6099,"çľĭæĪĳ":6100,"åĲĮä¹¡":6101,"åĲĮçĶŁæŃ»":6102,"æķĳåħµ":6103,"æŁĲæľīä¸Ģè®¡":6104,"æķĮåĨĽ":6105,"æĭľæľį":6106,"å®ļä¹Ł":6107,"çģ«æĿ¥":6108,"è¿ĩä¹Ł":6109,"æĸ©äºİå¸Ĥ":6110,"æĶ»åıĸ":6111,"åĪĢèĲ½":6112,"å¹¶çļĨ":6113,"å¹¶å·ŀ":6114,"é«ĺå£°":6115,"é«ĺæ²Ľ":6116,"å»¶æĽ°":6117,"åĮĹå²¸":6118,"å¤ĸåĲĪ":6119,"è°ĭå®³":6120,"åĶ¯":6121,"çĶļçĪ±ä¹ĭ":6122,"èįĨå·ŀä¹ĭåħµ":6123,"å½Ĵäºİ":6124,"å½Ĵé¡º":6125,"çĮĩäºŃ":6126,"æ¡¶":6127,"æģĲå¤±":6128,"æĹ©åĪ°":6129,"æĶ¾åĩº":6130,"æĶ¾äºĨ":6131,"é¥¿":6132,"åıĹä¹ĭ":6133,"å¤±æĥĬ":6134,"è¿ŀå£°":6135,"è¿ŀå¿Ļ":6136,"å°ļåľ¨":6137,"è¶³çŁ£":6138,"éĴī":6139,"çł´äºĨ":6140,"æłĹ":6141,"ä¹īåħµ":6142,"å¥ĶåĪ°":6143,"å¼ĢåŁİéĹ¨":6144,"è¦ģè·¯":6145,"åŃŁèµ·":6146,"å²Ĥå¾Ĺ":6147,"æĿ¨éĻµ":6148,"æĶ¶å·Ŀ":6149,"ä¸ĢäººåĩºæĽ°":6150,"å±¯åĨĽ":6151,"çªĿ":6152,"çľŁå¿ĥ":6153,"æ¶¿":6154,"ç¼¨":6155,"åģ¥":6156,"å·Ŀä¸Ń":6157,"å·Ŀåı£":6158,"è¿ľè¿ĳ":6159,"è¿ľå¾ģ":6160,"å¸¦æĿ¥":6161,"å§ľç»´æĽ°":6162,"åı¹æģ¯":6163,"ä¼łæĹ¨":6164,"å¨¶":6165,"æīĵè¯Ŀ":6166,"æİ¢ä¹ĭ":6167,"åĭ¿çĸĳ":6168,"åħ±é¥®":6169,"è®¾è®¡":6170,"è®¾ç¥Ń":6171,"çĶ²å£«":6172,"è°ģçŁ¥":6173,"å¾ģè¿Ľ":6174,"å¾ģè¥¿å°ĨåĨĽ":6175,"èĴĻæĽ°":6176,"ä¾įå©¢":6177,"éľĩå¤©":6178,"ä¸ĢåĨĽåıĸ":6179,"èĲ½äºİ":6180,"èģļä¼Ĺå°Ĩ":6181,"æĽ¾ä¸İ":6182,"éģĩå®³":6183,"åĩ»é¼ĵ":6184,"æĸ°äº¡":6185,"å¿§éĹ·":6186,"æĸĻæķĮ":6187,"ç²¾ç¥ŀ":6188,"ç²¾å£®":6189,"èµıèµĲ":6190,"å¯»è§ħ":6191,"èĶ¡éĤķ":6192,"æİ¨è½¦":6193,"ä¸¥æ°ı":6194,"ä¹ĿåĽŀ":6195,"è¢ŃäºĨ":6196,"çĻ»æĽ°":6197,"ä¾Ŀå±±":6198,"åĬłå®³":6199,"åĬłéŀŃ":6200,"åįİå®¹":6201,"æĭĴä½ı":6202,"æĮºèº«":6203,"èİ«æķ¢":6204,"åĸĬå£°éľĩåľ°":6205,"æĢĢçĸĳ":6206,"åĥ§":6207,"åĥı":6208,"æĬĺåħµ":6209,"é²ģèĤĥæĽ°":6210,"éº»":6211,"åĭĴåĽŀé©¬":6212,"æīĺçĹħ":6213,"ä¸Īåħ«":6214,"åĪĨä»ĺå¦ĤæŃ¤å¦ĤæŃ¤":6215,"æŀĹæľ¨":6216,"ä¸§èĥĨ":6217,"è°ĥçĶ¨":6218,"çĤ¹å¤´":6219,"æ³£æĭľ":6220,"åĪĨåħµä¸īè·¯":6221,"åĽŀæĬ¥æĽ°":6222,"åı¤äºº":6223,"è®ºä¹ĭ":6224,"éĺ²ä¹ĭ":6225,"åĪĹä¾¯":6226,"ç±»":6227,"æĮºæŀªçºµé©¬":6228,"æĮºæŀªæĿ¥è¿İ":6229,"åŃĻä¹¾æĽ°":6230,"è¯¯äºĨ":6231,"å³ª":6232,"è§Īè¡¨":6233,"ç¢Į":6234,"ä¹¡ä¾¯":6235,"æŃĩæģ¯":6236,"ç®¡äº¥":6237,"åĤ¬çĿ£":6238,"ä¹ĺåĬ¿æİ©æĿĢ":6239,"å·®äººå¾Ģ":6240,"è¸ª":6241,"è¸ŀ":6242,"éļĲèĢħ":6243,"Ġä¸Ķè¯´æĽ¹æĵį":6244,"æĺıç»Ŀ":6245,"æ¬ºæĪĳ":6246,"åıĤæĭľ":6247,"æĺ¯å¤ľäºĮæĽ´":6248,"å¦Ļç®Ĺ":6249,"éĺ»å½ĵ":6250,"åĦĴæĽ°":6251,"çĶ³ä»ª":6252,"æĭĨå¼Ģ":6253,"æĴŀåĩº":6254,"æĴŀçĿĢ":6255,"æĺ¨å¤ľ":6256,"æīİä½ı":6257,"ç¾¤èĩ£æĽ°":6258,"éĩıæŃ¤":6259,"æĬ±å¤´":6260,"åº§ä¸Ĭ":6261,"åŀĤæ³ª":6262,"é©°ä¹¦":6263,"ä¸ĢåĪĢçłį":6264,"æŃĮæĽ°":6265,"æ¯Ľçİł":6266,"éĦĤ":6267,"éĦĻ":6268,"å±Īèº«":6269,"çĥ¦æģ¼":6270,"æģ°æīį":6271,"æ®µçıª":6272,"ä¼Ĭå°¹":6273,"èĻ½çĦ¶å¦ĤæŃ¤":6274,"åı¯æĵĴä¹Ł":6275,"æ§½":6276,"åįģæķ°éªĳ":6277,"å¤§å¼ĢåŁİéĹ¨":6278,"æ°´éĻĨå¹¶è¿Ľ":6279,"èĴ¯è¶Ĭ":6280,"æĢłæħ¢":6281,"èº«éķ¿åħ«å°º":6282,"èĬ¦èĭĩ":6283,"èĮħåºĲ":6284,"çĦ¦è§¦":6285,"æĶ¾èµ·çģ«æĿ¥":6286,"éĽħä¸¹":6287,"æħ¨çĦ¶":6288,"éªģå°Ĩ":6289,"æµģæĺŁé©¬":6290,"æĭĤè¢ĸ":6291,"æĹłè®¡åı¯æĸ½":6292,"æ·³äºİçĲ¼":6293,"èŃ¦":6294,"éªłéªĳå°ĨåĨĽ":6295,"èĢħä¸ºçīĽ":6296,"èī°éļ¾":6297,"å¿»çĦ¶":6298,"éĽĮéĽĦ":6299,"éıĸåħµ":6300,"åį¤åŁİ":6301,"äººåĽ°é©¬ä¹ı":6302,"æİİè§Ĵä¹ĭåĬ¿":6303,"éī´":6304,"èī¨èīŁ":6305,"«èĬ¦":6306,"Ġæ±ī":6307,"Ġåı¸é©¬æĩ¿":6308,"Ġè¯¸èĳĽäº®":6309,"Ħéģĵ":6310,"ĸæĵ":6311,"å¤·":6312,"ä»ĭ":6313,"ä¹ĭä»¥":6314,"ä¹ĭæ°Ķ":6315,"ä¹ĭä»»":6316,"ä¹ĭæģ¨":6317,"ä¹ĭæľº":6318,"å°§":6319,"æĿł":6320,"ä¸įåĽŀ":6321,"ä¸įçĿ":6322,"ä¸įæĥ§":6323,"ä¸įæľŁ":6324,"ä½ŀ":6325,"åĨĽç²®":6326,"è¯Ħ":6327,"åħµå·²":6328,"åħµä¸´":6329,"æķŀ":6330,"å¤§çĸĳ":6331,"å¤§æĿĢä¸Ģéĺµ":6332,"è¿Ī":6333,"ä¸Ģé©¬":6334,"ä¸ĢæŃ»":6335,"ä¸Ģèº«":6336,"ä¸ĢåŃĹ":6337,"ä¸Ģä¸¾":6338,"ä¸ĢåĮ¹":6339,"ä¸ĢæĭĽ":6340,"å°ĨæĺŁ":6341,"å°Ĩäº¡":6342,"æĪİ":6343,"ä¼¸":6344,"ä¼ŀ":6345,"æĿ¥æĦı":6346,"å¸»":6347,"å¸½":6348,"å¸ĺ":6349,"æľīåĳ½":6350,"æľīä¹¦":6351,"æľīè¯¯":6352,"çĽĪ":6353,"çĽĴ":6354,"æĵįå¯¨":6355,"æĵįåį³":6356,"æŃ¤çŃī":6357,"æŃ¤æľºä¼ļ":6358,"ä¸ĭæĪĺ":6359,"ä¸ĭè¯ı":6360,"ä¸ĭæ±ŁåįĹ":6361,"ä¸ĭæ¥¼":6362,"äºİä¸ŀçĽ¸":6363,"ä¸Ńå±±":6364,"æĬĸæĵ":6365,"ä¸ºåĨĽå¸Ī":6366,"çĶĦ":6367,"è§ģèľĢåħµ":6368,"èĢĮæľī":6369,"ä½ķå¾Ĺ":6370,"ä½ķçŃĸ":6371,"åĩºæŃ¤":6372,"åĩºéĻį":6373,"åĩºæ¦ľ":6374,"åĲ¾åħĪ":6375,"åĲ¾çŁ¥":6376,"åĲ¾å¿ĥ":6377,"åĲ¾è®¡":6378,"å¦Ĵ":6379,"åĲİéĺŁ":6380,"åĲİå¿ħä¸º":6381,"ä»¥éħĴ":6382,"ä»¥å®ŀ":6383,"æĽ¹é«¦":6384,"åħ¬æĺİ":6385,"è¡Ķ":6386,"ä»Ĭè§ģ":6387,"ä»ĬæĹ¢":6388,"éĺī":6389,"å¼łäºĮäºº":6390,"å¼łèĭ±":6391,"å¼łæ¢ģ":6392,"å¼łèĳĹ":6393,"åİ»çŁ£":6394,"åħ¶å®¶":6395,"çİĦå¾·ä¸º":6396,"çİĦå¾·å¤§æĥĬ":6397,"ä¹ĥèģļ":6398,"è¾¨":6399,"èĩªèµ°":6400,"å¦Ĥé£ŀ":6401,"åľ¨ç¥ģå±±":6402,"åľ¨æĹ¦å¤ķ":6403,"æĥ¹":6404,"æĺ¯ä¸ª":6405,"åħ¥åĳĬ":6406,"åħ¥æĪĲéĥ½":6407,"çĽ¸æĬķ":6408,"å¾Ĺä¹¦":6409,"æĹłå¿ĥ":6410,"æĹłèĥ½":6411,"æĹłåĲį":6412,"æĹłä¸Ģäºº":6413,"æĿĢåĲ¾":6414,"æģ£":6415,"ä¸īå°Ĩ":6416,"ä¸īéĿ¢":6417,"ä¸īé¡¾":6418,"æĪĳæľī":6419,"æĪĳåİ»":6420,"èĩ³äºİ":6421,"èĩ³çŁ£":6422,"åĪ°äºĨ":6423,"åįģæľĪ":6424,"çļĨåĩº":6425,"çļĨæĹł":6426,"çļĨéĢĢ":6427,"çļĨæŃ»äºİ":6428,"æ±Ŀå½ĵ":6429,"æ±ĿçĪ¶":6430,"å½ĵæľī":6431,"å½ĵä½ı":6432,"éŃıèĲ¥":6433,"åıĪåĪ°":6434,"åıĪèµ·":6435,"åıĪéģ£":6436,"å·²å°Ĩ":6437,"å·²èĩ³":6438,"åıªæľĽ":6439,"åıªåĲ¬":6440,"åıªè¦ģ":6441,"æĬ¥æķĪ":6442,"æĬ¥æį·":6443,"æ¬²ä½¿":6444,"æ¬²å®³":6445,"éķ¿æŀª":6446,"çİĭçĶ«":6447,"éģĤå°ģ":6448,"éģĤä¸Ĭé©¬":6449,"çº¿":6450,"éĹ®å®ī":6451,"æŃ»æĹł":6452,"éĽģ":6453,"åĿı":6454,"å®ĪæĬ¤":6455,"åĲ´åĨĽ":6456,"åĲ´éĥ¡":6457,"è®¡å°±":6458,"æŀķ":6459,"éªĮ":6460,"ä¾¿éĢĢ":6461,"åĪĨä½ľ":6462,"åĪĨä¸īè·¯":6463,"ä¹¦çĶŁ":6464,"å£«é©¬":6465,"ä»İèĥĮåĲİ":6466,"å»Ĭ":6467,"æľªè§ģ":6468,"æľªå®¡":6469,"å²©":6470,"èľľ":6471,"å¸ĥä¹ĥ":6472,"èĳ«èĬ¦":6473,"èľĢæ±ī":6474,"æ²Ĳ":6475,"ä¸ľè¥¿":6476,"èµ°äºĨ":6477,"åĽĽæľĪ":6478,"åĽĽåįģä½Ļ":6479,"æķ°åįģä¸ĩ":6480,"æ¸ļ":6481,"åį³çļĩå¸Ŀ":6482,"åį³ä¿®ä¹¦":6483,"ä¸¤å°Ĩ":6484,"ä¸¤çķª":6485,"äºĶäºº":6486,"æľĽåįĹ":6487,"ä¸ĩäºº":6488,"ä¸ĩå¤«":6489,"åľ°éĿ¢":6490,"åľ°éģĵ":6491,"å¤ªçĻ½":6492,"åĢ¦":6493,"æĸ¹å¾Ĺ":6494,"æ°´è·¯":6495,"æ°´åĬ¿":6496,"çĶ¨å¥½è¨Ģ":6497,"å°ıäºº":6498,"åĲĦå¯¨":6499,"çĪª":6500,"å°½è¡Į":6501,"ä½Ļäºº":6502,"é»Ħæ²³":6503,"Ġåį´è¯´å¼łé£ŀ":6504,"è´¥äºİ":6505,"äº¦ä¸įèĥ½":6506,"çĸ¼":6507,"åĲ¬æ¯ķ":6508,"ç½ķ":6509,"ä¸įåı¯èĥľ":6510,"æ´Ĺ":6511,"å¾ħåĲ¾":6512,"å®ĺåĳĺ":6513,"éģĵåı£":6514,"åĲĮè¡Į":6515,"ä¼ıé¾Ļ":6516,"åºĶå¤©":6517,"æķĳæı´":6518,"åĳ¨åħ¬":6519,"æŁĲä¹ĥ":6520,"çŃĸé©¬":6521,"æķĮæīĭ":6522,"è¿ĩæ¡¥":6523,"å¹´çŁ£":6524,"æĸ©å°Ĩ":6525,"éĺµä¸Ĭ":6526,"ç¾¡":6527,"å®¶äºº":6528,"èİ½":6529,"å¸ĪçºĤ":6530,"é«ĺéĺľ":6531,"åĽłéĹ®":6532,"åĮĹåĨĽ":6533,"åĮĹåľ°":6534,"å¤ĸåºĶ":6535,"åĲĽåŃĲ":6536,"èĪ¹çŃı":6537,"è°ĭèĩ£":6538,"èĥľä¹ĭ":6539,"æĿİä¸°":6540,"è½¦ä¸Ń":6541,"èįĨå·ŀæĿ¥":6542,"è°ĵè¯¸å°ĨæĽ°":6543,"æĦ¿ä»İ":6544,"æĶ¾æ±Ŀ":6545,"éļıåĨĽ":6546,"ä»ĸæĹ¥":6547,"çĽ´åĨ²":6548,"åıĹåħ¶":6549,"ä¸įèĥ½çĶ¨":6550,"åĨįè¨Ģ":6551,"åĨįå¾Ģ":6552,"è¿ŀå¹´":6553,"ç¿ģ":6554,"åĿĲä¸ĭé©¬":6555,"çĭĲ":6556,"çĭĦéģĵ":6557,"çł´æĽ¹æĵį":6558,"æłĸ":6559,"å¥Ķèĩ³":6560,"å¥ĶéĢĥ":6561,"å°ģä¸º":6562,"å¼Ģè·¯":6563,"åķĨè®®éĹ´":6564,"æ®Ĭ":6565,"è§£ä¹ĭ":6566,"å²Ĥæķ¢":6567,"æĹ¢æŃ»":6568,"æľĿæĶ¿":6569,"ä¸ĢäººåºĶå£°":6570,"ä¸Ģäººä¸Ģéªĳ":6571,"åŃĹæĸĩ":6572,"åŃĹä»²":6573,"ç¼ī":6574,"éĢģèĩ³":6575,"çĤŃ":6576,"å¼ĥé©¬":6577,"éĵº":6578,"æľĪæĺİ":6579,"åĵŃæĽ°":6580,"å°ĦæŃ»":6581,"çĮ®ä¸Ĭ":6582,"é²ģåŃĲæķ¬":6583,"å°ĳæŃĩ":6584,"æĬĬä½ı":6585,"éĤ£å°Ĩ":6586,"åĳ¨çĳľæĽ°":6587,"å®ľéĢŁ":6588,"æ·±çŁ¥":6589,"æ·±ä¿¡":6590,"èĻİå°Ĩ":6591,"åĲĳèĢħ":6592,"æļĹæĢĿ":6593,"åħģè¯º":6594,"è®¾å¸Ń":6595,"ä¸¾åĵĢ":6596,"ä¸ĸæīĢ":6597,"ä¸ĥæľĪ":6598,"ä¸ĥæĺŁ":6599,"èĻļå¼ł":6600,"è°ģäºº":6601,"å¾ģä¼Ĳ":6602,"å±ħäºİ":6603,"å¹¸ä¹Ł":6604,"è¾¾æĽ°":6605,"å¯¹çŃĶ":6606,"ä¾įç«ĭ":6607,"ä¾įå¦¾":6608,"éĢŁè¡Į":6609,"å²±æĽ°":6610,"çº¦æľī":6611,"æľķæĦı":6612,"åĪºæŃ»":6613,"å¼łéĥĥæĽ°":6614,"ä¸įå¾Ĺä¸į":6615,"ä¸´éĺµ":6616,"ç»Ĩè¯´":6617,"èµĲæķĻ":6618,"éĢĥçĶŁ":6619,"å¤ªå®Īçİĭ":6620,"èµıä¸īåĨĽ":6621,"è¯Īä¹Ł":6622,"èĶ¡æ°ı":6623,"çĶĺå¤«äºº":6624,"ä½ķä¸įæĹ©éĻį":6625,"çĻ»åŁİ":6626,"ä¾ĿæĹ§":6627,"æĹ§èĩ£":6628,"ä»¤äººåĵ¨æİ¢":6629,"çĲĨä¼ļ":6630,"æĥħæĦ¿":6631,"èµ´ä¼ļ":6632,"èµ´å®´":6633,"èµ´æ´Ľéĺ³":6634,"æĭĽåĨĽ":6635,"åĩºåŁİå¤ĸ":6636,"ä¹ĭäººä¹Ł":6637,"å®Ĺåħļ":6638,"å®ĹåºĻ":6639,"éľ¸ä¸ļ":6640,"åħ¥åŁİåİ»":6641,"æĴĳ":6642,"æľ±å¼Ĥ":6643,"æľ±çģµ":6644,"åĸĬå£°å¤§èµ·":6645,"ä¸įè§ģäºĨ":6646,"æ±ľæĽ°":6647,"ä¹¾æĽ°":6648,"æľºè°ĭ":6649,"åį§çĹħ":6650,"æĪªæĸŃ":6651,"ç³ľå¤«äºº":6652,"ç¥Ńç¥Ģ":6653,"èĴĭèĪĴ":6654,"Ġç¬¬ä¸ĥ":6655,"Ġç¬¬åħŃ":6656,"æįīä½ı":6657,"è°ĥæĭ¨":6658,"çĤ¹åĨĽ":6659,"çłįæŃ»":6660,"èĮĥæĽ°":6661,"ä¼¯ç¬¦":6662,"éª¤éĽ¨":6663,"æį®å®Ī":6664,"æ¡ĵèĮĥ":6665,"åħĦå¼ŁäºĮäºº":6666,"èªĵåĲĮçĶŁæŃ»":6667,"åĪĹäºİ":6668,"çĳģæĽ°":6669,"æĮºæŀªåĩºé©¬":6670,"æĮºæŀªè·ĥé©¬":6671,"åŃĿçĽ´":6672,"åĳĺå°Ĩ":6673,"æĻºè°ĭ":6674,"çº¢å¿ĥ":6675,"ç¢ĳ":6676,"åºŁç«ĭ":6677,"æ¢ģç»ª":6678,"åĨĻè¡¨":6679,"åħ¬åŃĻåº·":6680,"ä¸īè·¯åħµ":6681,"æļĤæŃĩ":6682,"æİĮæı¡":6683,"åĤįå²¸":6684,"æľ¬éĥ¨åħµ":6685,"ç»Ĩä½ľæİ¢çŁ¥":6686,"æĭĨä¹¦":6687,"ä¸įè¶³ä¸º":6688,"èĥ¡çıŃ":6689,"ç´§å®Ī":6690,"æŁ´èįī":6691,"å¾ĢæĿ¥åĨ²çªģ":6692,"è°¡æĽ°":6693,"äºĶåįģåĲĪ":6694,"åĨįä¸īåĬĿ":6695,"ãĢĭ,":6696,"å·´ä¸ĺ":6697,"æĭįé©¬èĪŀåĪĢ":6698,"æĦĪåĬł":6699,"é£ŀæĬ¥æĽ¹æĵį":6700,"è¯»ä¹¦":6701,"è¯±æķĮ":6702,"èĻŀç¿»":6703,"è¿ģéĥ½":6704,"éĢĤæĿ¥":6705,"åĽ½å¤ªæĽ°":6706,"ä½ķè¶³ä¸º":6707,"ä½ķè¶³éģĵ":6708,"æĺĤçĦ¶":6709,"çģ¯çģ«":6710,"åĢ¾å¿ĥ":6711,"æģ°å¥½":6712,"äºĨä¸ĢæĥĬ":6713,"å¼ĺåĨľ":6714,"æĥ¶æģĲ":6715,"ä¸ºåīįéĥ¨åħĪéĶĭ":6716,"æ¶ªåħ³":6717,"æģ¢å¤į":6718,"é¼łè¾Ī":6719,"é¦Ĩé©¿ä¸Ń":6720,"ä¼Ĺè°ĭå£«åķĨè®®":6721,"æĮĳæĪĺ":6722,"åĹŁåı¹":6723,"ä¹ĭéģĵä¹Ł":6724,"ä»¥èĩ´å¦ĤæŃ¤":6725,"å±±åĥ»å°ıè·¯":6726,"çĸ²åĽ°":6727,"çĺ´":6728,"æĹ±è·¯":6729,"å£ķè¾¹":6730,"é¼İè¶³":6731,"æ¬¢åĸľ":6732,"çľĭçľĭèµ¶ä¸Ĭ":6733,"åĶ¤åħ¥éĹ®ä¹ĭ":6734,"åĨĽä»¤çĬ¶":6735,"åĢĺæľīçĸı":6736,"æķ´é¡¿åĨĽé©¬":6737,"åĩĽåĩĽ":6738,"æŃ»ä¸įè¾ŀ":6739,"åĴ¬çīĻ":6740,"ç«¥åŃĲæĽ°":6741,"çĭĤé£İå¤§ä½ľ":6742,"ç£¨":6743,"æĩ¦å¼±":6744,"æīĭèµ·åĪĢèĲ½":6745,"æºĥæķ£":6746,"åĭĥçĦ¶å¤§æĢĴ":6747,"ä¼ºåĢĻ":6748,"ä»¥éŀŃæĮĩ":6749,"å°ĺå¤´å¤§èµ·":6750,"éķ¿é©±å¤§è¿Ľ":6751,"ç¢§çľ¼":6752,"éĵľéĽĢåı°":6753,"æ¬łèº«":6754,"åĴ½åĸī":6755,"åĲĳå¯¼å®ĺ":6756,"çĬ¬é©¬ä¹ĭåĬ³":6757,"åĩºçıŃå¥ıæĽ°":6758,"æĹĹä¸Ĭå¤§ä¹¦":6759,"æĽ´å¾ħä½ķæĹ¶":6760,"æªĢæºª":6761,"æĭĨå°ģè§Ĩä¹ĭ":6762,"æĬ±å¤´é¼łçªľ":6763,"éĦĤçĦķ":6764,"æĬĸæĵŀ":6765,"çį":6766,"ç¨Ģ":6767,"Ġå§ľç»´":6768,"İå²":6769,"åıł":6770,"ä»¬":6771,"ä¹ĭåĨĽ":6772,"ä¹ĭæĢ¥":6773,"ä¹ĭåĽ´":6774,"ä¹ĭåį±":6775,"ä¹ĭä¸ļ":6776,"æľ½":6777,"æľĭ":6778,"ä¸įè¨Ģ":6779,"ä¸įåĲĮ":6780,"ä¸įåºĶ":6781,"ä¸įèµ¶":6782,"ä¸įçĸĳ":6783,"ä¸įå¼ĥ":6784,"ä¸įåĨ³":6785,"ä¸įä¸īåĲĪ":6786,"åįµ":6787,"å®Ļ":6788,"æĹº":6789,"æŃ¹":6790,"åĪ®":6791,"äººèĭ¥":6792,"äººçŃī":6793,"è¯¬":6794,"è¯²":6795,"è¯ģ":6796,"åħµäºİ":6797,"åħµå±¯":6798,"åħµç²¾":6799,"åħµå¾®":6800,"åħµäºĶä¸ĩ":6801,"æķ¦":6802,"èĩŃ":6803,"å¤§ä»»":6804,"å¤§éĥ½çĿ£":6805,"å¤§æģ©":6806,"å¤§ç¥¸":6807,"å¤§å¦Ļ":6808,"å¤§éĨī":6809,"ä¸Ģå¹´":6810,"ä¸Ģè¾¹":6811,"ä¸Ģè·ĥ":6812,"å°ĨåıĬ":6813,"èµĤ":6814,"å·«":6815,"åĩı":6816,"æ±¡":6817,"æľīè¨Ģ":6818,"æľīä½Ļ":6819,"æĵįå¿ħ":6820,"æĵįåĳ½":6821,"æĵįå¤§æĢĴæĽ°":6822,"æŃ¤å¥³":6823,"åİĦ":6824,"ç»¦":6825,"éģ½":6826,"ä¸ĭä¹¦":6827,"ä¸ĭè½¦":6828,"äºİä¸ľ":6829,"åľĥ":6830,"ä¸ºåĲĪ":6831,"ä¸ºå·¦åı³":6832,"ä¸ºéĥ½çĿ£":6833,"ä¸ºåıĭ":6834,"è§ģäºĳéķ¿":6835,"è§ģå¼łé£ŀ":6836,"èĢĮäºĭ":6837,"èĢĮè¿ĩ":6838,"èĢĮå¤į":6839,"èĢĮéĹ®æĽ°":6840,"è°Ĳ":6841,"åĬ²":6842,"ä½ķæĿ¥":6843,"ä½ķè®¡":6844,"ä½ķå¤ªåĲİ":6845,"åĩºä¸Ģ":6846,"åĲ¾å°Ĩ":6847,"åĲ¾ä¸º":6848,"åĲ¾æŃ£æ¬²":6849,"åı¯çĶ¨":6850,"åı¯å°±":6851,"è´®":6852,"è´²":6853,"è´¿":6854,"å¯Ĳ":6855,"åĲİæĿ¥":6856,"åĲİå¿ħ":6857,"ä»¥æŃ£":6858,"ä»¥éħĴé£Ł":6859,"ä»¥çĽ®è§Ĩ":6860,"æĺİè¯ı":6861,"å¥ł":6862,"ä¸ĬæĿ¥":6863,"ä¸Ĭæĸ¹":6864,"ä»Ĭä½ķ":6865,"ä»Ĭå¾Ĺ":6866,"ä»Ĭè¢«":6867,"ä»Ĭä¸ŀçĽ¸":6868,"ä»ĬèĻ½":6869,"ä»ĬèľĢåħµ":6870,"ä»Ĭè§Ĥ":6871,"ä»ĬåĪĺå¤ĩ":6872,"ä¸İè´¼":6873,"ä¸İæŁĲ":6874,"ä¸İå¼Ł":6875,"å¼łåį«":6876,"å¼łéĤĪ":6877,"åħ¶åĲį":6878,"çİĦå¾·éĹ»è¨Ģ":6879,"ä»¤å·¦åı³":6880,"ä¹ĥå¤§":6881,"ä¹ĥä¸Ģ":6882,"ä¹ĥä»¥":6883,"è¾ĳ":6884,"èĩªç«ĭ":6885,"èĩªå¼ķä¸ĢåĨĽ":6886,"èĩªæģĥ":6887,"äºĮèĢħ":6888,"äºĮçĻ¾":6889,"åĽŀæ±Łä¸ľ":6890,"åĽŀæľ¬å¯¨":6891,"åŃĶæĺİå¤§ç¬ĳæĽ°":6892,"éĿł":6893,"åľ¨å±±ä¸Ĭ":6894,"æĥļ":6895,"åħ¥åĲ´":6896,"åħ¥éĺµ":6897,"çĽ¸åĽ½":6898,"çĽ¸åĪ«":6899,"çĽ¸ä¼¼":6900,"çĽ¸éĢ¼":6901,"æĹłä¸»":6902,"æĿĢæ±Ŀ":6903,"æĿĢæ°Ķ":6904,"æģ¸":6905,"åħĪä½¿":6906,"åħĪåıĳ":6907,"ä¸īæ¬¡":6908,"ä¸»å¼ł":6909,"ä¸»æ¯į":6910,"è¯´è¯Ŀ":6911,"è¯´å®¢":6912,"æĪĳèĩª":6913,"æĪĳäºĮäºº":6914,"åīįæľī":6915,"åīįè¨Ģ":6916,"åīįåĪ°":6917,"åħ³ç´¢":6918,"èĩ³æŃ»":6919,"é£Ĳ":6920,"åĪ°å¯¨":6921,"çŁ¥æŃ¤äºĭ":6922,"å¤©æĦı":6923,"åįģåĢį":6924,"çļĨè¨Ģ":6925,"å¿ħçŁ£":6926,"å¿ħèĥ½":6927,"å¿ħè¢«":6928,"å¿ħä¸įèĤ¯":6929,"æ±Ŀè¨Ģ":6930,"æ±Ŀä¸»":6931,"æ±Ŀæķ¢":6932,"å½ĵå¤´":6933,"éŃıåħ¬":6934,"åıĪä½ķ":6935,"åıĪå¾Ĺ":6936,"åıĪå·®":6937,"åĪĺåŃ£çİī":6938,"åıªåī©":6939,"èĭ¥æŃ¤":6940,"èĭ¥çŁ¥":6941,"å±±å¤´":6942,"ä¼Ĺå¿ĥ":6943,"æ¬²æĿĢä¹ĭ":6944,"åį´æīį":6945,"æŃ£å¥½":6946,"æŃ£æħĮ":6947,"ä½¿å¾Ģ":6948,"çİĭåĪĺ":6949,"çİĭæĸ¹":6950,"åŃĻå°ĨåĨĽ":6951,"åŃĻä»²":6952,"åŃĻéŁ¶":6953,"éģĤè¯·":6954,"éģĤæĭľ":6955,"éģĤä¸įåĲ¬":6956,"å¿ĥå¦Ĥ":6957,"å¿ĥæĥĬ":6958,"éĹ®åŃĶæĺİ":6959,"åıĸè·¯":6960,"åĲ´æĬ¼":6961,"ä¿º":6962,"å°ĨåĨĽé©¬":6963,"éªĨ":6964,"éªı":6965,"ä¾¿æĿ¥":6966,"åĳ½å°Ĩ":6967,"ä¹¦æ¯ķ":6968,"ä»İåħ¶è®¡":6969,"éĤ¢":6970,"éĤµ":6971,"æľªèĥ½":6972,"æľªä¿¡":6973,"æĻ¨":6974,"æĻ´":6975,"å¸ĥæĪĲéĺµåĬ¿":6976,"çĿĽ":6977,"åįĹå°ĨåĨĽ":6978,"éĹ»æĬ¥":6979,"èĥ½è¨Ģ":6980,"èĥ½çĶ¨åħµ":6981,"åĽĽèµ·":6982,"æ¸Ķ":6983,"åį³ä»¥":6984,"åį³ä¾¿":6985,"åį³åĶ¤":6986,"å¿½åĵ¨é©¬":6987,"ä¸¤è¡Į":6988,"ä¸¤æŀĿ":6989,"æ±Łå²¸":6990,"äºĶæĹ¥":6991,"äºĶåĪĨ":6992,"äºĶå¹´":6993,"äºĶæľĪ":6994,"äºĶåįģä½Ļ":6995,"éĢĢä¹ĭ":6996,"éĢĢåĲİ":6997,"éĢĢæķĮ":6998,"æľĽä¹ŀ":6999,"æµ´":7000,"ä¸ĩéĩĮ":7001,"æ±īçĽ¸":7002,"æ±īå¸Ŀ":7003,"æķħä»¤":7004,"å¤ªå¸¸":7005,"ç²²":7006,"ç§£":7007,"æĸ¹çŁ¥":7008,"éĻįæĽ¹":7009,"éĻįéŃı":7010,"å°ıæł¡":7011,"æĩĬ":7012,"çĪ¬":7013,"è¥¿åŁİ":7014,"è¥¿å±±":7015,"ä½Ļåħļ":7016,"é»Ħéĩĳ":7017,"é»Ħå¥İ":7018,"æĥĬæĥ§":7019,"æĥĬè§ī":7020,"æĥĬéªĩ":7021,"ç¦½":7022,"Ġåį´è¯´åħĪä¸»":7023,"è´¥åĽŀ":7024,"è´¥æ®ĭ":7025,"äº¦å¼ķåħµ":7026,"åĲ¬äºĨ":7027,"æĩ¿å¥ıæĽ°":7028,"è¢«å®³":7029,"ç½Ķ":7030,"ä½ıäºĨ":7031,"å¸ĿåĲİ":7032,"å¸Ŀä¸İ":7033,"å¸Ŀçİĭ":7034,"æĢĴçĽ®":7035,"å·¦åĨĽ":7036,"éĶ£":7037,"ä¸įåı¯å¤±":7038,"åĲįå£«":7039,"è¢ģåħ¬è·¯":7040,"èº«ç©¿":7041,"åĲĮèĩ³":7042,"åĲĮçĽŁ":7043,"ä¼ıåľ¨":7044,"ä¼ıéģĵ":7045,"ä¼ıçļĩåĲİ":7046,"æķĳèµ·":7047,"æŃ¦åŁİ":7048,"åĳ¨åħ¬çĳ¾":7049,"åı³åĨĽ":7050,"å¹´èĢģ":7051,"å®¶ä¸Ń":7052,"å®¶çľ·":7053,"ä½ľè´º":7054,"åĪĢæīĭ":7055,"å¹¶é©¬":7056,"çĲ³":7057,"å¤´æĪ´":7058,"éľİ":7059,"è°ĭæĿĢ":7060,"æļĩ":7061,"åĬ¿åŃ¤":7062,"åĬ¿ç©·":7063,"éĻĪç¾¤":7064,"æĿİèĥľ":7065,"æĿİæŃĨ":7066,"çĮĸ":7067,"è°ĵä¹ĭæĽ°":7068,"éĩįå¾ħ":7069,"åĳĬä¹ĭ":7070,"åĳĬåħį":7071,"æĹ©å·²":7072,"æĶ¾åħ¥":7073,"æİ¥è¿ŀ":7074,"ä»ĸæĦı":7075,"åķĸ":7076,"åıĬèĩ³":7077,"çĪ¶åħĦ":7078,"åĨįæĿ¥":7079,"è¿ŀäºº":7080,"è¿ŀçİ¯":7081,"æĤł":7082,"ä¹ĺä¹ĭ":7083,"å°ļå®¹":7084,"åĬŁåĲį":7085,"å¥ıçŁ¥":7086,"éĴĵ":7087,"è¯¸èĳĽç»ª":7088,"è¯¸èĳĽçŀ»":7089,"åıįè¦Ĩ":7090,"æľ¬æĹł":7091,"æľ¬éĺµ":7092,"æ®Ĩ":7093,"å¦Ĥä½ķå¾Ĺ":7094,"å¦Ĥä½ķèĤ¯":7095,"æĿ¨æŁı":7096,"æĶ¶äºĨ":7097,"æĶ¶èģļ":7098,"åĽ¾çŁ£":7099,"éĩĳåŁİ":7100,"éĩĳéĵ¶":7101,"çķĻäºİ":7102,"æĵĴäºĨ":7103,"åŃĹå¾·":7104,"éĥŃå¸¸":7105,"æ¶£":7106,"çļĩåŃĲ":7107,"åı¸é©¬æĩ¿æĽ°":7108,"è¿ľæ¶ī":7109,"å¼ĥçĶ²":7110,"åĴİ":7111,"åĵŃå£°":7112,"æ¨µ":7113,"èħĲ":7114,"èħĳ":7115,"å¯ĨæĬ¥":7116,"å¯Ĩè°ĵ":7117,"å¯Ĩå®¤":7118,"è¾ŀåĩº":7119,"æ°ĶåĬĽ":7120,"åħ«ä¸ĩ":7121,"åħ«éĺµ":7122,"çĮ®äºİ":7123,"æıĲèµ·":7124,"æıĲåīĳ":7125,"çĻ½è¢į":7126,"æ²³ä¸ľ":7127,"æ²³è¾¹":7128,"å¥½æĦı":7129,"åĿļæĽ°":7130,"åĿļæī§":7131,"è¯ıåĳ½":7132,"æµģè¨Ģ":7133,"æİ¢å¾Ĺ":7134,"å®ŀæ¬²":7135,"æ¢ħ":7136,"æ±Ĥä¹ĭ":7137,"åĪ«æĿ¥":7138,"ä¹Ĳåĺī":7139,"èĻİè¸ŀ":7140,"åĬ©ä¹ĭ":7141,"ä¸¾åĪĢ":7142,"ä¸¾åĬ¨":7143,"ä¸ĸéĹ´":7144,"åŃ¤æĦı":7145,"å¤ºåħ¶":7146,"ä¿Ŀé©¾":7147,"ç¥ŀä»Ļ":7148,"å¾ģè¥¿":7149,"åľŁåŁİ":7150,"åı¬ä¹ĭ":7151,"ä¾įèĩ£":7152,"æ¸¡è¿ĩ":7153,"èĮ«":7154,"é¸©":7155,"é¸¿":7156,"åħŃå¹´":7157,"å¥³å©¿":7158,"åı±ä¹ĭæĽ°":7159,"å¼ĵå¼¦":7160,"æŃ¤äººä¹ĥ":7161,"èµĲçĪµ":7162,"ç»ĵèĲ¥":7163,"çĶĺéľ²":7164,"ä½ķä¸įæĹ©":7165,"çıŃéĥ¨":7166,"ä¹Ŀæ³ī":7167,"çĻ»åĿĽ":7168,"ä¾Ŀä»¤":7169,"ä¾Ŀè®¡èĢĮè¡Į":7170,"ä½ķæķħå¦ĤæŃ¤":7171,"ä¿±åĲĦ":7172,"çīĽè¾ħ":7173,"åŃŁèİ·æĽ°":7174,"æī§è¿·":7175,"æĭĽéĻį":7176,"äºĮåįģåıª":7177,"äºĮåįģåĽĽ":7178,"æĮºçŁĽ":7179,"åĬĿæĽ°":7180,"æĮģä¹¦":7181,"çģµå¸Ŀ":7182,"çģŃåħ¶":7183,"ç»Īæĺ¯":7184,"åĭĴä½ıé©¬":7185,"å«Į":7186,"äºīåħĪ":7187,"éĻ¤å®³":7188,"Ġç¬¬ä¹Ŀ":7189,"Ġç¬¬äºĶåįģ":7190,"Ġç¬¬ä¸īåįģ":7191,"è°ĥåħµ":7192,"åĨĢåŁİ":7193,"å¥ĭåĭĩ":7194,"å´İå²":7195,"æĦŁåħ¶":7196,"äºĶåįĥåĨĽ":7197,"åı¤åŁİ":7198,"éļıåĲİæİ©æĿĢ":7199,"éĵģè½¦":7200,"éĵģç¬¼":7201,"éĵģæ¡¶":7202,"ä¼¯å¥¢":7203,"éģĹåĳ½":7204,"éģĹä¹¦":7205,"åħĦå¼Łä¸īäºº":7206,"åĪĹæŁ³åŁİ":7207,"å¥¸ç»Ĩ":7208,"çĹĽæģ¨":7209,"åįģéĩĮä¸ĭå¯¨":7210,"çº³éĻį":7211,"çĵĴæĽ°":7212,"èĸª":7213,"æĮīåĨĽæ³ķ":7214,"èĬĤéĴº":7215,"æ£Ģ":7216,"åıĮæīĭ":7217,"å¿½è§ģä¸Ģäºº":7218,"çİĩä¼Ĺ":7219,"éŁ¦æĻĥ":7220,"ä¸¤è·¯åĨĽ":7221,"ä¸ĵåĢĻ":7222,"å¯¿äºŃä¾¯":7223,"æŃĨæĽ°":7224,"æļĤéĢĢ":7225,"è´µäºº":7226,"ç®Ńå°Ħä¹ĭ":7227,"çĶ±æĺ¯":7228,"å¼ķä¸ĢæŀĿ":7229,"ä½¿èĢħæĽ°":7230,"çĸ¾çĹħ":7231,"è¥¿åĩīåħµ":7232,"éĹ®åħ¶å§ĵåĲį":7233,"ä¸įåı¯è½»åĬ¨":7234,"ä¹ĮæŀĹ":7235,"ä¹ĮæĪĪ":7236,"æ¢¦ä¸Ń":7237,"ç´§æĢ¥":7238,"ç´§è¦ģ":7239,"çĭ±åįĴ":7240,"çĭ±åĲı":7241,"ç¾¤èĩ£çļĨ":7242,"å®½å¿ĥ":7243,"ç«¯åĿĲäºİ":7244,"åĳĪä¸Ĭä¹¦ä¿¡":7245,"åĽŃä¸Ń":7246,"çİ¯çľ¼":7247,"ç¾½ç¿¼":7248,"éĻĪå®«æĽ°":7249,"æ³ķæŃ£æĽ°":7250,"è¿ģå»¶":7251,"å¤§å°ıå®ĺåĥļ":7252,"è®¡è®®æĽ°":7253,"ç§¯èįī":7254,"å®¾ä¸»":7255,"çľģæĤŁ":7256,"æŃ¤è®¡å¤§å¦Ļ":7257,"ä¾µçĬ¯":7258,"ä¸īåįģä½Ļäºº":7259,"ä¸īåįģä½ĻéĩĮ":7260,"è½®åĪĢ":7261,"éº¦åŁİ":7262,"æģ°å¾ħ":7263,"åħĸå·ŀåĪºåı²":7264,"æİ£åīĳ":7265,"å±ıå±±":7266,"é¹¿è§Ĵ":7267,"åħ³äºĳéķ¿ä¹Ł":7268,"åĢįéģĵ":7269,"è¯Īè´¥èĢĮèµ°":7270,"æī¯ä½ı":7271,"æ§Ĭ":7272,"å¼ķæľ¬éĥ¨åĨĽ":7273,"æľªæķ¢è½»":7274,"éĥŃåĺīæĽ°":7275,"éļĨä¸Ń":7276,"é»ĦæĺıæĹ¶åĪĨ":7277,"åįĪæĹ¶":7278,"æ¼«å±±":7279,"ä»¥æīĭæĮĩ":7280,"èĦĳæ¶Ĥ":7281,"åĲĥäºĨä¸ĢæĥĬ":7282,"å¤©èī²å·²":7283,"ç¥Ŀèŀį":7284,"çĬ¹è±«æľªåĨ³":7285,"å½Ńç¾ķ":7286,"åĶĩé½¿":7287,"èĤĿèĦĳæ¶Ĥ":7288,"å¼ĥåŁİèĢĮèµ°":7289,"Ġç¬¬ä¸ĢçĻ¾ä¸Ģ":7290,"åĽĽéĿ¢åĽ´å®ļ":7291,"å¼ĳåĲĽ":7292,"åĩºéĥŃè¿İæİ¥":7293,"å½ĵéĺ³éķ¿åĿĤ":7294,"èĽ®çİĭåŃŁèİ·":7295,"æ¡ĥåĽŃç»ĵä¹ī":7296,"ç»ĵä¸ºåħĦå¼Ł":7297,"åĲ´ä¸»åŃĻäº®":7298,"ä½ķæĥ§åĵī":7299,"æ´®æ°´":7300,"æľµæĢĿå¤§çİĭ":7301,"ä¸ºä¸¤æ®µ":7302,"ä»¥è¨ĢæĮĳ":7303,"éŁ¬çķ¥":7304,"å¾¡é©¾äº²å¾ģ":7305,"ä¹±åĨĽä¹ĭä¸Ń":7306,"åĪºæĸľéĩĮ":7307,"æģįæĥļ":7308,"äºĶä¸ĪåİŁ":7309,"åį³çļĩå¸Ŀä½į":7310,"ä½ķè¶³éģĵåĵī":7311,"ä¸Ĭæĸ¹è°·":7312,"åĲ´æĬ¼çĭ±":7313,"å´İå²ĸ":7314,"ä¹ĮæĪĪåĽ½":7315,"æĨ":7316,"ĠĠ":7317,"ĠæĽ¹":7318,"ĠäºĮäºº":7319,"Ġå¼łé£ŀ":7320,"ĠåĲİä¸»":7321,"ĠåħĪä¸»":7322,"Ķç»Ĩ":7323,"ä¸½":7324,"ãĢĤ)":7325,"å¤¤":7326,"ä»Ķç»Ĩ":7327,"ä¹ĭè·¯":7328,"ä¹ĭè®º":7329,"ä¹ĭä¾Ħ":7330,"ä¹ĭä¾§":7331,"ä¹ĭåŁºä¸ļ":7332,"æĿ¿":7333,"æĿĨ":7334,"ä¸įæĹ¶":7335,"ä¸įæ¬²":7336,"ä¸įéĹ®":7337,"ä¸įæŃ»":7338,"ä¸įè¡Į":7339,"ä¸įçŃī":7340,"ä¸įæķĮ":7341,"ä¸įå°±":7342,"ä¸įå¥½":7343,"ä¸įç§°":7344,"ä¸įåĴĮ":7345,"ä¸įå¿ĺ":7346,"ä¸įå½ĵä¹ĭ":7347,"ä¸įæµħ":7348,"ä¸įæµĭ":7349,"äººæĿ¥":7350,"äººèĢ¶":7351,"åĨĽçļĨ":7352,"åĨĽå·²":7353,"èĢĲ":7354,"åħµå®¶":7355,"åħµç¬¦":7356,"é©¹":7357,"æķĿ":7358,"å¤§æĿĥ":7359,"å¤§çĽ®":7360,"å¤§éĽ¾":7361,"å¤§æĤŁ":7362,"å¤§èµ¦":7363,"ä¸ĢèĢħ":7364,"ä¸ĢæľĿ":7365,"ä¸Ģéģį":7366,"ä¸Ģçīĩ":7367,"é©¬å»¶":7368,"å°Ĩå®ī":7369,"å°Ĩä¸ĭæĿ¥":7370,"çİ©":7371,"æĿ¥èĩ³":7372,"æĿ¥åĬ«":7373,"æľīä¸Ģäºº":7374,"æľīå¤ļå°ĳ":7375,"æľīä¸ĩå¤«":7376,"çĽĨ":7377,"æī£":7378,"æĵįä»¥":7379,"æĵįæ¬²":7380,"æĵįæĢĴ":7381,"æĵįæĢĴæĽ°":7382,"æŃ¤äºĮ":7383,"æŃ¤å¿ĥ":7384,"æŃ¤éĺµ":7385,"æŃ¤ä¿¡":7386,"ç»Ĭ":7387,"äºİä¸Ń":7388,"äºİåīį":7389,"äºİåĲ´":7390,"äºİåŁİå¤ĸ":7391,"äºİä¸Ńåıĸ":7392,"ä¸Ńä¹ĭ":7393,"ä¸Ńä¹¦":7394,"æĬ¬":7395,"ä¸ºæŃ¤":7396,"ä¸ºæīĢ":7397,"ä¸ºä¸ŀçĽ¸":7398,"çĶ¥":7399,"è§ģæĺ¯":7400,"è§ģå¸Ŀ":7401,"èĢĮä¸Ĭ":7402,"èĢĮè¿İ":7403,"è°Ħ":7404,"è°Ĭ":7405,"éĢĿ":7406,"ä½ķå¿§":7407,"å½©":7408,"åĲ¾å¿ħ":7409,"åĲ¾æĦ¿":7410,"åĲ¾ä»ĬæĹ¥":7411,"åĲ¾èªĵ":7412,"éĥģ":7413,"éĥĬ":7414,"ä¾®":7415,"åı¯ä¹İ":7416,"åı¯ä¿Ŀ":7417,"å¦«":7418,"åĳµ":7419,"ä»¥åĲİ":7420,"ä»¥æŃ»":7421,"ä»¥è¡¨":7422,"ä»¥ä¿Ŀ":7423,"ä»¥åĪ©å®³":7424,"ä»¥éĢ¸":7425,"æĺİä¸»":7426,"å¥´":7427,"å¥ĳ":7428,"æĽ¹èĲ¥":7429,"åħ¬ä»Ĭ":7430,"ä¸Ĭäºº":7431,"ä¸Ĭå¤©":7432,"å±Ĥ":7433,"ä»Ĭå¥ī":7434,"ä»Ĭå¤©ä¸ĭ":7435,"ä¸İå§ľç»´":7436,"ä¸İä¼ĹåķĨè®®":7437,"å¼łæĽ°":7438,"å¼łæĤĮ":7439,"å¼łé¡Ĺ":7440,"æĭ´":7441,"åİ»ä¹Ł":7442,"åİ»åĲİ":7443,"åİ»æĹ¶":7444,"åħ¶æŃ»":7445,"åħ¶æīį":7446,"åħ¶å¿Ĺ":7447,"çİĦå¾·ä»İä¹ĭ":7448,"ä»¤éŃıå»¶":7449,"åŃĶç§Ģ":7450,"ä¹ĥçķĻ":7451,"èĩªå¤ĸ":7452,"èĩªé¢Ĩåħµ":7453,"èĩªç¼ļ":7454,"åºķ":7455,"äºĮå¹´":7456,"äºĮæľĪ":7457,"äºĮå¯¸":7458,"åĽŀåŁİ":7459,"åŃĶæĺİè§ģ":7460,"åŃĶæĺİè§Ĩä¹ĭ":7461,"éĿĵ":7462,"å¼ķäºĮåįĥ":7463,"å¦Ĥåħ¥":7464,"å¦Ĥå±±":7465,"å¦ĤéĽ·":7466,"åľ¨è®¸éĥ½":7467,"åľ¨ä¾§":7468,"æĺ¯ä½ķäºº":7469,"åħ¥æ±īä¸Ń":7470,"çĽ¸åĳĬ":7471,"çĽ¸ç¦»":7472,"çĽ¸åĬĿ":7473,"çĽ¸äºī":7474,"çĽ¸è§ĳ":7475,"å¾Ĺä¹ĭ":7476,"å¾Ĺåĩº":7477,"å¾Ĺä»¤":7478,"æĹłæ°´":7479,"æĹłå¼Ĥ":7480,"æĹłäººä¹ĭ":7481,"æĹłç«¯":7482,"æĹłèĻŀ":7483,"æĿĢè´¼":7484,"æĿĢå®³":7485,"æĿĢæĿ¡":7486,"æİĢ":7487,"åħĪå¼ķ":7488,"åħĪéĢĢ":7489,"åħĪä»¤äºº":7490,"ä¸»æĦı":7491,"æĪĳä¸º":7492,"æĪĳä¹ĥ":7493,"æĪĳä¸»":7494,"åīįèµ´":7495,"åħ³åĨħ":7496,"åħ³åı£":7497,"åħ³ç¾½":7498,"èĩ³å¤ľ":7499,"é£ı":7500,"åŃĲæĺİ":7501,"åĪ°å®¶":7502,"çŁ¥éģĵ":7503,"çŁ¥ä¸Ńè®¡":7504,"å¤©ä½¿":7505,"çļĨå°ģ":7506,"åĸĺ":7507,"å¿ħåĩº":7508,"æ±Ŀä»Ĭ":7509,"æ±Ŀæ¬²":7510,"æ±Ŀåį´":7511,"æ±Ŀå¼Ł":7512,"å½ĵçĶ¨ä½ķ":7513,"åıĪäºİ":7514,"åıĪåĳ½":7515,"å·²åĽŀ":7516,"åıªä»Ĭ":7517,"åıªé¡»":7518,"åıªæľīä¸Ģ":7519,"èĭ¥è§ģ":7520,"èĭ¥ä½¿":7521,"èĭ¥èĤ¯":7522,"å±±åı£":7523,"å±±å³ª":7524,"æĬ¥ä¸İ":7525,"æ¬²è§ģ":7526,"æ¬²è¡Į":7527,"æ¬²å¾Ģ":7528,"æ¬²åħ´åħµ":7529,"åį´åıĪ":7530,"æ¯¡":7531,"æŃ£åįĹ":7532,"æŃ£çĽĽ":7533,"æĪĺæľī":7534,"è·¯ä¸Ĭ":7535,"ç¥ł":7536,"æ³¨":7537,"æ³¼":7538,"æ³Ľ":7539,"å®īèĳ¬":7540,"å®īæĬļ":7541,"éģĤéģ£":7542,"éģĤçķĻ":7543,"éģĤä¸ĭä»¤":7544,"å¿ĥä¸ĭ":7545,"å¿ĥæĢĢ":7546,"é¢Ģ":7547,"é¢ĳ":7548,"é¢ł":7549,"åıĸå·Ŀ":7550,"éļ¶":7551,"æŃ»ç½ª":7552,"çĦ¶ä¹Ł":7553,"èĢħç«ĭæĸ©":7554,"è¡ĮäºĨ":7555,"å®ĪèįĨå·ŀ":7556,"ä¿Ħ":7557,"ä¿Ł":7558,"æĽ¹æĵįä¹Ł":7559,"æĽ¹æĵįæīĢ":7560,"è®¡å°Ĩå®ī":7561,"æĮŀ":7562,"æŀ£":7563,"éªĺ":7564,"ä¾¿åĩº":7565,"ä¾¿ä¸İ":7566,"çģ¾":7567,"åĪĨå®¾ä¸»":7568,"ä¹¦éĻ¢":7569,"å£«æ°ĳ":7570,"ä»İéªĳ":7571,"æľªåĪ°":7572,"æľªæģ¯":7573,"èĤº":7574,"èĤł":7575,"çĿ¹":7576,"çĳ¶":7577,"æĿĥä»İä¹ĭ":7578,"æĢ¥æĿ¥":7579,"æĢ¥å¾ħ":7580,"æĢ¥åĽŀé©¬":7581,"éĿ¢éĿ¢":7582,"èµ°çŁ³":7583,"åĽĽæĹ¶":7584,"åĽĽåįģä¸ĩ":7585,"çĻ¾æĹ¥":7586,"çĻ¾éªĳ":7587,"åį³ä»Ĭ":7588,"éĥ½åĪ°":7589,"æ±Łæ²¹":7590,"æ±Łæ¹ĸ":7591,"äºĶå°Ĩ":7592,"æŁĦ":7593,"æŁĳ":7594,"å¹³å®ļ":7595,"æľĽä¸ľ":7596,"æľĽä¸ŀçĽ¸":7597,"ä¸ĩæŃ»":7598,"ä¸ĩæ°ĳ":7599,"ä¸ĩåı¤":7600,"ä¸ĩå²ģ":7601,"ä¸ĩæĹłä¸Ģ":7602,"ä¸ĩæŃ»ä¸įè¾ŀ":7603,"æ±īä¸Ĭ":7604,"æ±īè´¼":7605,"æ±īåįĩ":7606,"åľ°åĬ¿":7607,"æķħä¹Ł":7608,"æķħä¸»":7609,"æĸ¹åĪ°":7610,"æĸ¹éĢĢ":7611,"æĸ¹èĭı":7612,"éĻįæĵį":7613,"å°ıä¸»äºº":7614,"æĥĬéĹ®æĽ°":7615,"è®®éĥİ":7616,"è®®è®º":7617,"Ġåį´è¯´åħ³åħ¬":7618,"Ġåį´è¯´æĽ¹çľŁ":7619,"æ·Ħ":7620,"åĲķåħ¬":7621,"è¯·éĹ®":7622,"è¯·éĻį":7623,"è¯·ä¸»åħ¬":7624,"ä¸Ķåĭ¿":7625,"é¢Ĩä¸īåįĥåħµ":7626,"ä¸įåı¯ä¹ħ":7627,"å¾ħä»ĸ":7628,"å¾ħåĬ³":7629,"å¾ĲåĽ¾":7630,"è¢ģæľ¬åĪĿ":7631,"æķĻä½ł":7632,"æħ·":7633,"éħ¿":7634,"éģĵä¸Ĭ":7635,"ç«ĭä¹ĭ":7636,"ä¼ıç½ª":7637,"åºĶå¼¦":7638,"åºĶå¤ĸåĲĪ":7639,"æķĳåĨĽ":7640,"æķĳçģ«":7641,"æŃ¦éĥ½":7642,"æĪĲçŁ£":7643,"æĪĲè´¥":7644,"æŁĲéĹ»":7645,"æķĮä¹ĭ":7646,"æĭľåıĹ":7647,"å®ļæĽ°":7648,"çģ«ä¹ĭçī©":7649,"çģ«çĦ°":7650,"è¿ĩæ±Ł":7651,"åįĥç§ĭ":7652,"éĩĮåºĶå¤ĸåĲĪ":7653,"ç¾²":7654,"å®¶åħĦ":7655,"å¸ĪæĽ°":7656,"å¼ķåħµåĩº":7657,"å¼ķåħµèĩ³":7658,"å¼ķåħµåĩºåŁİ":7659,"å¼ķåħµæĿĢåĩº":7660,"åı£ç§°":7661,"æĶ»åħ¶":7662,"å¹¶èµ·":7663,"é«ĺæĺİ":7664,"é«ĺåı«æĽ°":7665,"å¤´åĬŁ":7666,"äº²éļı":7667,"åĮĹå±±":7668,"åĮĹå°ĨåĨĽ":7669,"åĮĹå¾ģ":7670,"èµµç´¯":7671,"èµµæĺĤ":7672,"åĲĽåĳ½":7673,"èĪ¹å·²":7674,"èĪ¹å¤´ä¸Ĭ":7675,"è°ĭçķ¥":7676,"æļĸ":7677,"éĻĪè¯´":7678,"æĿİå¼Ĥ":7679,"æĿİæģ¢":7680,"çĶļå¤ļ":7681,"æįķ":7682,"çĮ¿":7683,"æ¡Į":7684,"éĩįåħµ":7685,"éĩįä¼¤":7686,"æĦ¿åĢŁ":7687,"æĹ©æľĽè§ģ":7688,"åıĳä»ĺ":7689,"æĶ¾ä¸ĭ":7690,"æıĸ":7691,"çĽ´åĩº":7692,"çĽ´è¨Ģ":7693,"çĽ´èµ¶åĪ°":7694,"é¥°":7695,"é¥µ":7696,"åıĹéĻį":7697,"åıĹè¯ı":7698,"ä¸įèĥ½è¨Ģ":7699,"åħ´æĽ°":7700,"åħ´éľ¸":7701,"æĤĦ":7702,"ä¹ĺæĹ¶":7703,"å¤įæľī":7704,"éªĳé©¬":7705,"é½ĳ":7706,"æĺŃçĥĪ":7707,"åĬŁåĬ³":7708,"è¶³å¤ĩ":7709,"è¶³æĻº":7710,"é¾Ħ":7711,"éħĴèī²":7712,"æłı":7713,"èģĬ":7714,"ä¹±åĨĽä¸Ń":7715,"ä¹ħè®¡":7716,"è¯¸èĳĽåŃĶæĺİ":7717,"è¦ģè¡Į":7718,"åįĵéĹ®":7719,"åĶ¤åĩº":7720,"ç¤¼çĽ¸å¾ħ":7721,"é¾ĻèĪŁ":7722,"é¾Ļåĩ¤":7723,"èĳ£åħģ":7724,"èĳ£å¤ªåĲİ":7725,"èĳ£åİ¥":7726,"æĹ¢èĩ³":7727,"æĹ¢å®ļ":7728,"æĿ¨ç»Ľ":7729,"æľĿä¸Ń":7730,"éĩĳçĶ²":7731,"éĩĳç¥İ":7732,"éĩĳçİ¯":7733,"éĩĳçĽĶ":7734,"éĩĳæĹĭ":7735,"åŃĻæĿĥæĽ°":7736,"å½¼åħµ":7737,"å§ľä¼¯çº¦":7738,"èĥĮä¹ī":7739,"äº¤åħµ":7740,"åł¤":7741,"éļ¾ä¿Ŀ":7742,"ç¼¢":7743,"ç¼Ŀ":7744,"éŁ©å¾·":7745,"éŁ©ä¿¡":7746,"éŁ©é¦¥":7747,"ä»ģå¾·":7748,"æŀªåĪĢ":7749,"éĢģåĩº":7750,"éĢģè¡Į":7751,"éĤĵäºĮäºº":7752,"æ³ķåº¦":7753,"è¿ľåİ»":7754,"é¡»çĶ¨":7755,"å¸¦çĶ²":7756,"æľĪä½Ļ":7757,"æ¨¡":7758,"è¿ĺèįĨå·ŀ":7759,"æ°Ķæķ°":7760,"å°ĳæĹ¶":7761,"ä¼łè¯´":7762,"ä¼łåĽ½":7763,"æĬĬåħ³":7764,"åįĬéĢĶ":7765,"è¢ģç»įæĽ°":7766,"æīĵåĲ¬":7767,"æīĵçł´":7768,"ä¸įçŁ¥ä½ķå¤Ħ":7769,"åºŀå£«åħĥ":7770,"åħ±åĽ¾":7771,"å®³æ°ĳ":7772,"ä¸įæķ¢æŃ£":7773,"ä¸įæķ¢è¿½èµ¶":7774,"ç¬¬ä¸ī":7775,"ç¬¬åĽĽ":7776,"å®ľæĹ©":7777,"æ·±æĺİ":7778,"åĪ«ä½ľ":7779,"çºµçĦ¶":7780,"åĨ³éĽĮéĽĦ":7781,"ä¹Ĳæ¯ħ":7782,"èĻİè´²":7783,"åĲĳæĹ¥":7784,"åĬ©æĪĳ":7785,"è®¾ä¸Ģ":7786,"æŃ¢ä¹ĭ":7787,"å®ģæĽ°":7788,"åı²æ¶£":7789,"åħĥç»į":7790,"å¨ģåĲį":7791,"éľĩåĬ¨":7792,"ç§°èĩ£":7793,"éĻĨæĬĹ":7794,"åĭĩåĬĽ":7795,"è£¸":7796,"è£Ķ":7797,"åºľåĲĽ":7798,"èĥĮåĲİä¸Ģäºº":7799,"æĸĻåĲ¾":7800,"ä¸´åį±":7801,"ä¸´æ·Ħ":7802,"åĸĿå·¦åı³":7803,"åĸĿéĩĩ":7804,"å¼ĵé©¬":7805,"ç²¾éĶĲ":7806,"æ¡¥è¾¹":7807,"å¯»è§ģ":7808,"èĶ¡éĺ³":7809,"ç¦»éĹ´":7810,"åħīç¦Ħ":7811,"è¥Ħæ±Ł":7812,"åĢĴç«ĸ":7813,"é¡ºæ°´":7814,"æ·®æĽ°":7815,"å®´ç½¢":7816,"çīĽæ¸ļ":7817,"ä»ĩäºº":7818,"çĽĽå¾·":7819,"æĥ§èī²":7820,"åįİå¤ı":7821,"çªģçģ«":7822,"çªģåĽ´":7823,"æī§ä¸ĭ":7824,"åĬ³èĭ¦":7825,"æ´ªç¦ı":7826,"ä¸Ģå£°åĵį":7827,"ä¸ĭé©¬æĿ¥":7828,"æķ¬æľį":7829,"å¦»æĽ°":7830,"åİ¿ä¸Ń":7831,"éľ¸æĽ°":7832,"æĮģåĪĢ":7833,"æĴŃ":7834,"å¤§äºĭåı¯":7835,"å¿½çĦ¶åĸĬå£°å¤§éľĩ":7836,"åŀ£":7837,"å¾¡åı²":7838,"åĥ®":7839,"ä¸įè§ģä¸Ģäºº":7840,"éĻ©éĺ»":7841,"ç¥ģå±±å¯¨":7842,"åħ·è¡¨":7843,"æĢ§æĢ¥":7844,"äºīéĶĭ":7845,"æĥ³èµ·":7846,"æµİçŁ£":7847,"è¡Ģè·¯":7848,"å¿ĥä¸Ńå¤§åĸľ":7849,"ç¥Ńä¹ĭ":7850,"ç¥Ńæ¯ķ":7851,"ç¥ŃéħĴ":7852,"èĴĭæµİ":7853,"Ġç¬¬äºĮåįģ":7854,"åŁİä¸Ĭä¹±ç®Ńå°Ħä¸ĭ":7855,"èªī":7856,"æ³£åĳĬæĽ°":7857,"å´ĩ":7858,"åĪĩå®ľ":7859,"åĽŀæĬ¥è¯´":7860,"ä»Ĺä¹ī":7861,"äºİé©¬åīį":7862,"äºĶåįĥäºº":7863,"æķ´åħµ":7864,"äºİåľ°ä¸ĭ":7865,"éļıåĲİä¾¿":7866,"è¿Łçĸĳ":7867,"ä¼¯çĪ¶":7868,"éģįè§Ĥ":7869,"æ¡ĵéĺ¶":7870,"èªĵä¸į":7871,"åĪĹæĪĲéĺµåĬ¿":7872,"çİ°ä»Ĭ":7873,"åĩłæĹ¶":7874,"åħ¥è§ģæĽ°":7875,"æºº":7876,"æ³ªä¸ĭ":7877,"éŃıä¸»æĽ¹èĬ³":7878,"åŁİä¸ĭåı«éĹ¨":7879,"åĤ¬ä¿ĥ":7880,"èĪįåĳ½":7881,"ä¸Ģå½ªäººé©¬":7882,"ä¹ĺåĬ¿è¿½æĿĢ":7883,"è¸Ĭ":7884,"åĨĻäºĨ":7885,"æĬ¥çŁ¥æĽ¹æĵį":7886,"ä¸īè·¯åĨĽé©¬":7887,"å©´":7888,"å©Ĩ":7889,"åįķéªĳ":7890,"åįķæĲ¦":7891,"æĻĭçİĭ":7892,"éģ¥è§ģ":7893,"å¦Ĥä¹ĭä½ķ":7894,"å¿ĥèħ¹å°Ĩ":7895,"é¢ĦåħĪ":7896,"çĲ¦æĽ°":7897,"ä½¿èĢħåĽŀæĬ¥":7898,"å¢ĥçķĮ":7899,"æĿĢåħ¥éĩįåĽ´":7900,"åľ£æĹ¨":7901,"è´ºæĽ°":7902,"è®¾å®´æ¬¾å¾ħ":7903,"ä¹Įæ¡ĵ":7904,"åħħæĽ°":7905,"æłĳæŀĹ":7906,"å®£åı¬":7907,"å®łæĽ°":7908,"æ¸Ńæ»¨":7909,"çķĮé¦ĸ":7910,"çŃĳåĿĽ":7911,"çģ«åħīä¸Ń":7912,"åĵĢçĹĽ":7913,"éĻĩä¸Ĭ":7914,"éĻĩåı³":7915,"æ°¸ç»ĵ":7916,"ãĢĭãĢĤ":7917,"æĿľçĲ¼":7918,"äºĮåįģä½Ļäºº":7919,"è¿Ŀä»¤":7920,"å¿ħä¸ºåĲİæĤ£":7921,"çħ®":7922,"çĽŁå¥½":7923,"æĺ¾åľ£":7924,"éĢĢåħµä¹ĭçŃĸ":7925,"æĭĶåīĳåľ¨æīĭ":7926,"å½¢å®¹":7927,"è°¨æħİ":7928,"åģıå°Ĩ":7929,"å¿«èĪ¹":7930,"çĦļçĥ§":7931,"æĽ²éĺ¿":7932,"æİ·æĿ¯":7933,"ä¸īåįģä½ĻåĲĪ":7934,"ä¸ºå¤§åı¸é©¬":7935,"æ²īéĩį":7936,"å°ļä¹¦ä»¤":7937,"æĿŁæīĭ":7938,"æĢİæķ¢":7939,"åħ¬åŃĲåĪĺçĲ¦":7940,"çŃµåīį":7941,"äºĨä¸Ģéģį":7942,"éĵ¶éĵł":7943,"æĿĤåľ¨":7944,"è¡Įä¸įæķ°éĩĮ":7945,"åį§é¾ĻåħĪçĶŁ":7946,"å®ĩå®Ļ":7947,"æĭ©æĹ¥":7948,"æĬĦåľ¨":7949,"ä¸īæĽ´æĹ¶åĪĨ":7950,"éĤ£éĩĮåİ»":7951,"çĩķçİĭ":7952,"åįľä¹ĭ":7953,"èĭıé£ŀ":7954,"ä¹ĭç½ªä¹Ł":7955,"çĿ¡çĿĢ":7956,"ç¡¬":7957,"ä¸Ģä¸ĩäºĶåįĥ":7958,"æĭľä¼ıäºİåľ°":7959,"ä½©åīĳ":7960,"æī«æ¸ħ":7961,"åĴ¨æĽ°":7962,"åĲĲè¡Ģ":7963,"å¼ķæķ°åįĥ":7964,"ä»°å¤©åı¹æĽ°":7965,"å¦ĸäºº":7966,"æĭĸåĪĢ":7967,"åĪĺæĻĶæĽ°":7968,"äº¤é©¬åıªä¸ĢåĲĪ":7969,"åħ«åįģä¸Ģå·ŀ":7970,"èĢ»ç¬ĳ":7971,"ä¸ºåĲİåºĶ":7972,"åĽŀå¤´è§Ĩä¹ĭ":7973,"å½ĵæŃ¤ä»»":7974,"åĪĨæĭ¨å·²å®ļ":7975,"åİĭæĥĬ":7976,"æĭ½èµ·":7977,"èĩªæĢĿæĽ°":7978,"é²įä¿¡":7979,"å¼ĦæĿĥ":7980,"ä¸ºä¹ĭå¥Īä½ķ":7981,"éªĩçĦ¶":7982,"æĽ´ä¸įæīĵè¯Ŀ":7983,"Ġç¬¬ä¸ĢçĻ¾éĽ¶":7984,"ç½®éħĴçĽ¸å¾ħ":7985,"å¼łè®©çŃī":7986,"éľįå³»":7987,"çĮ®è®¡æĽ°":7988,"è®¤å¾Ĺæĺ¯":7989,"éĹŃéĹ¨ä¸įåĩº":7990,"ç»¿è¢į":7991,"æĹłå¿§çŁ£":7992,"æ¯«æĹł":7993,"æŁĵçĹħ":7994,"åıĺèī²æĽ°":7995,"éº´ä¹ī":7996,"ç»³ç´¢":7997,"è´«éģĵ":7998,"çº¶å·¾ç¾½æīĩ":7999,"ä¸ĽæĿĤ":8000,"æŃ£èµ°ä¹ĭéĹ´":8001,"åĶ¾æīĭ":8002,"å¸¸å±±èµµåŃĲé¾Ļä¹Ł":8003,"æŃ£è®®éĹ´":8004,"æ°¸å®īå®«":8005,"éĬ®é©¾":8006,"ä¸įèĥ½çĽ¸é¡¾":8007,"è¡£å¸¦è¯ı":8008,"ä»°è§Ĥå¤©æĸĩ":8009,"åľ£äººäºĳ":8010,"æĺıç»Ŀäºİåľ°":8011,"ä¸įçĿ¦":8012,"ä¸ĭæĪĺä¹¦":8013,"åºĶå¤©é¡º":8014,"é«ĺéĺľå¤Ħ":8015,"åĢĺæľīçĸıèĻŀ":8016,"ä¸ºåĲĪåĲİ":8017,"ç§£éĻµ":8018,"æĩĬæĤĶ":8019,"éľİæĹ¶":8020,"åĪ«æĿ¥æĹłæģĻ":8021,"èĤĿèĦĳæ¶Ĥåľ°":8022,"ä¸įå½ĵä¹ĭåĭĩ":8023,"å¤§èµ¦å¤©ä¸ĭ":8024,"æľīä¸ĩå¤«ä¸įå½ĵä¹ĭåĭĩ":8025,"è®¡å°Ĩå®īåĩº":8026,"éĿ¢éĿ¢çĽ¸è§ĳ":8027,"ä¸ĩæĹłä¸Ģå¤±":8028,"è¶³æĻºå¤ļè°ĭ":8029,"¥éĺ³":8030,"±éĺ³":8031,"åª":8032,"åļ":8033,"èı":8034,"èł":8035,"Ġä¸Ģ":8036,"Ġæĸ¹":8037,"ĠèĤĥ":8038,"Ġèµµäºĳ":8039,"Ġè¢ģç»į":8040,"Ġé²ģèĤĥ":8041,"ĠæĽ¹ä¸ķ":8042,"Ġæĺ¯æĹ¥":8043,"Ĥç¬ĳ":8044,"ä¸Ļ":8045,"äº§":8046,"ä¹ĭåŃĻ":8047,"ä¹ĭåīĳ":8048,"ä¹ĭå¥³":8049,"ä¹ĭèĪĮ":8050,"æľŃ":8051,"ä¸įèĩª":8052,"ä¸įéĹ»":8053,"ä¸įå°½":8054,"ä¸įå¿ł":8055,"ä¸įæĦ¿":8056,"ä¸įæĹ©":8057,"ä¸įåıĳ":8058,"ä¸įè¦ģ":8059,"ä¸įçķĻ":8060,"ä¸įéļ¾":8061,"ä¸įè´Ł":8062,"ä¸įæģ¯":8063,"ä¸įéģ¿":8064,"ä¸įçĶ±":8065,"ä¸įæĶ¹":8066,"ä¸įçľģ":8067,"å¾Ļ":8068,"å¼¥":8069,"äººå¤ļ":8070,"äººæĥħ":8071,"åĨĽäºĭ":8072,"åĨĽæľº":8073,"åĽ¢":8074,"æķı":8075,"å¤§åĸĬ":8076,"å¤§ä¸¾":8077,"å¤§ä½į":8078,"å¤§é©±":8079,"å¤§å¿Ĺ":8080,"ä¸Ģè§ģ":8081,"ä¸Ģäºĭ":8082,"ä¸ĢåĲĳ":8083,"ä¸Ģå¥³":8084,"ä¸Ģçī©":8085,"ä¸Ģå¯¸":8086,"ä¸Ģåº§":8087,"ä¸Ģç¯ĩ":8088,"é©¬åĺ¶":8089,"å°ĨåĪ°":8090,"å°Ĩåħ³åħ¬":8091,"å°Ĩæ¬¡":8092,"å°Ĩå¤´":8093,"å°Ĩè®¡å°±":8094,"èµĽ":8095,"æĿ¥ä¹Ł":8096,"æĿ¥åĪº":8097,"æľīäººæĬ¥":8098,"æľīèĥĨ":8099,"æīĳ":8100,"æĵįä¹ĭ":8101,"æĵįæľī":8102,"æĵįå¼ķ":8103,"æĵįåħĪ":8104,"æĵįåıĪ":8105,"æĵįéĹ»ä¹ĭ":8106,"æŃ¤åĲ¾":8107,"æŃ¤è¡Į":8108,"æŃ¤æĦı":8109,"ç»¼":8110,"ä¸ĭæ°´":8111,"ä¸ĭèĲ½":8112,"ä¸ĭæ®¿":8113,"ä¸ĭæ³ª":8114,"ä¸ĭåĿĽ":8115,"äºİè¥¿":8116,"ä¸Ńå¸¸ä¾į":8117,"ä¸ºåī¯":8118,"ä¸ºå¤ªåŃĲ":8119,"ä¸ºè½¦éªĳå°ĨåĨĽ":8120,"è§ģä¸»åħ¬":8121,"è§ģéŃıå»¶":8122,"èĢĮåıĸ":8123,"èĢĮæľĽ":8124,"èĢĮæĪĲ":8125,"èĢĮæĬķ":8126,"èĢĮè¿ĺ":8127,"èĢĮæķ£":8128,"èĢĮåį§":8129,"è°¬":8130,"è°®":8131,"åĬ£":8132,"åĬĪ":8133,"ä½ķåľ°":8134,"ä½ķå¤ª":8135,"ä½ķæĻı":8136,"å¹Ķ":8137,"å½»":8138,"åĩºéĹ®":8139,"åĩºåºľ":8140,"åĲ¾å¸Ī":8141,"åĲ¾å®ģ":8142,"åĲ¾æģ¨":8143,"åĲ¾ç´łçŁ¥":8144,"åı¯ä¸İ":8145,"åı¯åİ»":8146,"åı¯åıĸ":8147,"åı¯åį³":8148,"åĳ³":8149,"åĳľ":8150,"åĲİæĽ°":8151,"åĲİæĤĶ":8152,"ä»¥ä¸Ĭ":8153,"ä»¥åĬ©":8154,"æĽ¹å®¶":8155,"æĽ¹éģµ":8156,"åħ¬ä»¥":8157,"åħ¬æĸĩ":8158,"åħ¬ä¸Ķ":8159,"ä¸Ĭæľī":8160,"åīģ":8161,"çļİ":8162,"ä»Ĭå°Ĩ":8163,"ä»Ĭä¸Ķ":8164,"ä»Ĭå½¼":8165,"ä»Ĭæŀľ":8166,"ä»Ĭå¹¸å¾Ĺ":8167,"ä¸İåħ¬":8168,"ä¸İæķĮ":8169,"ä¸İä½ł":8170,"ä¸İè¯¸å°Ĩ":8171,"ä¸İå¤ıä¾¯éľ¸":8172,"å¼łçº¦":8173,"å¼łéĹ¿":8174,"åİ»å®Ī":8175,"åħ¶ä¼Ĺ":8176,"åħ¶ä¾¿":8177,"åħ¶éĿ¢":8178,"åħ¶æĸĩ":8179,"åħ¶å¼Ł":8180,"åħ¶éĶĭ":8181,"åħ¶å°¸":8182,"åħ¶çķ¥æĽ°":8183,"åŁİåįĹ":8184,"ä»¤å¼Ł":8185,"ä¹ĥå°Ĩ":8186,"ä¹ĥåĩº":8187,"è¾ī":8188,"èĩªèĭ¥":8189,"èĩªè¡Į":8190,"èĩªå®¶":8191,"èĩªæıĲ":8192,"èĩªä»¥ä¸º":8193,"å£¶":8194,"äºĮåŁİ":8195,"äºĮåĲķ":8196,"äºĮä¹Ķ":8197,"åĽŀèµ°":8198,"åĽŀæ´Ľéĺ³":8199,"åŃĶæĺİåĶ¤":8200,"éĿ©":8201,"å¼ķåħ¥":8202,"å¼ķäºĶçĻ¾":8203,"å¼ķè´¥åĨĽ":8204,"å¼ķåįģæķ°éªĳ":8205,"è¨Ģæ¯ķ":8206,"å¦Ĥæĺ¯":8207,"åľ¨è¥¿":8208,"åľ¨åĨħ":8209,"åľ¨æľĿ":8210,"åľ¨å¾Ĳå·ŀ":8211,"æĺ¯æĽ¹æĵį":8212,"æĺ¯å¹´":8213,"åħ¥åİ»":8214,"åħ¥æ´Ľéĺ³":8215,"çĽ¸ä»İ":8216,"çĽ¸çĪ¶":8217,"çĽ¸éĢģ":8218,"çĽ¸å®³":8219,"å¾ĹæĽ¹æĵį":8220,"æĹłæľī":8221,"æĹłåŃ¦":8222,"æĿĢåĽŀ":8223,"æĿĢå¼Ģ":8224,"åħĪåĲĽ":8225,"ä¸īåĽŀ":8226,"ä¸īäºĭ":8227,"ä¸īä¸ĸ":8228,"ä¸īæĿ¡":8229,"è¯´åĩº":8230,"è¯´ä¸İ":8231,"è¯´è¯į":8232,"æĪĳåį´":8233,"æĪĳå¿ĥ":8234,"æĪĳäº¦":8235,"æĪĳåĵ¥åĵ¥":8236,"åīįå°ĨåĨĽ":8237,"åīįä¸ĭé©¬":8238,"åħ³å¤ĸ":8239,"åĪ°æĹ¥":8240,"åĪ°æĹ¶":8241,"åĪ°éķ¿å®ī":8242,"åĪ°åºĦ":8243,"å¤©ä¹ĭ":8244,"å¤©éĻį":8245,"å¤©èį¡":8246,"åįģä¸ĢæľĪ":8247,"çļĨæĿ¥":8248,"çļĨä¸º":8249,"çļĨæķ£":8250,"çļĨæĦŁ":8251,"äºĭæķħ":8252,"äºĭèĢ³":8253,"å¿ħåħĪ":8254,"å¿ħä»İ":8255,"å¿ħéģŃ":8256,"æ±Ŀä¹ĭ":8257,"æ±ĿæĿ¥":8258,"æ±ĿåħĦ":8259,"å½ĵå¤į":8260,"éŃıéĺµä¸Ń":8261,"èį¥éĺ³":8262,"åıĪä¸İ":8263,"åıĪéģĩ":8264,"å·²åİ»":8265,"åıªå¸¦":8266,"èĭ¥æĺ¯":8267,"èĭ¥æĿĢ":8268,"å±±æĿ¥":8269,"å±±æŀĹ":8270,"ä¼Ĺè®®":8271,"æ¬²åİ»":8272,"æŃ£æĽ°":8273,"æŃ£èī²":8274,"æŃ£éĢ¢":8275,"æŃ£å¥Ķèµ°":8276,"æŃ£åķĨè®®éĹ´":8277,"æĪĺèĢħ":8278,"æĪĺè¢į":8279,"è·¯éĢ¢":8280,"ç«ŀ":8281,"çİĭéľ¸":8282,"çİĭä¸ļ":8283,"æ³Ĺ":8284,"å·ŀäºĭ":8285,"å®īä¼Ĺ":8286,"éģĤåħ¥":8287,"éģĤéĹ®":8288,"éģĤå¼ķåħµ":8289,"éģĤå¼ķåĨĽ":8290,"éģĤéģ£ä½¿":8291,"å¿ĥä¹Ł":8292,"åıĸåĽŀ":8293,"éļľ":8294,"èµ·æĽ°":8295,"èµ·å¤§åħµ":8296,"æŃ»åĲİ":8297,"èĢħæĽ°":8298,"è¡Įäºĭ":8299,"è¡ĮåĿĲ":8300,"åĿĹ":8301,"åĿĽä¸ĭ":8302,"åĲ´å¤ª":8303,"ä¿ŀ":8304,"å°ĨåĨĽä½ķä¸į":8305,"æĽ¹æĵįæĽ°":8306,"æĽ¹æĵįåľ¨":8307,"è½¯":8308,"æŀ·":8309,"æŀļ":8310,"éª§":8311,"çŃīçī©":8312,"åĪĨå¢¨":8313,"ä»İä½ķ":8314,"éĤ»":8315,"è¯¸å¤Ħ":8316,"å²ĺ":8317,"èľĤ":8318,"å¸ĥåĳĬ":8319,"ä¸ľéĥ¡":8320,"æĢ¥èģļ":8321,"æĢ¥å¿Ļ":8322,"è¿Ľè¨ĢæĽ°":8323,"éĿ¢éķ¿":8324,"éĿ¢éĹ¨":8325,"éĿ¢åĲĽ":8326,"åįĹå±±":8327,"åĵĤç¬ĳ":8328,"éĹ»çİĦå¾·":8329,"éĹ»å°ĨåĨĽ":8330,"éĹ»æĽ¹æĵį":8331,"æķ°æĿ¯":8332,"èĩ£ä»¥":8333,"åį³å°Ĩ":8334,"åį³æŃ»":8335,"åį³ä½į":8336,"éĥ½è¢«":8337,"æīĢä¸º":8338,"æīĢå½Ĵ":8339,"äºĶèī²":8340,"äºĶåįģä¸ĩ":8341,"äºĶåįģä½ĻéĩĮ":8342,"æŁľ":8343,"éĢĢåĽŀ":8344,"éĢĢæĹ¶":8345,"æľĽæĽ°":8346,"æľĽåĲİ":8347,"éĹ¨é¦ĸ":8348,"ä¸ĩä¸Ģ":8349,"æ±īå®¶":8350,"æ±īå¯¿äºŃä¾¯":8351,"å¤ªä»Ĩ":8352,"ç²Ĺ":8353,"ç²Ł":8354,"æĸ¹å¤©":8355,"çķ´":8356,"åĭŁ":8357,"çĶ¨æŃ¦":8358,"çĶ¨åĪĢ":8359,"å°ıå°ĨåĨĽ":8360,"å°ıè§ĳ":8361,"åı¸ç©º":8362,"åı¸éļ¶":8363,"åĲĦéĹ¨":8364,"è¥¿å¹³":8365,"å£°å¤§éľĩ":8366,"å°½éĻį":8367,"å°½é©±":8368,"å°½è¯Ľ":8369,"é»ĦéĴº":8370,"æĥĬåĬ¨":8371,"æīĭæĽ°":8372,"Ġåį´è¯´å¼łéĥĥ":8373,"Ġåį´è¯´æĽ¹ä»ģ":8374,"Ġåį´è¯´éĴŁä¼ļ":8375,"å¤ľéĹ´":8376,"å¤ľæ¢¦":8377,"äº¦æĹł":8378,"äº¦èĥ½":8379,"çĸĹ":8380,"è¯·å¤©åŃĲ":8381,"è¢«åĽ´":8382,"åĽ½éļ¾":8383,"å¸Ŀä½į":8384,"è´¼åĬ¿":8385,"é¢Ĩè®¡":8386,"é¢Ĩå¾Ĳå·ŀ":8387,"åı¸é©¬æ°ı":8388,"è®¸çĶ°":8389,"ä¸įåı¯ä»¥":8390,"äºĮäººåıĹè®¡":8391,"å¾ħäºº":8392,"å¾Ĳèį£":8393,"ç»´ç¬ĳæĽ°":8394,"éĿŀä¸º":8395,"éĿŀçŃīéĹ²":8396,"æķĻåıĸ":8397,"ä¸ŀçĽ¸èĭ¥":8398,"ä¼ıåĪĢæĸ§æīĭ":8399,"ä¼ıæ³¢":8400,"åºĶä»ĺ":8401,"æŃ¦æī¬":8402,"æŃ¦ä¹¡ä¾¯":8403,"æĪĲäºĭ":8404,"åĳ¨éĥ½çĿ£":8405,"æŁĲäº¦":8406,"çģ«çĥ§":8407,"åįĥåı¤":8408,"åı³èĩĤ":8409,"å¹´æĸ¹":8410,"æĸ©åħ³":8411,"æĸ©æ±Ŀ":8412,"çłĸ":8413,"èİ±":8414,"å¼ķåħµè¿½èµ¶":8415,"å¼ķåħµäºĶä¸ĩ":8416,"é«ĺå±±":8417,"ä¼ļéĽĨ":8418,"ç²®å°ĳ":8419,"å¤´çĽĶ":8420,"è¿İåħ¥":8421,"äº²èĩ³":8422,"äº²åĪ°":8423,"åĮĹæĸĹ":8424,"è¿½åĪ°":8425,"èµµé¢ľ":8426,"èĥľè´¥":8427,"åĬ¿å¦Ĥ":8428,"åĬ¿ä¸įåı¯å½ĵ":8429,"éĻĪçĲ³":8430,"æĬķéŃı":8431,"æĬķæĽ¹æĵį":8432,"å½Ĵå®¶":8433,"è°ĵä¼Ĺå®ĺæĽ°":8434,"æģĲåħ¶":8435,"æĦ¿ä»¥":8436,"æĦ¿å°ĨåĨĽ":8437,"éģ£ä¹ĭ":8438,"å¼ŁåħĦ":8439,"åıĳåĸĬ":8440,"åıĳèĲ½":8441,"æĶ¾è¿ĩ":8442,"æĶ¾å½Ĵ":8443,"ä»ĸå¤Ħ":8444,"çĽ´æĿĢåĪ°":8445,"èľĢåħµå¤§è´¥":8446,"åıĹåĽ°":8447,"å¤±æİª":8448,"ä¸įèĥ½æĬ¥":8449,"ä¸įèĥ½å®¹":8450,"ä¸įèĥ½åīįè¿Ľ":8451,"å¤ıä¾¯å¾·":8452,"åĨįæ¬²":8453,"åĨįæĪĺ":8454,"è¿ŀåĴĮ":8455,"æĤļ":8456,"å°ļèĩª":8457,"çĹ´":8458,"å¥ıåĲİä¸»æĽ°":8459,"ä¼ĳæķĻ":8460,"åĿĲä¸ĭ":8461,"åĿĲè§Ĩ":8462,"éĴ©":8463,"èĢģå¼±":8464,"çł´é»Ħå·¾":8465,"æłĩ":8466,"èģĶ":8467,"å°±æŃ¤":8468,"å°±é©¬ä¸Ĭ":8469,"å°ģèµı":8470,"å¼Ģè¨Ģ":8471,"å¼ĢèĪ¹":8472,"ç®Ńå¤´":8473,"è¯¸èĳĽåĿĩ":8474,"åıįæ¬²":8475,"åıįæĥħ":8476,"æľ¬æ´ŀ":8477,"çĸĳæĺ¯":8478,"é¾Ļéª§":8479,"æ®ģ":8480,"æ®ĥ":8481,"æ®Ħ":8482,"å¤©ä¸ĭäºº":8483,"å¤©ä¸ĭèĢħ":8484,"è§£èµ´":8485,"ä¸»åħ¬èĭ¥":8486,"å²ĤçŁ¥":8487,"æĹ¢å¾Ĺ":8488,"çĥ½":8489,"æĿ¨æ¬£":8490,"æ°ĳéĹ´":8491,"ç»Łåħµ":8492,"ç»Łé¢Ĩ":8493,"éĥ¨é¢Ĩ":8494,"éĥ¨åįĴ":8495,"éĥ¨æĽ²":8496,"åĬ¨éĹ®":8497,"åĬ¨æīĭ":8498,"åĽ¾æĽ°":8499,"å§ĵåĪĺ":8500,"éŃıå»¶æĽ°":8501,"æĵĴçŁ£":8502,"çªĦ":8503,"å½¼æŃ¤":8504,"èĥĮä¹ĭ":8505,"éļ¾å®¹":8506,"ç©¶":8507,"éŁ©çĮĽ":8508,"ä»ģæħĪ":8509,"éĢģè¿ĺ":8510,"çļĩå¤©":8511,"éĤĵé£ı":8512,"å¾Ħèĩ³":8513,"å¼ĥå¯¨":8514,"å¼ĥæŀª":8515,"å¸¦ä¼¤":8516,"åĽ´ç»ķ":8517,"å¯Ĩå¥ı":8518,"è¾ŀæĽ°":8519,"ä½łå¦Ĥä½ķ":8520,"çĮ®äºĨ":8521,"æıĲæĪŁ":8522,"æ²³ä¸Ĭ":8523,"ä¼łè°ķ":8524,"åįĬæľĪ":8525,"ä¸ľåĲ´åŃĻæĿĥ":8526,"è¯ıæĽ°":8527,"åı·çģ«":8528,"åı·åĵŃ":8529,"æīĵçĿĢ":8530,"æİ¢è§Ĩ":8531,"åĭ¿ä»¥":8532,"ä¸įçŁ¥åħ¶æķ°":8533,"è½»åĩº":8534,"è½»æķĮ":8535,"éĽĦåħµ":8536,"éĽĦæīį":8537,"éĽĦå£®":8538,"ä»ĬæĹ¥ä¹ĭäºĭ":8539,"æ»ķ":8540,"è±º":8541,"æ·±å¾Ĺ":8542,"æ·±æģ¨":8543,"å®¹èº«":8544,"å®¹æĺĵ":8545,"èĻİè±¹":8546,"èĻİçī¢":8547,"æļĹå¿ĸ":8548,"çŃĶä¹ĭ":8549,"éĻĽä¸ĭä¹Ł":8550,"ä¸¾ä¸Ģäºº":8551,"ä¸ĥäºº":8552,"ä¸ĥè·¯":8553,"ä¸ĥçĻ¾éĩĮ":8554,"ä»ĺä¸İ":8555,"ä¿ĿçĿĢ":8556,"ç¥ŀäºº":8557,"å¾ģä¹ĭ":8558,"å¾ģè®¨":8559,"å¯¹éĿ¢":8560,"å¯¹æīĭ":8561,"ä¾įç«ĭäºİ":8562,"æ¸¡æ³¸æ°´":8563,"åħ¨èĥľ":8564,"åħ¨çĲ®":8565,"åıªè§ģä¸Ģäºº":8566,"é¸¦":8567,"çĽ®ä¸ĭ":8568,"ç§°å¸Ŀ":8569,"éĻĨä¼¯è¨Ģ":8570,"æħĮä¹±":8571,"èĲ½åľ°":8572,"èĲ½æ°´":8573,"è°ıè®®":8574,"é©¾å°ıèĪŁ":8575,"çº¦è¡Į":8576,"çŁ³å¤´":8577,"çŁ³äºŃ":8578,"ä¹ĭè¨ĢçĶļåĸĦ":8579,"å¼ĵæīĭ":8580,"æŃ¤äººæĺ¯è°ģ":8581,"æ¡¥å¤´":8582,"ä½¿äººåİ»":8583,"çļĦåį¢":8584,"ç¦»äºĨ":8585,"çĶĺå¤«äººæĽ°":8586,"ä¹ĿæľĪ":8587,"ä¹Ŀå°º":8588,"ä¹ĿéĶ¡":8589,"è¢Ńä¹ĭ":8590,"åĢĴäºİ":8591,"åĢĴæĪĪ":8592,"é¡ºæµģ":8593,"åłĤä¸Ń":8594,"åłĤåłĤ":8595,"æľ¨é¹¿":8596,"ä¿±åľ¨":8597,"ä¸įå¦Ĥä¸Ķ":8598,"çīĽå¤´":8599,"çĦ¶åĲİè¿Ľåħµ":8600,"æĹ§å°Ĩ":8601,"åŃŁèİ·çŃī":8602,"æĭĴå®Ī":8603,"ä¹ĭè®¡çŁ£":8604,"é¢ľèī²":8605,"ç¦ģæĽ°":8606,"æ´ªæĽ°":8607,"æĭĽé£Ĳ":8608,"åİļèĳ¬ä¹ĭ":8609,"å¼łè¾½æĽ°":8610,"éĽįæĽ°":8611,"æĽ¹ä»ģæĽ°":8612,"æĮģæŀª":8613,"åĪ©åĪĥ":8614,"èĩ´ç¥Ń":8615,"è®¨éĢĨ":8616,"åĮĸæĽ°":8617,"æ®¿ä¸Ń":8618,"åĸĬå£°èµ·å¤Ħ":8619,"åŀķ":8620,"å¾¡ä¹ĭ":8621,"è¿Ļåİ®":8622,"æĢĢäºĮå¿ĥ":8623,"ç©ºåĽŀ":8624,"æĬĺå°Ĩ":8625,"æĳ§":8626,"æĿ¥è§ģçİĦå¾·":8627,"æĿ¥è§ģåŃĶæĺİ":8628,"æĿ¥è§ģæĽ¹æĵį":8629,"çĻ¾ä½ĻåĲĪ":8630,"æĺ¥ç§ĭ":8631,"å¿ĥä¸Ńçĸĳæĥĳ":8632,"å¿ĥä¸ŃæļĹåĸľ":8633,"æľīä½ķä¸įåı¯":8634,"èĴĭå¥ĩ":8635,"Ġç¬¬åĽĽåįģ":8636,"Ġç¬¬åħ«åįģ":8637,"è®¸è¤ļæĽ°":8638,"çĬ¹æľª":8639,"æŀĹä¸Ń":8640,"éĢĨå¤©":8641,"æįīä¸ĭ":8642,"é¹Ħ":8643,"é¹ı":8644,"çĥ§çĿĢ":8645,"çĤ¹åħµ":8646,"èĮĥçĸĨ":8647,"äºİåľ°ä¸Ĭ":8648,"æį®ä½ı":8649,"çĬ¯å¢ĥ":8650,"å¥¸èĩ£":8651,"åĩłä¹İ":8652,"åīįéĿ¢ä¸ĢåĨĽ":8653,"æĮºæŀªéª¤é©¬":8654,"å¥ĩåĬŁ":8655,"è¯¯ä¸Ń":8656,"è¯¯å¤§äºĭ":8657,"çº³ä¹ĭ":8658,"çº³å£«":8659,"èħ¾æĽ°":8660,"çº¢æĹ¥":8661,"çº¢è¢į":8662,"å³¨":8663,"æ£ĺ":8664,"è¾ħä¹ĭ":8665,"åħ¶äººæĽ°":8666,"ä¼ĹåĨĽçļĨ":8667,"é¡¿è¶³":8668,"å²ģçŁ£":8669,"ç§ĭæ¯«æĹł":8670,"éļĲå±ħ":8671,"å¡Į":8672,"ä¸¤åĨĽæ··æĪĺ":8673,"è¯Ŀä¸ĭ":8674,"çĤ®çŁ³":8675,"æ²ĽåĽ½":8676,"åĢŁåħµ":8677,"æĻĭåħµ":8678,"éģ¥æĮĩ":8679,"è´µå¦ĥ":8680,"ç§¦å®ĵ":8681,"è´¹è§Ĥ":8682,"è´¹è¯Ĺ":8683,"å®īæķ¢å¦ĤæŃ¤":8684,"è´£éªĤ":8685,"æŃ»äºİä¹±åĨĽä¹ĭä¸Ń":8686,"åĺīæĽ°":8687,"ç°ª":8688,"å°¸æ¨ª":8689,"ç´¯æ¬¡":8690,"èĥĨè£Ĥ":8691,"è¯ļæģĲ":8692,"éħįæĽ°":8693,"å°ºå¯¸":8694,"é¢Ĩåĳ½èĢĮåİ»":8695,"æĮ¥æ³ª":8696,"æĭľè°¢èĢĮåİ»":8697,"æĭĨè§Ĩä¹ĭ":8698,"åĽ½å®¶å¤§äºĭ":8699,"è´ºåĸľ":8700,"ä¸Ģå½ªåĨĽæĿĢåĪ°":8701,"ä¸ºé¦ĸä¸Ģå°Ĩ":8702,"å²Ĥåı¯å¤į":8703,"æħĮå¿Ļä¸ĭé©¬":8704,"ä»£ä¹ĭ":8705,"ç§»äºİ":8706,"ç§»èĲ¥":8707,"éĵľäºº":8708,"æĴŀè§ģ":8709,"ä¸¹éĺ³":8710,"èĪŀåīĳ":8711,"çĮĽçĦ¶":8712,"æĹ©æľīäººæĬ¥çŁ¥":8713,"éĥ¨å°ĨæĽ°":8714,"âĢĻ,":8715,"åŃĺäº¡":8716,"æĶ¾çģ«ä¸ºåı·":8717,"åĽŀé¡¾å·¦åı³æĽ°":8718,"æ°¸æĺĮ":8719,"ç¦ħä½į":8720,"ç®Ĺå®ļ":8721,"æ®ĭå®³":8722,"åĺ±ä»ĺ":8723,"åĳĪä¸Ĭä¹¦":8724,"äºĮåįģä½ĻåĲĪ":8725,"åºĻåłĤ":8726,"åĿĽä¸Ĭ":8727,"æĿĢäºĨä¸Ģéĺµ":8728,"ä¸īåįģåĲĪ":8729,"çīĻå°Ĩ":8730,"çīĻæĹĹ":8731,"æĺ±æĽ°":8732,"ç³ľç«ºæĽ°":8733,"é¬¼ç¥ŀ":8734,"è¯±ä¹ĭ":8735,"çĽŁä¸»":8736,"éĢĤéĹ´":8737,"è¾Ľè¯Ħ":8738,"å¤§å°ıå°Ĩå£«":8739,"ä¸ĢåĪĢæĸ©äºİé©¬ä¸ĭ":8740,"äºĮæĽ´æĹ¶åĪĨ":8741,"ç«łæŃ¦":8742,"å¿łä¹īä¹ĭå£«":8743,"æħ°åĬ³":8744,"åĩ¡äºĭ":8745,"è°¨å®Ī":8746,"åĩŃé«ĺ":8747,"å®¾å®¢":8748,"å°¹èµı":8749,"ä¾µæĪĳ":8750,"éŀįä¸ĭé©¬":8751,"éĦ±éĺ³":8752,"çĥŁçªģçģ«":8753,"åįłäºĨ":8754,"ä¸ºä¸Ĭå®¾":8755,"å®ĭå¿ł":8756,"å®ĭè°¦":8757,"æĢİçĶŁ":8758,"çīµåĩº":8759,"è¿·å½ĵ":8760,"åºĨç«¥":8761,"åĿłåľ°":8762,"å¾Ĺèĥľä¹ĭåħµ":8763,"å¤©æ°´éĥ¡":8764,"é¡·åĪ»":8765,"éº¾åĨĽ":8766,"åį§é¾ĻåĨĪ":8767,"å±ıé£İ":8768,"æĭ©åĲī":8769,"é¡¹åŁİ":8770,"åĨĴçĥŁçªģçģ«":8771,"ä½İè¨Ģ":8772,"å±¡è´¥":8773,"çİĦå¾·ä¸İåħ³":8774,"è·ªäºİ":8775,"éĹ¨æĹĹå¼Ģå¤Ħ":8776,"åºĶå£°èĢĮåĩº":8777,"ä¿®ä¹¦ä¸Ģå°ģ":8778,"çŁ¥åħ¶æĦı":8779,"ä½¿åĳ½èĩ³":8780,"ä¸įåľ¨è¯Ŀä¸ĭ":8781,"åłĨç§¯":8782,"æĬ¢å¤º":8783,"æĭĪçĿĢ":8784,"èĩªé¢Ĩå¤§åĨĽ":8785,"ä¸īåįģéĩĮä¸ĭå¯¨":8786,"åľŁäººæĽ°":8787,"æĴ¤åħµ":8788,"å¼ķæľ¬éĥ¨åħµ":8789,"äºĽå°ı":8790,"åħµæ³ķäºĳ":8791,"çĽĺèĽĩ":8792,"èĥ¸ä¸Ń":8793,"ä¸ĢæŀĿåħµ":8794,"åº¸æīį":8795,"å¼ķä¸īåįĥåĨĽ":8796,"å¼ķä¸īåįĥåħµ":8797,"ä¸īçĻ¾åĨĽ":8798,"æ¡ĥèĬ±":8799,"éĵłçĶ²":8800,"çĺ¤":8801,"çĺ¦":8802,"æĭľä¼ıäºİåľ°æĽ°":8803,"æ»ļéŀįä¸ĭé©¬":8804,"ä¸Ģéªĳé©¬":8805,"åºĲæ±Ł":8806,"çºµæ¨ªå¤©ä¸ĭ":8807,"åı©å¤´":8808,"èĢĮåĵŃæĽ°":8809,"åŃĲæľįæĽ°":8810,"èĸĽåħ°":8811,"ä¸ĢæŀªåĪºæŃ»":8812,"èĮĤçĽĽ":8813,"çĵ¦åı£":8814,"çĵ¦è§£":8815,"åı±éĢĢå·¦åı³":8816,"ä¸įè¿ľçŁ£":8817,"åı¯çł´ä¹Ł":8818,"çļ®èĤī":8819,"æŀŃéĽĦ":8820,"è®²åĴĮ":8821,"é¥±é£Ł":8822,"åĪĽä¸ļ":8823,"æĸĩå®ĺæŃ¦å°Ĩ":8824,"èĢģå°Ĩé»Ħå¿ł":8825,"åİħä¸Ĭ":8826,"æĹ©æľīç»Ĩä½ľæĬ¥çŁ¥":8827,"åįŀåĸľ":8828,"åįŀæ°ı":8829,"æ±Ĺæµģ":8830,"åĸıåĸı":8831,"è§Ĥåħ¶åĬ¨éĿĻ":8832,"ä¸ºæ±īèĩ£":8833,"è·Įè¶³":8834,"çº¸ç¬Ķ":8835,"éĽķå¼ĵ":8836,"ä»¶äºĭ":8837,"ä¾Ľç»Ļ":8838,"èĮ¶ç½¢":8839,"éº´å±±":8840,"èķĥ":8841,"é©»æīİ":8842,"èĩ´ä¹¦äºİ":8843,"èĵĦ":8844,"ä¸Ģè¾ĨåĽĽè½®è½¦":8845,"è®Ńç»ĥ":8846,"èĭŁå®ī":8847,"èİ·åħ¨èĥľ":8848,"è£¨å°Ĩ":8849,"æŃ£è¿İçĿĢ":8850,"éĤ¹éĿĸ":8851,"å¾ĢæĬķä¹ĭ":8852,"æµĳèº«":8853,"èļģ":8854,"ä¹ĭåħĨä¹Ł":8855,"ç©Ĩé¡º":8856,"åħĪå¸ĿæīĺåŃ¤ä¹ĭéĩį":8857,"ç»Ĩè¨Ģåħ¶äºĭ":8858,"æ¶¿éĥ¡":8859,"åģ¥å°Ĩ":8860,"å¸¦æĿ¥æ´ŀä¸»":8861,"æĮºèº«åĩºæĽ°":8862,"ä¼ŀçĽĸ":8863,"çĶĦæ°ı":8864,"åĩºæ¦ľå®īæ°ĳ":8865,"æ²Ĳæµ´":8866,"æĶ¾æ±ĿåĽŀåİ»":8867,"åħµç²¾ç²®è¶³":8868,"è´¿èµĤ":8869,"ç½Ķä¸Ĭ":8870,"è¿ŀäººå¸¦":8871,"çģŃåħ¶ä¸īæĹı":8872,"éĵģæ¡¶çĽ¸ä¼¼":8873,"ç¥Ŀèŀįå¤«äºº":8874,"å¤¤å¤ľ":8875,"ä»¥éĢ¸å¾ħåĬ³":8876,"å¦Ĥåħ¥æĹłäººä¹ĭ":8877,"æħ·æħ¨":8878,"æ¨¡æł·":8879,"åºĶå¤©é¡ºäºº":8880,"åı¸éļ¶æł¡å°ī":8881,"æŃ¦æī¬å¨ģ":8882,"æľ¨é¹¿å¤§çİĭ":8883,"ç§ĭæ¯«æĹłçĬ¯":8884,"å¦Ĥåħ¥æĹłäººä¹ĭå¢ĥ":8885,":âĢĿ":8886,"¸çĦ¶":8887,"éĪ":8888,"Ġèĩ³":8889,"Ġæĩ¿":8890,"Ġçĳľ":8891,"Ġç»´":8892,"Ġé»Ħå¿ł":8893,"ĠæĽ¹ä»ģ":8894,"Ġèĳ£åįĵ":8895,"Ġè¯Ŀ":8896,"Ġåħ³äºĳéķ¿":8897,"Ġå½ĵä¸ĭ":8898,"ĥè¡Ģ":8899,"ĳçĽ®":8900,"Ĵéĺ³":8901,"Ľè½¦":8902,"ä¸¢":8903,"ãĢĤãĢĬ":8904,"åħľ":8905,"å¤Ń":8906,"æĽ©":8907,"ä¹ĭèĩ³":8908,"ä¹ĭå¤ļ":8909,"ä¹ĭçĪ¶":8910,"ä¹ĭå¸¸":8911,"ä¹ĭçĸ¾":8912,"ä¹ĭå¦¹":8913,"ä¹ĭèĥĦ":8914,"åĨ»":8915,"ä¸įåħ¥":8916,"ä¸įèĩ³":8917,"ä¸įå½ĵ":8918,"ä¸įè¿Ľ":8919,"ä¸įè¿ĺ":8920,"ä¸įå®ģ":8921,"ä¸įé£Ł":8922,"ä¸įæĸĻ":8923,"ä¸įé¡º":8924,"ä¸įåĬ³":8925,"ä¸įæķ´":8926,"ä¸įéģµ":8927,"ä¸įæĻĵ":8928,"ä¸įçĥĤ":8929,"æŃĥè¡Ģ":8930,"å¼Ī":8931,"äººåĪ°":8932,"äººèĩ£":8933,"äººå¤´":8934,"åĨĽå®ĺ":8935,"åĨĽåĬ¡":8936,"åĨĽä¸įåĪ©":8937,"è¯¥":8938,"è¯ł":8939,"èĢĴéĺ³":8940,"åħµåĬ¿":8941,"åħµå¼º":8942,"å¤§äºº":8943,"å¤§è®¡":8944,"å¤§åı¸é©¬":8945,"å¤§æķĮ":8946,"å¤§çł´":8947,"å¤§éļ¾":8948,"å¤§æĤ¦":8949,"å¤§èµıä¸īåĨĽ":8950,"è¿Ķ":8951,"ä¸ĢåŁİ":8952,"ä¸ĢåŃĲ":8953,"ä¸Ģé¦ĸ":8954,"ä¸Ģå¤§å°Ĩ":8955,"ä¸ĢåĪĩ":8956,"ä¸ĢèĩĤ":8957,"ä¸Ģå°ĳå¹´":8958,"ä¸ĢéľİæĹ¶":8959,"è§Ħ":8960,"å°Ĩæģ¯":8961,"å°Ĩå¯¡":8962,"èµİ":8963,"æĿ¥äºĨ":8964,"æĿ¥çĮ®":8965,"æĿ¥åĬ©":8966,"æĿ¥è¢Ń":8967,"æĿ¥æĲ¦æĪĺ":8968,"æĿ¥åĬ«å¯¨":8969,"åĩ°":8970,"åĩĿ":8971,"æĵĲ":8972,"éĹ¹":8973,"æ±²":8974,"è®³":8975,"æľīåħµ":8976,"æľīäºĭ":8977,"æľīåĲį":8978,"æľīç¥ŀ":8979,"æľīå¼Ĥ":8980,"æľīäººæĬ¥çŁ¥":8981,"æľīæľºå¯Ĩ":8982,"æĸĮ":8983,"æī¹":8984,"æĵįåľ¨":8985,"æĵįèĻ½":8986,"æĵįä»İä¹ĭ":8987,"æĵįä»İåħ¶è¨Ģ":8988,"æĵįå¤§åĸľæĽ°":8989,"æĵįèĩªé¢Ĩ":8990,"æŃ¤æ°´":8991,"åİĮ":8992,"ä¸ĭæĭľ":8993,"ä¸ĭæµģ":8994,"äºİåħ¶":8995,"äºİæľĿ":8996,"äºİåłĤä¸Ĭ":8997,"ä¸ŃäºĨ":8998,"ä¸Ńè¯¸èĳĽäº®":8999,"ä¸Ńä¼¤":9000,"ä¸ºé£Ł":9001,"ä¸ºç¥¸":9002,"ä¸ºæľŁ":9003,"ä¸ºè´¨":9004,"ä¸ºåıĤè°ĭ":9005,"ä¸ºåģıå°ĨåĨĽ":9006,"ä¸ºæİİè§Ĵä¹ĭåĬ¿":9007,"è§ģå¸ĥ":9008,"è§ģç½ª":9009,"è§ģåĳ¨çĳľ":9010,"èĢĮæĵį":9011,"èĢĮè§ģ":9012,"èĢĮå¾Ģ":9013,"èĢĮç¬ĳ":9014,"èĢĮåĢĴ":9015,"èĢĮåºŁ":9016,"èĢĮéªĤæĽ°":9017,"è°²":9018,"è°Ļ":9019,"åĬ±":9020,"ä½ķåı¯":9021,"ä½ķè¨Ģ":9022,"ä½ķä»ª":9023,"ä½ķèĻĳ":9024,"ä½ķçĶ±":9025,"ä½ķæĦģ":9026,"åĩºåĨĽ":9027,"åĩºåĨħ":9028,"åĩºæ®¿":9029,"åĲ¾åľ¨":9030,"åĲ¾å¾Ĺ":9031,"åĲ¾äºĭ":9032,"åĲ¾å¯¨":9033,"åĲ¾èĢħ":9034,"åĲ¾åĳ½":9035,"åĲ¾èĻ½":9036,"åĲ¾å²Ĥ":9037,"åĲ¾åħĦå¼Ł":9038,"éĻĤ":9039,"éĻĭ":9040,"æĢĸ":9041,"éĥĹ":9042,"åı¯å¾Ģ":9043,"åı¯è§£":9044,"åı¯ä»¤äºº":9045,"è´´":9046,"å¯°":9047,"å¯ĵ":9048,"åĳĨ":9049,"åĲİåĹ£":9050,"åĲİæ§½":9051,"ä»¥ä¸Ģ":9052,"ä»¥å½ĵ":9053,"ä»¥ä¹¦":9054,"ä»¥èĩ£":9055,"ä»¥æĪĲ":9056,"ä»¥éĩĳå¸Ľ":9057,"æĽ¹å°ĨåĨĽ":9058,"æĽ¹æĢ§":9059,"æĽ¹çº¯":9060,"æĽ¹æİ¾":9061,"åħ¬æľī":9062,"åħ¬äºĭ":9063,"ä¸Ĭçĸı":9064,"åī¥":9065,"è¡į":9066,"å±ł":9067,"ä»Ĭä¸º":9068,"ä»Ĭä¸Ĭ":9069,"ä»ĬåŃĶæĺİ":9070,"ä»Ĭå¹´":9071,"ä»Ĭäºĳéķ¿":9072,"ä»ĬéĻĽä¸ĭ":9073,"ä»Ĭå¤©åŃĲ":9074,"ä»ĬæĽ¹åħµ":9075,"ä¸İèľĢåħµ":9076,"ä¸İåħĦ":9077,"ä¸İåı¸é©¬æĩ¿":9078,"ä¸İåŃ¤":9079,"ä¸İåºŀå¾·":9080,"å¼łå¸ĥ":9081,"å¼łè¾¾":9082,"å¼łå¼ĵ":9083,"å¼łçĩķ":9084,"å¼łåĭĭ":9085,"å¼łç¼ī":9086,"æĭ·":9087,"åİ»åħ¶":9088,"åİ»ä¸ľåĲ´":9089,"åİ»è¢Ń":9090,"åħ¶ä¹¦":9091,"åħ¶èº«":9092,"åħ¶è°ĭ":9093,"åħ¶ç¥¸":9094,"åħ¶é¦ĸçº§":9095,"çİĦå¾·å¼ķ":9096,"çİĦå¾·æĢ¥":9097,"çİĦå¾·äº¦":9098,"çİĦå¾·å¤§æĥĬæĽ°":9099,"ä»¤åĨĽ":9100,"ä»¤æŁĲ":9101,"åŃĶåĪĨå¢¨":9102,"ä¹ĥèĩª":9103,"ä¹ĥåħĪ":9104,"ä¹ĥæĽ¹æĵį":9105,"ä¹ĥéģ£":9106,"ä¹ĥåħ³åħ´":9107,"ä¹ĥåħ³äºĳéķ¿ä¹Ł":9108,"èĩªå½ĵ":9109,"åºı":9110,"åºĹ":9111,"äºĮåĨĽ":9112,"äºĮä¹Ł":9113,"äºĮä¸»":9114,"äºĮåħĦ":9115,"äºĮéĥ¡":9116,"äºĮä½į":9117,"åĽŀè¨Ģ":9118,"åĽŀåĲ´":9119,"åĽŀéģ¿":9120,"åŃĶæĺİä¸İ":9121,"åŃĶæĺİéĹ®":9122,"å¼ķç²¾åħµ":9123,"å¼ķäºĮä¸ĩ":9124,"å¼ķæķ°åįģäºº":9125,"å¼ķæķ°çĻ¾éªĳ":9126,"å¼ķçģ«ä¹ĭçī©":9127,"è¨Ģä¹Ł":9128,"å¦Ĥå¾Ĺ":9129,"å¦Ĥæµģ":9130,"å¦Ĥç¥ŀ":9131,"åľ¨åĲ¾":9132,"åľ¨èľĢ":9133,"åľ¨æ±Łå¤ı":9134,"åľ¨ä¸Ģå¤Ħ":9135,"æĥ¨":9136,"æĺ¯åħ¶":9137,"åħ¥èľĢ":9138,"åħ¥ä¸ŃåĨĽ":9139,"çĽ¸è¿ŀ":9140,"çĽ¸èģļ":9141,"çĽ¸æ¬º":9142,"çĽ¸è®©":9143,"å¾ĹæĪĳ":9144,"å¾Ĺéĵģæ¡¶çĽ¸ä¼¼":9145,"éĩŃ":9146,"æĹłæķħ":9147,"æĹłåĲĽ":9148,"æĹłçĸĳ":9149,"æĹłæīį":9150,"æĹłä»ĩ":9151,"æĹłæİª":9152,"æĿĢå°½":9153,"æĿĢçīĽ":9154,"åħĪäºİ":9155,"åħĪåĩº":9156,"åħĪè¿Ľ":9157,"ä¸īèĢħ":9158,"ä¸īäºĶ":9159,"ä¸īç»ĵ":9160,"ä¸īéĢļ":9161,"äºĨçİĦå¾·":9162,"äºĨä¸Ģéĺµ":9163,"è¯´åŃĶæĺİ":9164,"è¯´äºĨ":9165,"è¯´æĽ¹æĵį":9166,"æĪĳä¸į":9167,"æĪĳäºİ":9168,"æĪĳå·²":9169,"æĪĳèĩªæľī":9170,"èĩ³åŃĿ":9171,"èĩ³åŁİä¸ĭ":9172,"èĩ³å¸Ĳä¸ĭ":9173,"èĩ³æ±Łè¾¹":9174,"é£ĺçĦ¶":9175,"åŃĲäºĳ":9176,"åŃĲæĺ¥":9177,"çŁ¥å·±":9178,"å¤©å¨ģ":9179,"çļĨå¾Ĺ":9180,"çļĨèĩ³":9181,"çļĨä¸įèĥ½":9182,"äºĭåĬ¿":9183,"éŃģ":9184,"å¿ħåıĸ":9185,"å¿ħä¸įæķ¢":9186,"æ±Ŀå®¶":9187,"æ±Ŀæľīä½ķ":9188,"å½ĵä¸İ":9189,"å½ĵéĿ¢":9190,"å½ĵéģĵ":9191,"å½ĵåĪĿ":9192,"å½ĵä¸ĸä¹ĭ":9193,"å½ĵåĨĽä»¤":9194,"åıĪåĩº":9195,"åıĪèĩ³":9196,"åıĪå¤į":9197,"åıĪä»¤äºº":9198,"å·²åĩº":9199,"å·²åľ¨":9200,"å·²æĪĲ":9201,"å·²çł´":9202,"å·²æŀģ":9203,"èĭ¥å½¼":9204,"èĭ¥åı¸é©¬æĩ¿":9205,"å±±éĩİ":9206,"æĬ¥ä¹ĭ":9207,"æĬ¥éģĵ":9208,"æĬ¥ä¸§":9209,"ä¼ĹæĸĩæŃ¦":9210,"æ¬²èĩª":9211,"æ¬²è°ĭ":9212,"æ¬²æ±Ĥ":9213,"æ¬²èµ·åħµ":9214,"åį´ä¸į":9215,"æŃ£è§ģ":9216,"æŃ£å¾ħ":9217,"æŃ£åĮĹ":9218,"æĪĺæŃ»":9219,"æĪĺæłĹ":9220,"è·¯æĺŃ":9221,"éķ¿åŁİ":9222,"éķ¿èĢħ":9223,"èĻ¹":9224,"çİĭåĳ½":9225,"çİĭä½į":9226,"çİĭæ¤į":9227,"çİĭæ¥·":9228,"çİĭåĲ«":9229,"æ³Ĭ":9230,"å®īçŁ¥":9231,"å®īå±ħ":9232,"éģĤç«ĭ":9233,"å¿ĥäºĭ":9234,"å¿ĥä¹ħçŁ£":9235,"éĹ®äºİ":9236,"éĹ®äºĨ":9237,"é¢Ĥ":9238,"åıĸå¾Ĺ":9239,"åıĸé½Ĳ":9240,"éļĹ":9241,"èµ·ä¸Ģ":9242,"æŃ»èĢĮå·²":9243,"çĦ¶åħ¶è¯´":9244,"èĢħçļĨ":9245,"èĢħæĹłæķ°":9246,"è¡Įè£ħ":9247,"è¡Įæķ°å·¡":9248,"åĲ´ä½¿":9249,"åĲ´åĽ½å¤ª":9250,"è®¡ä¹Ł":9251,"è½©":9252,"è½´":9253,"éªĭ":9254,"çŃīè¾Ī":9255,"ä¾¿å°±":9256,"ä¾¿è¦ģ":9257,"ä¾¿å·®":9258,"çģ¿":9259,"åĪĨæĺİ":9260,"ä¹¦èĩ³":9261,"ä¹¦åĲį":9262,"ä»İå¤´":9263,"é¡Ĵ":9264,"æľªèĤ¯":9265,"è¯¸å®ĺ":9266,"è¯¸èĲ¥":9267,"å¸ĥåĨĽ":9268,"èĤ¥":9269,"èľĢèĲ¥":9270,"æ²¸":9271,"æ²Ĥ":9272,"é£ŀåĩº":9273,"æĢ¥åıĸ":9274,"æĢ¥åĳ½":9275,"æĢ¥èµ°":9276,"æĢ¥ä»¤äºº":9277,"åįĹå±ıå±±":9278,"åĵģ":9279,"åĵĳ":9280,"èµ°åħ¥":9281,"åĽĽå·ŀ":9282,"åĽĽçĻ¾":9283,"åĽĽä¸ĩ":9284,"åĽĽåįĥ":9285,"åĽĽä¸ª":9286,"åĽĽä¸ĸ":9287,"æķ°éªĳ":9288,"æķ°åįģéĩĮ":9289,"èĩ£æĸĻ":9290,"å§¿":9291,"åį³å¼ķ":9292,"åį³éģ£äºº":9293,"å¿½è¿ĳèĩ£å¥ıæĽ°":9294,"ä¸¤æĹ¥":9295,"ä¸¤å¤Ħ":9296,"ä¸¤åĳĺ":9297,"å¾Ģæķĳ":9298,"å¾Ģå¤į":9299,"å¾Ģæ±Łä¸ľ":9300,"å¾Ģæ±Łå¤ı":9301,"å¾Ģæ±ĿåįĹ":9302,"æ±Łä¸Ĭ":9303,"æ±Łæ±ī":9304,"æ±Łæ°´":9305,"æ±Łå·¦":9306,"æ±ŁèĢĮæŃ»":9307,"å¤ĩé©¬":9308,"æīĢé¢Ĩ":9309,"æīĢå®ľ":9310,"äºĶåŃĲ":9311,"äºĶéĺŁ":9312,"æŁ¯":9313,"å¹³èĽ®":9314,"æľĽåīį":9315,"æľĽå°ĨåĨĽ":9316,"æľĽæ±īä¸Ń":9317,"æµĨ":9318,"æµĵ":9319,"æ±īç¦Ħ":9320,"æķħä»¥":9321,"æķħåħĪ":9322,"æķħå°Ķ":9323,"æķħæľīæŃ¤":9324,"å¤ªè¿ĩ":9325,"å¤ªç¥ĸ":9326,"æĸ¹ä¸Ī":9327,"çĶŁçĸĳ":9328,"æĸĩå¸Ŀ":9329,"æĸĩç«ł":9330,"æ°´ä¸į":9331,"æ°´éĿ¢":9332,"æ°´æ·±":9333,"éĻįèľĢ":9334,"éĻįæĹ¨":9335,"çĶ¨ä¸º":9336,"çĶ¨ä¹ĭçī©":9337,"å°ıå¾Ħ":9338,"å°ıè¾Ī":9339,"æĩĴ":9340,"åĲĦä¸º":9341,"åĲĦå®ĺ":9342,"åĲĦä¾Ŀ":9343,"åĲĦå¼ķä¸Ģä¸ĩ":9344,"å£°å¦Ĥ":9345,"å°½åĩº":9346,"å°½éĢĢ":9347,"æķ¢æľī":9348,"æĥĬå¾Ĺ":9349,"æĥĬéĹ®":9350,"Ġåį´è¯´è¢ģç»į":9351,"Ġåį´è¯´åŃŁèİ·":9352,"è´¥çŁ£":9353,"äº¦ä¸įåı¯":9354,"è¯·æĽ°":9355,"è¯·å°ĨåĨĽ":9356,"è¯·ä¸ŀçĽ¸":9357,"è¢«æĿĢ":9358,"è¢«äºĳ":9359,"è¢«äºĳéķ¿":9360,"åĽ½æĶ¿":9361,"åĽ½å¯Į":9362,"ç½¡":9363,"ä½ıæīİ":9364,"ç®¸":9365,"é¢ĨæŃ¤":9366,"è®¸ä»¥":9367,"è®¸æ±ľ":9368,"å·¦ä¾§":9369,"å¿łè¨Ģ":9370,"éĶ¥":9371,"çĳľå¤§åĸľ":9372,"äºĮäººåĲĦ":9373,"åĲįä¸į":9374,"å¾ĲåħĥçĽ´":9375,"ç»´å¤§æĥĬ":9376,"æķĻä¹ĭ":9377,"æķĻä¼ĳ":9378,"æķĻåľº":9379,"åĨħä¾į":9380,"éģĵåı·":9381,"éģĵçĲĨ":9382,"éģĵåĤį":9383,"èº«åħĪ":9384,"ç«ĭäºĨ":9385,"å¤ļè®¾":9386,"çľĭä»ĸ":9387,"åĲĮé¢Ĩ":9388,"æķĳä¸»":9389,"æķĳé©¾":9390,"æŃ¦éĻµ":9391,"éĺ³å®ī":9392,"æĪĲæµİ":9393,"æŁĲèĻ½ä¸įæīį":9394,"çŃĸä¹ĥ":9395,"æķĮä¹Ł":9396,"æķĮä½ı":9397,"æĭľä¼ıäºİ":9398,"å®ļè®¡":9399,"çģ«çĤ®":9400,"åįĥéĩĳ":9401,"åı³æīĭ":9402,"éĺµè§Ĵ":9403,"å®¶åĥ®":9404,"èįĨæ£ĺ":9405,"å¼ķåħµåİ»äºĨ":9406,"å¼ķåħµæİ¥åºĶ":9407,"å¼ķåħµåįģä¸ĩ":9408,"å¼ķåħµåīįè¿Ľ":9409,"åı£åĨħ":9410,"ç¬ĳèĩªèĭ¥":9411,"ä½ľéĢŁ":9412,"åĪĢç®Ń":9413,"å¹¶åĲŀ":9414,"é«ĺå£«":9415,"é«ĺåĿĲ":9416,"é«ĺåı«":9417,"ä¼ļæĦı":9418,"äº²ç¬Ķ":9419,"éľĦ":9420,"éľĸ":9421,"åĮĹä¼Ĳ":9422,"åĲĽä¹ĭ":9423,"åĲĽè¨Ģ":9424,"èĪ¹åĪ°":9425,"æļĳ":9426,"è¡¨æĸĩ":9427,"è¡¨ç«ł":9428,"åĬ¿åį±":9429,"éĻĪåħĥ":9430,"éĻĪçŁ«":9431,"æĿİåłª":9432,"çĶļå¯Ĩ":9433,"çĶļå¦Ļ":9434,"è½¦é©¬":9435,"è½¦è¾Ĩ":9436,"å½Ĵåĳ½":9437,"å½Ĵé¦ĨèĪį":9438,"è°ĵä¼Ĺå°ĨæĽ°":9439,"æģĲéĿŀ":9440,"æģĲä¸įèĥ½":9441,"åĳĬè¯´":9442,"æĦ¿åħĪçĶŁ":9443,"éģ£å¤§å°Ĩ":9444,"èĲ¥åīį":9445,"åıĳä¸§":9446,"ä»ĸäºĭ":9447,"åķ¼":9448,"èĬ¥":9449,"çĽ´å¥Ķ":9450,"åıĹæŃ¤":9451,"åıĹæŃ»":9452,"åıĹåĪĳ":9453,"å¤±äºĭ":9454,"å¤±æķ£":9455,"å¤ıä¾¯çİĦ":9456,"åĨįåĽŀ":9457,"åĨįè®®":9458,"è¿ŀå¤©":9459,"è¿ŀç»µ":9460,"ä¹ĺæŃ¤":9461,"ä¹ĺå¤ľ":9462,"ä¹ĺæľº":9463,"å¤įåĩº":9464,"åİŁæĺ¯":9465,"éªĳéĥ½å°ī":9466,"å¥ıå¤©åŃĲ":9467,"å¥ıåĩĨ":9468,"åĲķå¸ĥæĽ°":9469,"å¼łé£ŀå¤§æĢĴ":9470,"å¸ĲåĲİ":9471,"éĥ¡å®Ī":9472,"éħĴéħ£":9473,"éħĴè¡Įæķ°å·¡":9474,"èĢģèĩ£":9475,"èĢģåıŁ":9476,"åĬĽæĪĺ":9477,"çł´è´¼":9478,"æłĭ":9479,"ä¹īéĩĬ":9480,"å°±å¸Ń":9481,"ä¹±åĽ½":9482,"ä¹±çªľ":9483,"å¼ĢäºĨ":9484,"å¼Ģè¯»":9485,"ä¹ħå¿ħä¸º":9486,"åıįæİĮ":9487,"æľ¬å·ŀ":9488,"åįĵåĳ½":9489,"åķĨè®®å·²å®ļ":9490,"çĸĳä¹ĭ":9491,"çĸĳå¿Į":9492,"é¾Ļä½ĵ":9493,"æ®Ĵ":9494,"èĳ£è´¼":9495,"èĳ£äºŃ":9496,"å¦Ĥä½ķçŀĴ":9497,"å¤©ä¸ĭèĭ±éĽĦ":9498,"è§£åĴĮ":9499,"ä¸»åħ¬ä¸Ķ":9500,"ä¸»åħ¬åĭ¿å¿§":9501,"å²ĤéĿŀ":9502,"æĹ¢ä»¥":9503,"æĹ¢å¦ĤæŃ¤":9504,"å®«äºº":9505,"å®«æ®¿":9506,"å§ĵå¼ł":9507,"å§ĵåĲķ":9508,"éĩĳå®Ŀ":9509,"éĩĳåĨł":9510,"éŃıå»¶å¼ķåħµ":9511,"çķĻåħµ":9512,"çķĻåľ¨":9513,"æĵĴæĿ¥":9514,"æĵĴèİ·":9515,"æĵĴåŃŁèİ·":9516,"å¤§æĥĬå¤±èī²":9517,"åŃĹæĹĹ":9518,"åŃĹæł·":9519,"çªĹ":9520,"èµµäºĳä¹Ł":9521,"èĥĮä¸»":9522,"å·¦åı³æİ¨åĩºæĸ©ä¹ĭ":9523,"æ¶Ľ":9524,"ç¼Ħ":9525,"éŁ©å¿ł":9526,"ä»ģæĽ°":9527,"åı«éªĤ":9528,"éĢģåĪ°":9529,"çļĩå¤ªåĲİ":9530,"äº®æĽ°":9531,"çĤī":9532,"åı¸é©¬æĩ¿ä¹Ł":9533,"è¿ľåĩº":9534,"å¼ĥäºİ":9535,"å¼ĥå®ĺ":9536,"ä½Ĩçľĭ":9537,"æľĪèī²":9538,"åĽ´äºĨ":9539,"åĽ´åľ¨åŀĵå¿ĥ":9540,"å§ľç»´åľ¨":9541,"è¿ĺéĥ½":9542,"è¿ĺæ´Ľéĺ³":9543,"å¯Ĩå¸ĥ":9544,"è¾ŀåĽŀ":9545,"è¾ŀå½Ĵ":9546,"èįīåºĲ":9547,"èįīèĬ¥":9548,"ç½ªæģ¶":9549,"ä½łåı¯":9550,"åħ«åĽŀ":9551,"åħ«éĿ¢":9552,"å°Ħä½ı":9553,"å°ĦçĮİ":9554,"ä¿¡ä¹ī":9555,"çĻ½æĹĦ":9556,"æ²³è¥¿":9557,"å°ĳå¸Ŀ":9558,"ä¼łæĬ¥":9559,"æĬĬå®Ī":9560,"å¥½çĶŁ":9561,"å¥½éħĴ":9562,"é¥®èĩ³":9563,"ä¸ľåĲ´éĻĨéĢĬ":9564,"åı·çĤ®":9565,"éĤ£æĿ¡è·¯":9566,"æīĵåıĳ":9567,"å®ŀä¸įçŁ¥":9568,"åĨ²éĺµ":9569,"æľįåħ¶":9570,"æ¢ĵ":9571,"è°¢ç½ª":9572,"çĴľ":9573,"æ·±éĢļ":9574,"æ·±æĦŁ":9575,"å¼ķåĨĽèµ¶æĿ¥":9576,"å¼ķåĨĽåīįè¿Ľ":9577,"çºµä½¿":9578,"ä»»ä»ĸ":9579,"åĨ³çŃĸ":9580,"åĨ³æŃ»æĪĺ":9581,"æļĹä½¿äºº":9582,"ä¹ĭäºĭä¹İ":9583,"è¡£åĨł":9584,"è¡£è¥Ł":9585,"ä¸ĥå¹´":9586,"åıĶåıĶ":9587,"å¤ºä¹ĭ":9588,"èĻļåĲį":9589,"ä¿Ŀåħ¨":9590,"ç¥ŀæŃ¦":9591,"ç¥ŀå¨ģ":9592,"ç¥ŀæľº":9593,"åľŁåľ°":9594,"åľŁæľ¨":9595,"èĴĻä¸ŀçĽ¸":9596,"æī¿å½¦":9597,"åı¬åĽŀ":9598,"å¯¹ä¼Ĺ":9599,"å¯¹éĺµ":9600,"æģ©å¾·":9601,"åħ¨çĦ¶":9602,"åħ¨è£ħ":9603,"æķ£åħ³":9604,"çĽ®åīį":9605,"ç§°ä¸º":9606,"èģļä¼Ĺ":9607,"æĽ¾éĹ»":9608,"æľīä¸Ģå°Ĩ":9609,"çº¦éĢĢ":9610,"åĪºä¸Ń":9611,"åĪºæĿĢ":9612,"åºľåīį":9613,"å»ºéĺ³":9614,"å»ºåĬŁ":9615,"å»ºå®ģ":9616,"åħŃæľĪ":9617,"åĸĿéĢĢ":9618,"éĿĴåĽĬ":9619,"éĿĴéĩŃ":9620,"èµĲéħĴ":9621,"éĢĥåĽŀ":9622,"æŀľæĺ¯":9623,"ç»ĵäº²":9624,"ç»Ŀåħ¶":9625,"ç¦»æŃ¤":9626,"æŃ¥éªĺ":9627,"çĶĺæ³ī":9628,"ä¸¥æķ´":9629,"çĻ»å²¸":9630,"çĻ»èĪŁ":9631,"åĢĴåľ¨åľ°":9632,"æľīè¯ĹæĽ°":9633,"ä¾Ŀæ³ķ":9634,"ä¾Ŀåħģ":9635,"åħĪçĶŁä¹ĭè¨Ģ":9636,"é¡ºé£İ":9637,"åłĤä¸ĭ":9638,"åĸĦèĥ½çĶ¨åħµ":9639,"æľ¨çŁ³":9640,"ä¸įå¦ĤæĹ©":9641,"è´Łæľķ":9642,"çĽĽè´®":9643,"æĥ§æĢķ":9644,"èĭŀäºĮäºº":9645,"çĲĨäºĭ":9646,"çĲĨåĲĪ":9647,"åĬ«ç²®":9648,"æĭĽè´¤":9649,"æĮºæĪŁ":9650,"æķ¬ä¹ĭ":9651,"åĩºåŁİæĿ¥":9652,"åĩºåŁİè¿İæİ¥":9653,"çĿ¿å¤§æĥĬ":9654,"åİŁæĿ¥æĺ¯":9655,"é©±é©°":9656,"ä¹ĭäººä¹İ":9657,"æĮģæĪŁ":9658,"çģµæĽ°":9659,"åĪ©åľ¨":9660,"èĩ´ä½¿":9661,"äºĮå°ĨæĽ°":9662,"èİ«å¤§":9663,"èİ«èĭ¥":9664,"åıĺçŁ£":9665,"æľ±èµŀ":9666,"çģŃéŃı":9667,"æĸĹéĺµæ³ķ":9668,"å¿½çĦ¶èĥĮåĲİ":9669,"å¿½çĦ¶ä¸Ģå£°çĤ®åĵį":9670,"å¿½çĦ¶çĭĤé£İå¤§ä½ľ":9671,"æ®¿ä¸Ĭ":9672,"åĸĬå£°åıĪèµ·":9673,"å¾¡èĲ¥":9674,"è¿ĻæĿ¡è·¯":9675,"éĢļæĬ¥":9676,"æ±ľæ°´åħ³":9677,"ä¹¾è±¡":9678,"ç¥ģå±±å¤§å¯¨":9679,"éºŁ":9680,"åį§äºİ":9681,"å«ī":9682,"æĥŁå°ĨåĨĽ":9683,"æ¨Ĭå»º":9684,"åĲīåħĨ":9685,"åĩĨä¿¡":9686,"æ½®":9687,"çºµé©¬åĲĳåīį":9688,"è¡Ģæ°Ķ":9689,"ä¸Īä½Ļ":9690,"æ¯Ķè¯ķ":9691,"èĴĭæĸĮ":9692,"è´¾åįİ":9693,"é¹Ĭ":9694,"è°ĥåº¦":9695,"è°ĥç»ĥ":9696,"ä¸īåįĥäºº":9697,"çĥ§æ¯ģ":9698,"å¥ĭæŃ»":9699,"æ²»ä¹ĭ":9700,"çĶ°æ°ı":9701,"æĦŁåı¹":9702,"åº¶æ°ĳ":9703,"åı¤ä»Ĭ":9704,"æķ´é½Ĳ":9705,"æĻ®æĽ°":9706,"éĵģçĶ²":9707,"è¿ŁåĪĻ":9708,"æ¡ĵå¸Ŀ":9709,"èĹľ":9710,"åįĩèµı":9711,"å¥¸è´¼":9712,"å¥¸åħļ":9713,"å¥¸éĤª":9714,"èĭ¥ä¸įæĹ©":9715,"åĩłä½ķ":9716,"åĩłçķª":9717,"æĬ«çĶ²":9718,"çĹĽé¥®":9719,"æĺŁå¤ľå¾Ģ":9720,"çŀĳçĽ®":9721,"åŃĿå»ī":9722,"å¥ĩä¹ĭ":9723,"èĭ¦åĳĬ":9724,"èµ¤å¸»":9725,"ç«ĭäºİéĺµåīį":9726,"å³¡":9727,"æºħ":9728,"èĬ³æĽ°":9729,"ç»£æĹĹ":9730,"ä¸įåıĬä¹Ł":9731,"çĪ½æĽ°":9732,"èĭ±éĽĦä¹Ł":9733,"ä¹¡äºº":9734,"æŃĩé©¬":9735,"æŃĩå®ļ":9736,"ç§ĭéĽ¨":9737,"ç§ĭåħ«æľĪ":9738,"ç§ĭä¸ĥæľĪ":9739,"ç®¡å¾ħ":9740,"åĤ¬èĪ¹":9741,"éŁ¦åº·":9742,"ä¹ĺåĬ¿åĩ»ä¹ĭ":9743,"éļĲè®³":9744,"æ¢ģèĻĶ":9745,"çĶ»æĪĲ":9746,"è¶ĬæĽ°":9747,"è¯ĿéĹ´":9748,"æŃ»æĪĺå¾ĹèĦ±":9749,"èĪŁä¸Ń":9750,"æ¤ģ":9751,"ĠæľªçŁ¥åħ¶è®¡":9752,"æ¬ºåĲ¾":9753,"ç¦ıæĽ°":9754,"åįķæŀª":9755,"åĽŀè§ģåŃĶæĺİ":9756,"åĽŀè§ģæĽ¹æĵį":9757,"åĽŀè§ģåĲ´ä¾¯":9758,"æĿĢåĩºéĩįåĽ´":9759,"éĽ·èĸĦ":9760,"å¤ªåĲİæĽ°":9761,"ç§¦çĲª":9762,"ä¸įä»İèĢħ":9763,"åĹĶ":9764,"åĩ¤åĩ°":9765,"å¼©ç®Ń":9766,"è´£ä¹ĭ":9767,"ç»ıè¿ĩ":9768,"æĭ¦æĪª":9769,"åĤįè¾¹":9770,"æľ¬éĥ¨äººé©¬":9771,"å½§æĽ°":9772,"éģ£äººéĢģ":9773,"æİĪä»¥":9774,"ç«ºæĽ°":9775,"å¾®æĺİ":9776,"æĢ»é¢Ĩ":9777,"ä¸Ģå½ªåĨĽåĩº":9778,"ç¨ĭæĻ®æĽ°":9779,"ä¹Įç¨ĭ":9780,"åĲ¾å·²çŁ¥":9781,"éŁ©éģĤæĽ°":9782,"ä¸ºé¦ĸèľĢå°Ĩ":9783,"ä¸ºé¦ĸä¸Ģåĳĺå¤§å°Ĩ":9784,"æĪĺä¸įåįģåĲĪ":9785,"å¦ĦæĿĢ":9786,"ä¸ľåįĹè§Ĵä¸Ĭ":9787,"å¼łæĺŃçŃī":9788,"èĹıäºİ":9789,"ä¸ºåīįéĺŁ":9790,"ä¸ºåīįé©±":9791,"ç¾İå¥³":9792,"ç¾İé«¯":9793,"åĽŀé¡¾ä¼Ĺå°ĨæĽ°":9794,"è²ĤèĿīæĽ°":9795,"å®½æģķ":9796,"ä¹ıç²®":9797,"ä¸īåįģå¹´":9798,"è¯»åħµä¹¦":9799,"åĽŀåĪ°å¯¨ä¸Ń":9800,"çĽĬå·ŀçī§":9801,"èĨ³":9802,"åĲĬåĲĽ":9803,"é©°æªĦ":9804,"éĻ·åĿĳ":9805,"èĳ£æī¿çŃī":9806,"åľĨå¤Ħ":9807,"åľĨçĿģ":9808,"çļĨæĺ¯éŃıåħµ":9809,"çŀĴè¿ĩ":9810,"åĩŃä¸īå¯¸":9811,"æĹłäººæķ¢":9812,"åĽĽä¸ĭéĩĮ":9813,"ä¸Īå¤«ä¹Ł":9814,"å°¹å¥ī":9815,"ä¸īåįģä½Ļä¸ĩ":9816,"åıĪåĶ¤åħ³åħ´":9817,"æĶ¶åħµåĽŀ":9818,"ç±įæĽ°":9819,"æĢľä¹ĭ":9820,"äº¬åħĨ":9821,"å±ĪèĨĿ":9822,"èĽĩçŁĽ":9823,"èĦļä¸ĭ":9824,"æĳĨåĪĹ":9825,"éº¦çĨŁ":9826,"åħ¥å®«ä¸Ń":9827,"å°ĺåľŁ":9828,"æĪıèĢ³":9829,"çŁŃåĪĢ":9830,"å¯¡ä¸įæķĮ":9831,"éĵ¶åĿĳ":9832,"å¼ĵå¼©é½Ĳåıĳ":9833,"å®¿äºİ":9834,"å¤ªå°īæĿ¨å½ª":9835,"éº¾çĽĸ":9836,"ä¸įç»Ŀåı£":9837,"ä¸ĢæĹ¶ä¹ĭ":9838,"åĲ¾æĸĻåŃĶæĺİ":9839,"å±ıåĲİ":9840,"åįģäºĮåĽŀ":9841,"é¡¹ç¾½":9842,"ä¹ĭæ³ķä¹Ł":9843,"åĨĴçŁ¢çŁ³":9844,"æģĲæľīåŁĭä¼ı":9845,"æ¶ķæ³£":9846,"é©±åħµæİ©æĿĢ":9847,"é©±åħµå¤§è¿Ľ":9848,"åĵ¨é©¬æĬ¥è¯´":9849,"çĩķäºº":9850,"ä¹ĭåĬĽä¹Ł":9851,"ä½¯ä½ľ":9852,"æĲŃèµ·":9853,"åįģäºĶåĽŀ":9854,"éŃĤä¸į":9855,"éŁ³ä¿¡":9856,"åī¿çģŃ":9857,"åľŁäººéĹ®ä¹ĭ":9858,"æ§Ľè½¦":9859,"åĨįæĭľæĽ°":9860,"éĩĬåħ¶ç¼ļ":9861,"èĪĮè¾©":9862,"çĮİäºİ":9863,"éļĨåĨ¬":9864,"æĬ¥åħ¥æ´Ľéĺ³":9865,"çŃīåĢĻå¤ļæĹ¶":9866,"æ·»åħµ":9867,"æ»ļä¸ĭ":9868,"åĨ·ç¬ĳ":9869,"åĲ¾æĦıå·²åĨ³":9870,"æ±Ŀä½ķæķ¢":9871,"é»ĺçĦ¶æĹłè¯Ń":9872,"æ¶ĤçĤŃ":9873,"éĽįå·ŀåĪºåı²":9874,"ä¸ĭå±±æĿ¥":9875,"çļĤè¡£":9876,"ä¸įå¾Ĺå·²èĢĮ":9877,"ä¸įå¾Ĺå·²èĢĮéĻį":9878,"ä»°å¤©éķ¿åı¹æĽ°":9879,"ä¸ºé¦ĸå¤§å°Ĩä¹ĥ":9880,"æĸŃåħ¶å½Ĵè·¯":9881,"åı±æŃ¦å£«æİ¨åĩºæĸ©ä¹ĭ":9882,"åĲ¹æĬĺ":9883,"èµ¦ä¹ĭ":9884,"èĭįå¤©":9885,"åĮºåĮº":9886,"åĨħå¤ĸå¤¹æĶ»":9887,"ç«ĭåĬŁåĲį":9888,"åĵŃæĭľäºİåľ°":9889,"æ·±åħ¥éĩįåľ°":9890,"é¸¡èĤĭ":9891,"äº«å¯Įè´µ":9892,"ç£Ĳ":9893,"è¾°æĹ¶":9894,"éķ¿æ±Łä¹ĭéĻ©":9895,"é¥¶æ±Ŀ":9896,"æĲľåĩº":9897,"åı¬åħ¥éĹ®ä¹ĭ":9898,"åĲĬæ¡¥è¾¹":9899,"éģģçĶ²":9900,"éªģåĭĩ":9901,"é»ĦéĹ¨ä¾įéĥİ":9902,"ç«ĭé©¬äºİæ¡¥ä¸Ĭ":9903,"åīįéĥ¨åħĪéĶĭ":9904,"å¿łèĩ£ä¹Ł":9905,"èµ¤å£ģéıĸåħµ":9906,"åı¥å®ī":9907,"è£´ç§Ģ":9908,"åįĳè¡į":9909,"çĬĴä¸īåĨĽ":9910,"æĬ«åıĳä»Ĺåīĳ":9911,"åĪ«æĹłä»ĸæĦı":9912,"åĲ´ä¸»åŃĻä¼ĳ":9913,"ä¸ľåįĹé£İèµ·":9914,"çŁ«è¯ı":9915,"éĻĪçıªçĪ¶åŃĲ":9916,"èİ·åħ¨åĬŁ":9917,"å±¯ç²®ä¹ĭæīĢ":9918,"çľŁç¥ŀäººä¹Ł":9919,"éĤ¹æ°ı":9920,"é£ŀèº«ä¸Ĭé©¬":9921,"åĨįä½ľèī¯åĽ¾":9922,"è£ģå¤Ħ":9923,"é¹°æī¬":9924,"æ¼³æ²³":9925,"æ¬ºåĲĽç½Ķä¸Ĭ":9926,"ä¼¼æŃ¤å¦Ĥä¹ĭå¥Īä½ķ":9927,"è¿¸è£Ĥ":9928,"æĸŁéħĮ":9929,"ç»ĳç¼ļ":9930,"æŃ£è¯´éĹ´":9931,"å¨ĺå¨ĺ":9932,"æĲ¬è¿Ĳç²®èįī":9933,"èĹ¤çĶ²åĨĽ":9934,"éĺİåľĥ":9935,"æıªä½ı":9936,"ç»°æŀªä¸Ĭé©¬":9937,"è¹ĩç¡ķ":9938,"ä¹ĥåŃĶæĺİä¹Ł":9939,"çİĭåŃĲæľįçŃī":9940,"è¶±ç¨ĭ":9941,"æĩĪæĢł":9942,"æĸĻæķĮä¸įè¿ĩ":9943,"ä¾Ŀå±±åĤį":9944,"åįİå®¹éģĵ":9945,"æĬĺåħµå¤§åįĬ":9946,"è¸ªè¿¹":9947,"ä¸ĢåŃĹåĦ¿":9948,"ä¸Ńå±±éĿĸ":9949,"æĹłå¿ĥæģĭæĪĺ":9950,"çĶ¨å¥½è¨ĢæĬļæħ°":9951,"ä¸ĸæīĢç½ķ":9952,"èĻļå¼łå£°åĬ¿":9953,"æģ¢å¤įä¸ŃåİŁ":9954,"å¤ªå¸¸åį¿":9955,"çıŃéĥ¨ä¸Ń":9956,"æ¼«å±±éģįéĩİ":9957,"ä»¥è¨ĢæĮĳä¹ĭæĽ°":9958,"å¦«è§Ī":9959,"ä»¥åĪ©å®³è¯´ä¹ĭ":9960,"åħ³åĨħä¾¯":9961,"èĤºèħĳ":9962,"éĩĳçİ¯ä¸īç»ĵ":9963,"æ°¸ç»ĵçĽŁå¥½":9964,"åªĴ":9965,"åĳľåĳ¼":9966,"åĲ´å¤ªå¤«äºº":9967,"å²ĺå±±":9968,"çĥ½çģ«":9969,"å¼ĥå¯¨èĢĮèµ°":9970,"æ»ķèĥ¤":9971,"ä¾įç«ĭäºİä¾§":9972,"çīĽå¤´å±±":9973,"å°¸æ¨ªéģįéĩİ":9974,"å±ıé£İåĲİ":9975,"æ¡ĥèĬ±æ¸¡åı£":9976,"è¿ŀäººå¸¦é©¬":9977,"èĢĴéĺ³åİ¿":9978,"æĿĢçīĽå®°":9979,"åħ¨è£ħæĥ¯":9980,"!âĢľ":9981,"?âĢľ":9982,"¤æµ·":9983,"©å¿Ĺ":9984,"³ç¥¥":9985,"é¤":9986,"Ġå¸Ŀ":9987,"Ġå¹²":9988,"Ġçĳ¾":9989,"Ġè°Ń":9990,"ĠæĿİåĤķ":9991,"ĠéĴŁä¼ļ":9992,"Ġå½ĵå¤ľ":9993,"Ġå°ĳé¡·":9994,"ĠåıªåĽł":9995,"ĦåŁİ":9996,"ĨåŃĲ":9997,"ĩå¸Ń":9998,"įéģ¥":9999,"Łé¾Ļ":10000,"ä¸Ŀ":10001,"ãĢĲ":10002,"ãĢĳ":10003,"åħ¹":10004,"å¤Ķ":10005,"å¤Ļ":10006,"æĽ¼":10007,"ä»¿":10008,"ä¹ĭé©¬":10009,"ä¹ĭæĺİ":10010,"ä¹ĭè¯´":10011,"ä¹ĭè´¥":10012,"ä¹ĭçģ«":10013,"ä¹ĭå®¶":10014,"ä¹ĭæ¬¡":10015,"ä¹ĭäº²":10016,"ä¹ĭçĶļ":10017,"ä¹ĭä¹±":10018,"ä¹ĭå¥½":10019,"ä¹ĭçĹħ":10020,"ä¹ĭå¨ģ":10021,"ä¹ĭå¿§":10022,"ä¹ĭä½į":10023,"ä¹ĭçģµ":10024,"åĨ¤":10025,"åĨ°":10026,"åĨķ":10027,"ä¸įèĩ£":10028,"ä¸įå°ı":10029,"ä¸įäº¦":10030,"ä¸įå¾ħ":10031,"ä¸įå¤ļ":10032,"ä¸įä½ľ":10033,"ä¸įæĶ¾":10034,"ä¸įè½»":10035,"ä¸įåħģ":10036,"ä¸įéģĩ":10037,"ä¸įå¹²":10038,"ä¸įåĬł":10039,"ä¸įä¼¼":10040,"ä¸įç»§":10041,"ä¸įæ¯Ľ":10042,"ä¸įèĸĦ":10043,"å¾ĭ":10044,"ä½ĳ":10045,"åŃ©":10046,"å¼¹":10047,"å¼¼":10048,"äººæľĽ":10049,"äººçĶŁ":10050,"äººä¼´":10051,"åĨĽåĬ¿":10052,"åĨĽæĥħ":10053,"åĨĽæł¡å°ī":10054,"åĨĽå¤§ä¹±":10055,"èĢĹ":10056,"åħµå°Ĩ":10057,"åħµåĪĨä¸īè·¯":10058,"åħµéĿ©":10059,"å¿Ĩ":10060,"æķĽ":10061,"å¤§åĽ½":10062,"å¤§ç¤¼":10063,"å¤§é£İ":10064,"ä¸Ģæĺ¯":10065,"ä¸Ģå¾Ģ":10066,"ä¸ĢæľĽ":10067,"ä¸Ģç»Ł":10068,"ä¸Ģåīĳ":10069,"ä¸Ģå¹²":10070,"ä¸Ģä½ĵ":10071,"ä¸Ģåı¶":10072,"ä¸ĢæĹħ":10073,"é©¬è¹Ħ":10074,"å°Ĩåħµ":10075,"å°ĨåĲı":10076,"å·©å¿Ĺ":10077,"ä¼İ":10078,"æĿ¥æĹ¶":10079,"æĿ¥æİ¥":10080,"åĩ¹":10081,"æ±¹":10082,"å¸¼":10083,"æľīå¾·":10084,"æľīçĶļ":10085,"æľīè¯ı":10086,"æľīåĭĩ":10087,"æľīæĹ§":10088,"æľīåĩĨå¤ĩ":10089,"æīŃ":10090,"æĵįä¸İ":10091,"æĵįèĩ³":10092,"æĵįæĸ¹":10093,"æĵįåĽł":10094,"æĵįæĮĩ":10095,"æĵįä½¿äºº":10096,"æĵįå¤§ç¬ĳæĽ°":10097,"æŃ¤å±±":10098,"æŃ¤æŃ£":10099,"æŃ¤äº¦":10100,"æŃ¤åĽĽäºº":10101,"æŃ¤èĩ£ä¹ĭ":10102,"æŃ¤æīĢè°ĵ":10103,"åİ¢":10104,"ç»¥":10105,"ç»½":10106,"ç»ĩå¸Ń":10107,"ä¸ĭèĲ¥":10108,"äºİä¸Ĭ":10109,"äºİå¤©":10110,"äºİéŃı":10111,"äºİå¤ª":10112,"äºİçĲĨ":10113,"äºİå£ģ":10114,"äºİè½¦ä¸Ĭ":10115,"äºİæ°´ä¸Ń":10116,"äºİæ¸Ńæ°´":10117,"äºİéħĴèī²":10118,"äºİåĨĽä¸įåĪ©":10119,"äºİè¯ł":10120,"ä¸Ńéģĵ":10121,"ä¸ºæŃ£":10122,"ä¸ºå¹³":10123,"ä¸ºè´¼":10124,"ä¸ºä¹ī":10125,"ä¸ºå®³":10126,"ä¸ºå¾ģ":10127,"ä¸ºå¤©åŃĲ":10128,"ä¸ºå¦»":10129,"ä¸ºèĤī":10130,"ä¸ºéŃıçİĭ":10131,"ä¸ºåı¸å¾Ĵ":10132,"ä¸ºå¹³åİŁ":10133,"ä¸ºä»İäºĭ":10134,"ä¸ºéªłéªĳå°ĨåĨĽ":10135,"ä¸ºå¤ĸåºĶ":10136,"è§ģå±±":10137,"è§ģå°ĨåĨĽ":10138,"è§ģä»ĸ":10139,"è§ģçĸĳ":10140,"è§ģé©¬è¶ħ":10141,"è§ģè¯Ĩ":10142,"è§ģåħ¶äºº":10143,"èĢĮèĩª":10144,"èĢĮå¾Ĺ":10145,"èĢĮæĭľ":10146,"èĢĮä½ľ":10147,"èĢĮå¥Ķ":10148,"èĢĮåıį":10149,"èĢĮåı¹æĽ°":10150,"èĢĮæĿĢä¹ĭ":10151,"èĢĮçŃĶæĽ°":10152,"èĢĮåĩ»ä¹ĭ":10153,"èĢĮæĹłè°ĭ":10154,"è°¤":10155,"è°¶":10156,"è°ŀ":10157,"éĢįéģ¥":10158,"ä½ķåħ¶":10159,"ä½ķå¹³":10160,"ä½ķå¼Ĥ":10161,"ä½ķäººä¹Ł":10162,"ä½ķèģĮ":10163,"ä½ķåĲīåĩ¶":10164,"å¹ħ":10165,"åĩºé¦ĸ":10166,"åĩºåĵ¨":10167,"åĩºè¥¿éĹ¨":10168,"åĩºå¥ĩåħµ":10169,"åĩºèĮħåºĲ":10170,"åĲ¾ä½ķ":10171,"åĲ¾æĹ¢":10172,"åĲ¾æľīä¸Ģ":10173,"åĲ¾ä¸įå¦Ĥ":10174,"åĲ¾ç´ł":10175,"åĲ¾æŃ»ä¹ĭåĲİ":10176,"éĻª":10177,"åı¯çŁ¥":10178,"åı¯èµ°":10179,"åı¯å°½":10180,"åı¯æķĮ":10181,"åı¯èĥľ":10182,"åı¯åĨį":10183,"åı¯å·®":10184,"åı¯æ¯Ķ":10185,"åı¯æļĤ":10186,"è´Ŀ":10187,"å¯ħ":10188,"åĳķ":10189,"åĲİè·¯":10190,"åĲİåĽł":10191,"åĲİéļı":10192,"ä»¥åĲ¾":10193,"ä»¥çĮ®":10194,"ä»¥è°¢":10195,"ä»¥çĽ®":10196,"ä»¥åĢĻ":10197,"ä»¥éģ¿":10198,"ä»¥åħ»":10199,"å¥ĸ":10200,"æĽ¹çŀĴ":10201,"æĽ¹å¥Ĥ":10202,"åħ¬è§ģ":10203,"åħ¬å°ĨåĨĽ":10204,"ä¸Ĭå¸Ĳ":10205,"ä¸Ĭç®Ń":10206,"è¡«":10207,"è¡·":10208,"å±Ģ":10209,"åŁĥ":10210,"ä»ĬçŁ¥":10211,"ä»Ĭçİĭ":10212,"ä»ĬéŃıåħµ":10213,"ä»Ĭå®ľ":10214,"ä¸İä¸ŀçĽ¸":10215,"ä¸İåĲĽ":10216,"ä¸İèµµäºĳ":10217,"ä¸İå¼łéĥĥ":10218,"ä¸İéĤĵèī¾":10219,"ä¸İéŁ©éģĤ":10220,"ä¸İéĻĪå®«":10221,"ä¸İå®¡éħį":10222,"ä¸İå°ıä¸»äºº":10223,"å¼łæŃ¦":10224,"å¼łç»į":10225,"æĭ£":10226,"æĭ³":10227,"æĭŁ":10228,"åİ»åĬ«å¯¨":10229,"åħ¶å¤§":10230,"åħ¶åħĦ":10231,"åħ¶å®ŀ":10232,"åħ¶å®ľ":10233,"åħ¶åĭĩ":10234,"åħ¶å¤§åįĬ":10235,"åħ¶éĶĲæ°Ķ":10236,"çİĦå¾·èĩª":10237,"çİĦå¾·æķĻ":10238,"çİĦå¾·èĥĮåĲİ":10239,"çİĦå¾·åı¹æĽ°":10240,"çİĦå¾·éĹ»ä¹ĭ":10241,"æĹ¥åĲİ":10242,"æĹ¥å·²":10243,"èĥģ":10244,"ä»¤æ±Ŀ":10245,"ä»¤åħĦ":10246,"ä»¤åºŀå¾·":10247,"ä»¤æŃ¦å£«":10248,"ä»¤è¯¸ä¾¯":10249,"ä¹ĥéŃı":10250,"ä¹ĥå¤į":10251,"ä¹ĥä¹ī":10252,"ä¹ĥä¸ĭé©¬":10253,"ä¹ĥä¸ºä¸ĬçŃĸ":10254,"èĩªä¸º":10255,"å£ĳ":10256,"äºĮåŃĹ":10257,"äºĮçĻ¾éĩĮ":10258,"åĽŀå®«":10259,"åĽŀæľĿ":10260,"åĽŀæ±īä¸Ń":10261,"åĽŀåºľ":10262,"åĽŀè¦Ĩ":10263,"åĽŀè®¸æĺĮ":10264,"åŃĶæĺİå°Ĩ":10265,"åŃĶæĺİåħĪ":10266,"åŃĶæĺİéĹ®æĽ°":10267,"åŃĶæĺİä¹ĭè¨Ģ":10268,"åŃĶæĺİä»İä¹ĭ":10269,"åŃĶæĺİç«¯åĿĲäºİ":10270,"éĿ³ç¥¥":10271,"å¼ķè§ģ":10272,"å¼ķäºĮ":10273,"å¦Ĥä»Ĭ":10274,"å¦Ĥä¸įèĥľ":10275,"å¦Ĥåħ¶ä¸į":10276,"å¦ĤèįīèĬ¥":10277,"åľ¨äºİ":10278,"åľ¨å°ı":10279,"åľ¨åĨĽä¸Ń":10280,"åľ¨éķ¿å®ī":10281,"åľ¨åŁİå¤ĸ":10282,"åľ¨èĲ¥ä¸Ń":10283,"åľ¨çĭ±ä¸Ń":10284,"æĺ¯ä¸Ģ":10285,"æĺ¯æĹ¶":10286,"æĺ¯ä¸ľåĲ´":10287,"åħ¥å¸Ń":10288,"åħ¥éª¨":10289,"åħ¥åºľä¸Ń":10290,"çĽ¸åĲĮ":10291,"çĽ¸åºĶ":10292,"çĽ¸æĶ»":10293,"çĽ¸å¹¶":10294,"å¾ĹçİĦå¾·":10295,"å¾Ĺä¸Ģäºº":10296,"è¢ħ":10297,"æĹłä¿¡":10298,"æĹłæĤ£":10299,"æĹłéĻĲ":10300,"æĿĢæŃ¤":10301,"æĿĢæŃ¤è´¼":10302,"æģĤ":10303,"åħĪæĿ¥":10304,"åħĪåħ¥":10305,"åħĪèĩ³":10306,"åħĪå·®":10307,"åħĪæĸŃ":10308,"ä¸īéĹ¨":10309,"ä¸īæľĪ":10310,"ä¸īçĻ¾ä½Ļäºº":10311,"äºĨä¹Ł":10312,"äºĨè®¸å¤ļ":10313,"ä¸»ä½ķåĲīåĩ¶":10314,"è¯´éŃıåħµ":10315,"è¯´çŁ¥æŃ¤äºĭ":10316,"æĪĳæĺ¯":10317,"æĪĳçľĭ":10318,"æĪĳèĢ¶":10319,"æĪĳåĨĽå¿ĥ":10320,"åħ³ä¸ľ":10321,"åħ³è¥¿":10322,"èĩ³è¿ĳ":10323,"è·ĳ":10324,"åŃĲåįĪ":10325,"åŃĲéĤĵå¿ł":10326,"åĪ°èįĨå·ŀ":10327,"åĪ°æ±īä¸Ń":10328,"åĪ°å¤§å¯¨":10329,"çŁ¥è§ī":10330,"å¤©å¿ĥ":10331,"å¤©ä¹¦":10332,"å¤©éģĵ":10333,"å¤©æĻĵ":10334,"åįģå¹´":10335,"åįģçŁ¢":10336,"çļĨä¸į":10337,"çļĨä»¥":10338,"çļĨåĪ°":10339,"çļĨå¹³":10340,"çļĨåĲĮ":10341,"çļĨéļı":10342,"çļĨåĳ¼":10343,"çļĨå½Ĵäºİ":10344,"äºĭæ³Ħ":10345,"åĸ·":10346,"åĸĤ":10347,"éŃĦ":10348,"å¿ħä»¥":10349,"å¿ħèµ°":10350,"æ±Ŀå°Ĩ":10351,"æĹ¶åĬ¡":10352,"æĹ¶å»ºå®ī":10353,"å½ĵä¸º":10354,"å½ĵå¾Ģ":10355,"å½ĵæĻļ":10356,"å½ĵå¦Ĥä¹ĭä½ķ":10357,"åıĪå¼ķ":10358,"åıĪè´¥":10359,"åıĪä¸ĢåĨĽ":10360,"åıĪå¥ıæĽ°":10361,"åıĪä¸įè§ģ":10362,"å·²å¹³":10363,"å·²å±ŀ":10364,"åıªä»¤":10365,"åıªéĹ»":10366,"åıªç®¡":10367,"åıªä¸īåĲĪ":10368,"èĭ¥æĹł":10369,"èĭ¥çĶ¨":10370,"èĭ¥èľĢåħµ":10371,"èĭ¥è¦ģ":10372,"èĭ¥éŃıåħµ":10373,"å±±è¾¹":10374,"æĬ¥åĪ°":10375,"æĬ¥æĽ¹æĵį":10376,"ä¼Ĺè§Ĩåħ¶äºº":10377,"æ¬²åĽŀ":10378,"æ¬²å½Ĵ":10379,"æ¬²èĩªåĪİ":10380,"æŃ£ä¸ľ":10381,"æŃ£åĿĲ":10382,"æŃ£ä¸įçŁ¥":10383,"æŃ£æĴŀçĿĢ":10384,"ä½¿æĽ°":10385,"ä½¿åħ¶":10386,"ä½¿åĪĺå¤ĩ":10387,"å¯¨è¾¹":10388,"éķ¿ç«ĭ":10389,"éķ¿èĽĩ":10390,"èĻı":10391,"çİĭäºĭ":10392,"çİĭå¨ģ":10393,"çİĭä¹ĭåĲİ":10394,"çİĭç´¯":10395,"åŃĻè§Ĥ":10396,"åŃĻæ°ı":10397,"åŃĻéĿĻ":10398,"åŃĻå¤«äººæĽ°":10399,"å®īä¹Ĳ":10400,"å®īç½®":10401,"éģĤå¾Ĺ":10402,"éģĤèµ·":10403,"éģĤæĸ©":10404,"éģĤå¼ĥ":10405,"éģĤåı¬":10406,"éģĤç½¢":10407,"éģĤä¼łä»¤":10408,"éģĤæĭĶåīĳ":10409,"çºł":10410,"å¿ĥç¥ŀ":10411,"å¿ĥæĢ¯":10412,"éĹ®è®¡äºİ":10413,"é¢¤":10414,"åıĸç®Ń":10415,"åıĸæ±īä¸Ń":10416,"åıĸåįĹéĥ¡":10417,"åıĸæŁĳ":10418,"èµ·æĿ¥":10419,"æŃ»åľ°":10420,"åĲ´åĽ½":10421,"å°ĨåĨĽä¹Ł":10422,"å°ĨåĨĽä¹ĭè¨Ģ":10423,"æĽ¹æĵįå·²":10424,"è®¡è¾ĥ":10425,"è½¨":10426,"è½¸":10427,"æŀ¢":10428,"éªŀ":10429,"çŃīä»ĸ":10430,"ä¾¿çłį":10431,"åĪĨä¸ĢåįĬ":10432,"ä¹¦åĳĪ":10433,"ä»İåħ¶":10434,"ä»İå¤§è·¯":10435,"å»Ļ":10436,"æľªè§£":10437,"æľªçĹĬ":10438,"è¯¸èĩ£":10439,"å²³":10440,"å¸ĥåĲĪ":10441,"èĤ±":10442,"èĤĨ":10443,"èľĢæľī":10444,"èľĢéģĵ":10445,"æ²¥":10446,"æ²¾":10447,"ä¸ľéĥ½":10448,"ä¸ľæĸ¹":10449,"ä¸ľåħ´":10450,"ä¸ľé£İ":10451,"ä¸ľå¾ģ":10452,"ä¸ľå¤§å°ĨåĨĽ":10453,"ä¸ľèİ±":10454,"æĢ¥åĩº":10455,"æĢ¥æĪĺ":10456,"æĢ¥åĭĴé©¬":10457,"æĢ¥æĭ¨é©¬":10458,"è¿ĽæĶ»":10459,"è¿ĽéħĴ":10460,"åįĹäºº":10461,"åįĹéĿ¢":10462,"éĹ»ä¸ŀçĽ¸":10463,"éĹ»åħ¶åĲį":10464,"åĽĽåĽŀ":10465,"åĽĽåŃĹ":10466,"åĽĽå£ģ":10467,"åĽĽå¯¸":10468,"åĽĽåĨ¢":10469,"æķ°å¹´":10470,"èĩ£å·²":10471,"èĩ£éĹ»":10472,"èĩ£æľīä¸Ģè®¡":10473,"æ¸¤æµ·":10474,"å§¬":10475,"å§»":10476,"å§Ĭ":10477,"åį³ä¸İ":10478,"åį³åĲĮ":10479,"åį³ä¼łä»¤":10480,"å¿½åıĪ":10481,"å¿½åıĪæĬ¥":10482,"å¿½æµģæĺŁé©¬":10483,"é»ĺ":10484,"ä¸¤æ¬¡":10485,"ä¸¤ç¿¼":10486,"ä¸¤éĺŁ":10487,"å¾Ģå¾Ĳå·ŀ":10488,"æīĢå®Ī":10489,"æīĢèĥ½":10490,"æīĢä½ľ":10491,"æīĢéªĳ":10492,"æīĢçŁ¥ä¹Ł":10493,"äºĶçĻ¾ä½Ļäºº":10494,"å¹³å¤į":10495,"å¹³åĿ¦":10496,"éĢĢçŁ£":10497,"éĹ¨åīį":10498,"æµ¸":10499,"ä¸ĩå®ī":10500,"ä¸ĩå¹¸":10501,"æ±īå°Ĩ":10502,"æ±īä¸ŀçĽ¸":10503,"æ±īå·Ŀ":10504,"æ±īæ´¥":10505,"æ±īé«ĺç¥ĸ":10506,"æ±īç¥ļ":10507,"åľ°æĽ°":10508,"åľ°åĪ©":10509,"æĸ¹å®ļ":10510,"æĸ¹ä¿¡":10511,"çĶŁä¸įèĥ½":10512,"çĶŁå¼Ĥå¿ĥ":10513,"çĶŁä¸Ģè®¡":10514,"çķħ":10515,"æ°´æ·¹":10516,"éĻįä¹ĭ":10517,"éĻįåĲ´":10518,"çĶ¨å¿ĥ":10519,"çĶ¨åĳ½":10520,"å°ıåĨĽ":10521,"å°ıè¯´":10522,"å°ıå¼Ł":10523,"åı¸åĨľ":10524,"åĲĦåĨĽ":10525,"åĲĦåĽŀ":10526,"åĲĦå®ľ":10527,"åĲĦæ´ŀ":10528,"è¥¿æ´":10529,"å°½æĿĢ":10530,"å°½çĥ§":10531,"æķ¢æĿ¥":10532,"æĥĬæĥ¶":10533,"æīĭä¹¦":10534,"æīĭæĳĩ":10535,"Ġåį´è¯´èµµäºĳ":10536,"Ġåį´è¯´é»Ħå¿ł":10537,"Ġåį´è¯´é²ģèĤĥ":10538,"Ġåį´è¯´è¢ģæľ¯":10539,"å¤ľæĿ¥":10540,"å¤ľè¡Į":10541,"è´¥ç»©":10542,"äº¦çļĨ":10543,"åĲķå¸¸":10544,"åĲ¬åĲ¾":10545,"æĩ¿ç¬ĳæĽ°":10546,"è¯·èĩª":10547,"è¯·åħ³åħ¬":10548,"è¯·éĻĽä¸ĭ":10549,"è¯·äºĮå«Ĥ":10550,"è¢«æĪĳ":10551,"è¢«ä»ĸ":10552,"è¢«èµµäºĳ":10553,"è¢«åĽ°":10554,"åĽ½äºº":10555,"åĽ½æģ©":10556,"ç½¾":10557,"ç½ĳ":10558,"å¸Ŀåīį":10559,"å¸Ŀå®¤":10560,"è´¼èĩ£":10561,"é¢Ĩä¼Ĺ":10562,"åı¸é©¬åħ¬":10563,"åı¸é©¬åŃļ":10564,"è®¸ä»ª":10565,"å·¦èĩĤ":10566,"éĶĢ":10567,"éĶĦ":10568,"ä¸įåı¯è¡Į":10569,"ä¸įåı¯å¤į":10570,"çĳľç¬ĳæĽ°":10571,"äºĮäººèĩ³":10572,"åĲįçĪµ":10573,"è¢ģéļĹ":10574,"éĿŀæĪĳ":10575,"éĿŀæ¯Ķ":10576,"æķĻä¸Ķ":10577,"éģĵä¸Ń":10578,"éģĵè¢į":10579,"èº«æĹł":10580,"èº«è¢«":10581,"èº«è¾¹":10582,"ç«ĭä¸Ģ":10583,"ç«ĭæĿĢ":10584,"ç«ĭä¸ļ":10585,"ç«ĭèĲ¥å¯¨":10586,"å¤ļå¹´":10587,"å¤ļçĹħ":10588,"çľĭè§ģ":10589,"çľĭåĲ¾":10590,"çľĭä¹¦æ¯ķ":10591,"åĲĮå®Ī":10592,"ä¼ıåĩł":10593,"æķĳæĪĳ":10594,"æķĳéĨĴ":10595,"æĦıä¹Ł":10596,"æŃ¦çİĭ":10597,"æŃ¦çļĩå¸Ŀ":10598,"æĪĲäºĨ":10599,"å¤ıåĽĽæľĪ":10600,"åħ³åħ¬å¤§æĢĴ":10601,"åħ³åħ¬çĪ¶åŃĲ":10602,"æŁĲä¸İ":10603,"æŁĲèĻ½":10604,"ç»įå¤§æĢĴ":10605,"æķĮæ¥¼":10606,"å®ļéĻ¶":10607,"è¿ĩæŃ¤":10608,"åĲĪå½ĵ":10609,"å¹´çºª":10610,"æĸ©æĿ¥ä½¿":10611,"çłĢ":10612,"å®¶å¥´":10613,"èµ¶åĩº":10614,"èİ¹":10615,"å¼ķåħµåİ»":10616,"å¼ķåħµåħ¥":10617,"å¼ķåħµæľĽ":10618,"å¼ķåħµæĿĢåĪ°":10619,"ç¬ĳèĢĮä¸į":10620,"ä½ľä¹±":10621,"ä½ľè¯´å®¢":10622,"åĪĢåī²":10623,"å¹¶å°Ĩ":10624,"é«ĺåĨĪ":10625,"åĮĹæľī":10626,"è¿½å¯»":10627,"èĪ¹å¤´":10628,"è°ĭä¹ĭ":10629,"æļ¨":10630,"éĻĪåħ°":10631,"éĻĪéªŀ":10632,"æĬķä¹ĭ":10633,"æĬķè¢ģç»į":10634,"æĿİæĦı":10635,"æĿİè¾ħ":10636,"æĿİç¦ı":10637,"è½¦éªĳ":10638,"èįĨå·ŀä¹ĭäºĭ":10639,"å½ĴåĪ°":10640,"è°ĵåŃĶæĺİæĽ°":10641,"éĩįæĿĥ":10642,"éĩįæŀ£":10643,"æģĲäºº":10644,"æģĲä¼¤":10645,"åĳĬä»¥":10646,"æĦ¿ä¹Ł":10647,"æĦ¿å¾Ĺ":10648,"æĦ¿éļı":10649,"æĦ¿æķĪ":10650,"åıĳæİĺ":10651,"æĶ¾ä¹ĭ":10652,"æĶ¾åİ»":10653,"æİ¥è§ģ":10654,"éļıèº«":10655,"èĻ½ä¼Ĺ":10656,"èĻ½å¤ļ":10657,"èĻ½èĤĿèĦĳæ¶Ĥåľ°":10658,"ä»ĸåİ»":10659,"ä»ĸåį´":10660,"åķ¸":10661,"çĪ¶èĢģ":10662,"çĪ¶ä»ĩ":10663,"çĽ´æĿĢ":10664,"èľĢåħµçļĨ":10665,"èľĢåħµåıĪ":10666,"åıĹæķĮ":10667,"ä¸įèĥ½ä¸ĭ":10668,"ä¸įèĥ½æķĳ":10669,"ä¸įèĥ½çŃĶ":10670,"ä¸įèĥ½å¾ĹèĦ±":10671,"ä¸įèĥ½æĬµå½ĵ":10672,"ä¸įèĥ½å¾Ĺåĩº":10673,"å¤ıä¾¯å¨ģ":10674,"å¤ıä¾¯æĥł":10675,"å¦ĤæŃ¤ä¹ĭ":10676,"å¦ĤæŃ¤æĹłç¤¼":10677,"åĨįæľī":10678,"åĨįä¼ĳ":10679,"åĪĻèįĨå·ŀ":10680,"è¿ŀèĲ¥":10681,"è¿ŀçıł":10682,"ç¿ł":10683,"ä¹ĺé£İ":10684,"ä¹ĺèĪŁ":10685,"æĹĹæģ¯":10686,"å°ļåŃĺ":10687,"å¤įçĶŁ":10688,"å¤įå¤º":10689,"éªĳåĿĲ":10690,"åĬŁèĩ£":10691,"è¶³ä»¥":10692,"å¥ıè¯·":10693,"ä¼ĳåĲ¬":10694,"åĲķå¸ĥäºİ":10695,"åĲķå¸ĥä¹ĥ":10696,"åĿĲå®Ī":10697,"çĭ®":10698,"éĥ¡äºº":10699,"éħĴåĲİ":10700,"éħĴéĨī":10701,"å¥īå¤©åŃĲ":10702,"æĽ´æį¢":10703,"çł´æĪĳ":10704,"ä¹īå£«":10705,"ä¹±ç®Ń":10706,"å°ģæĽ°":10707,"å°ģä¾¯":10708,"å°ģè°ŀ":10709,"ä¹ħå¿ħ":10710,"ä¹ħä½ı":10711,"è¯¸èĳĽæŃ¦ä¾¯":10712,"è¯¸èĳĽéĿĵ":10713,"æľ¬æĺ¯":10714,"æľ¬å¤Ħ":10715,"è¦ģæĸ©":10716,"è¦ģåĩºæĪĺ":10717,"åįĵèĨº":10718,"åĶ¤è¯¸å°Ĩ":10719,"åķĨè®®æ¬²":10720,"çĸĳæľī":10721,"ç¤¼å¾ħä¹ĭ":10722,"é¾Ļé£ŀ":10723,"é¾Ļé©¹":10724,"èĳ£åĲİ":10725,"èĳ£å¤ªå¸Ī":10726,"å¤©ä¸ĭå¹¸çĶļ":10727,"è§£åİ»":10728,"è§£è¡£":10729,"è§£åħ¶ç¼ļ":10730,"éĥ¨åħµ":10731,"æĶ¶ä½ı":10732,"æĶ¶èī¾":10733,"æľĿè´º":10734,"å§ĵæĿİ":10735,"éĩĳçŁ³":10736,"éĩĳéĽģ":10737,"éŃıå»¶ä¹Ł":10738,"åŃĻæĿĥåľ¨":10739,"èİ·å¤§èĥľ":10740,"é½Ĳæĺİ":10741,"é½Ĳå¤ĩ":10742,"é£İéĽ¨":10743,"é£İéĽ·":10744,"é£İéĽª":10745,"é£İéª¤èµ·":10746,"åŃĹåŃ£":10747,"åĨĽå£«æĽ°":10748,"åĨĽå£«çļĨ":10749,"å½¼å°Ĩ":10750,"æ¶¦":10751,"æ¶¨":10752,"æ¶ĵ":10753,"è§Ĥä¹¦":10754,"éĢģä¹ĭ":10755,"éĢģåİ»":10756,"äº®èĩª":10757,"åı¸é©¬æĩ¿ä¸º":10758,"è¿ľæİ¥":10759,"è¿ľå¿Ĺ":10760,"é¡»åıĳ":10761,"é¡»è¦ģ":10762,"å¼ĥæŃ¤":10763,"å¸¦é¢Ĩ":10764,"å¸¦ç®Ń":10765,"éĵĥ":10766,"èī¯å°Ĩ":10767,"ä½ĨéĹ»":10768,"åĽ´åľº":10769,"åĵŃåĳĬ":10770,"æ¨½":10771,"èħ¿":10772,"è¿ĺèĲ¥":10773,"è¿ĺä¸ľåĲ´":10774,"å¯ĨåĳĬ":10775,"å¯ĨåĶ¤":10776,"çıį":10777,"è¾ŀèĢĮåİ»":10778,"è¾ŀä¸įåıĹ":10779,"ä½łæĪĳ":10780,"ä½łäºĮäºº":10781,"ä½łä¸¤ä¸ª":10782,"åħ«çĻ¾":10783,"åħ«éĹ¨":10784,"åħ«å²ģ":10785,"å°ĦæĿ¥":10786,"æıĲå¤§åħµ":10787,"çĻ½æ²³":10788,"æ²³åįĹ":10789,"åı¹æľį":10790,"ä¼łä¸ĭ":10791,"ä¼łæªĦ":10792,"æĢĿæĽ°":10793,"å¥½äºº":10794,"å¥½æŃ¹":10795,"é¥®äºĨ":10796,"äºİæĺ¯åŃĶæĺİ":10797,"åĿļå£ģ":10798,"åı·æ³£":10799,"éĥĥåıĪ":10800,"æīĵæŃ»":10801,"æīĵæİ¢":10802,"åĭ¿ä½¿":10803,"ä¸įçŁ¥åħ¶æĦı":10804,"è½»è¿Ľ":10805,"èĤ¯éĻį":10806,"æ»¥":10807,"æ»Ķ":10808,"è±Ĩ":10809,"åħ±çĽ¸":10810,"åħ±æĶ»":10811,"åĨ²å¼Ģ":10812,"æľįä¹ĭ":10813,"ä¸įæķ¢åĩº":10814,"æ¢ĨåŃĲ":10815,"è°¢ä¹ĭ":10816,"è°¢æĹĮ":10817,"èĽŁé¾Ļ":10818,"å®ľè¿Ł":10819,"æ±ĤåĴĮ":10820,"æ·±ä¸º":10821,"å¼ķåĨĽèĩ³":10822,"åĪ«äºº":10823,"çĹħåĬ¿":10824,"åĨ³è®¡":10825,"åĨ³èĥľè´Ł":10826,"èĻİè§Ĩ":10827,"èĻİé¡»":10828,"èĻİå¨ģ":10829,"æļĹä¼ı":10830,"æļĹå¼±":10831,"ä¸¾æĿ¯":10832,"ä¸¾åŃĿå»ī":10833,"ä¸ĥåĽŀ":10834,"ä¸ĥåįģ":10835,"ä¸ĥä¸ĩ":10836,"åŃ¤äº¦":10837,"åŃ¤èº«":10838,"åŃ¤ç©·":10839,"é©¬è¶ħæĽ°":10840,"ç¥ŀåħµ":10841,"çĶ²åŃĲ":10842,"å¾ģåįĹ":10843,"æĸŃåĲ¾":10844,"æĸŃæ¡¥":10845,"æĸŃç»Ŀ":10846,"å±ħä½ķèģĮ":10847,"èĴĻå¤´":10848,"å¹¸è®¸éĥ½":10849,"æĮĩæľĽ":10850,"å¯¹å±±":10851,"åĲİä¸»ä»İä¹ĭ":10852,"é£Łæ±īç¦Ħ":10853,"å¤©åŃĲè¯ı":10854,"å¨ģæĿĥ":10855,"ä¾įå¥ī":10856,"åħ¨ç«¯":10857,"åıªè§ģéŃıåħµ":10858,"åıªè§ģåīįéĿ¢":10859,"æ¯įåŃĲ":10860,"éªĤä¸įç»Ŀåı£":10861,"æķ£éªĳ":10862,"æģ¨ä¹ĭ":10863,"ç§°å¥ĩ":10864,"åį¿è¨Ģ":10865,"èģļäºİ":10866,"åĭĩå°Ĩ":10867,"æĽ¾è§ģ":10868,"çī¹éģ£":10869,"é»Ħå¿łæĽ°":10870,"æĸ°åĲĽ":10871,"æľķèĩª":10872,"æľķèº¬":10873,"åĪºä¹ĭ":10874,"åºľåºĵ":10875,"çŁ³éĺµ":10876,"åħŃåĽŀ":10877,"ç³Ĭ":10878,"ä¼Ĳä¸ŃåİŁ":10879,"èĥĮåĲİéŃıåħµ":10880,"å¿§ä¹Ł":10881,"ä¸´æ±Ł":10882,"èĽ®äºº":10883,"éĿĴæĹĹ":10884,"éĿĴåı²":10885,"éĢĥèµ°":10886,"ç¥ĸèĮĤ":10887,"æ¡¥èķ":10888,"å¯»ä¸įè§ģ":10889,"èĭ±ä¿Ĭ":10890,"ä½¿äººå¾Ģ":10891,"ä½¿äººè¯·":10892,"ç»ĵä¸ľåĲ´":10893,"ç»ĵæĿŁ":10894,"èĶ¡çĲ°":10895,"å¤§åĨĽèĩ³":10896,"ç¦»å¯¨":10897,"çĽĸåĽł":10898,"éĺŁä¸Ń":10899,"éĺŁéĩĮ":10900,"ä¸ĢéĿ¢ä½¿äºº":10901,"ä¸ĢéĿ¢éģ£äºº":10902,"çĶĺå½ĵåĨĽä»¤":10903,"å¿½æĬ¥æĽ¹æĵį":10904,"ä¸¥çĻ½èĻİ":10905,"ä¹Ŀå·ŀ":10906,"ä¹Ŀæ±Ł":10907,"ä¹Ŀå²ģ":10908,"åĲİäººæľī":10909,"è¢ŃæĪĳ":10910,"åĢĴéĢĢ":10911,"åĸĦä¿Ŀ":10912,"æľ¨éĹ¨":10913,"æľ¨åĮ£":10914,"åĬłä¹ĿéĶ¡":10915,"ä¸įå¦ĤæĦı":10916,"æĥ§åĵī":10917,"æĥ§æĢ¯":10918,"æģ¯æĢĴ":10919,"çĦ¶åĲİåı¯":10920,"æĹ§äº¤":10921,"èĭŀæĽ°":10922,"æ³°æĽ°":10923,"çªģåħ¥":10924,"æĭĴæĽ¹æĵį":10925,"ç¦ģåħµ":10926,"èµ´æķĮ":10927,"èµ´å¸Ń":10928,"éĢłæľ¨çīĽæµģé©¬":10929,"è¤ļæĽ°":10930,"æĭĽè°ķ":10931,"æĭĽåĭŁ":10932,"äºĮåįģæĹ¥":10933,"æĮºä¸Īåħ«":10934,"å²¸åı£":10935,"æķ¬ç¤¼":10936,"åĬĿæĪĳ":10937,"çĿ¿å¤§åĸľ":10938,"å¼Ĥäºº":10939,"å¼ĤæĹ¥":10940,"å¼Ĥå¸¸":10941,"æ»¡åľ°":10942,"æ»¡æľĿ":10943,"ç¾¤è´¼":10944,"çģµåīį":10945,"æĴĩ":10946,"åĪ©äºİ":10947,"èĩ´æĦı":10948,"ä»ªè¡¨":10949,"ä»ªäºŃ":10950,"èİ«æµĭ":10951,"åıĺåĮĸ":10952,"åĪĿåĪ°":10953,"æľ±åħī":10954,"çģŃæĹı":10955,"å¤§äºĭæµİçŁ£":10956,"ä»¥ä¸ºä½ķå¦Ĥ":10957,"ä»¥ä¸ºçĸĳåħµ":10958,"ä»¥ä¸ºä¹ħè®¡":10959,"åĤķæĽ°":10960,"åĸĬå£°å¤§ä¸¾":10961,"è¿ĻçŃī":10962,"è¿ĻæĿ¡":10963,"æĢĢæģ¨":10964,"å¤§è´¥èĢĮåĽŀ":10965,"åĢĺèĭ¥":10966,"ç©ºä¸Ń":10967,"ç©ºåŁİ":10968,"ç©ºå¯¨":10969,"æĬĺä¼¤":10970,"æĳĺ":10971,"äººæĬ¥æĽ°":10972,"åį§çīĽ":10973,"æī¶çĹħ":10974,"æī¶ç¤¾ç¨·":10975,"æĭĶåĩº":10976,"äºīè¡¡":10977,"æ½Ń":10978,"æ½¸çĦ¶":10979,"æĺ¥é¦Ļ":10980,"æµİåĮĹ":10981,"ä¸ģä»ª":10982,"æīĺåĲį":10983,"æīĺçĸ¾":10984,"éĻ¤éĿŀ":10985,"æİ©å¿ĥ":10986,"å¿ĥä¸Ńå¿§éĹ·":10987,"æĪªåħ¶":10988,"è¢įè¢ĸ":10989,"æľīä½ķéļ¾":10990,"ç¥Ńæĸĩ":10991,"æ´Ľæ°´":10992,"å¹¼åŃĲ":10993,"æ´ŀåı£":10994,"çĬ¹çĦ¶":10995,"æ¨ªæĪª":10996,"æ¨ªçŁĽ":10997,"æįīå¾Ĺ":10998,"å®Ŀè´Ŀ":10999,"è°ĥæ²»":11000,"ä¼ĹçļĨå¤§æĥĬ":11001,"ä¼ĹçļĨå¤±èī²":11002,"èµįæį§":11003,"èµįéĩĳçıł":11004,"æ³£æĭľæĽ°":11005,"åĪĨåħµä¸ĢåįĬ":11006,"æ²»ä¸Ń":11007,"æ²»åĽ½":11008,"çłįåĢĴ":11009,"å´ĸ":11010,"å¸Ńä¸Ĭ":11011,"å¸Ńåį·":11012,"çĶ°æ¥·":11013,"åº¶äºº":11014,"æĬµæĮ¡":11015,"è¿Łå»¶":11016,"èįĢé¡Ĺ":11017,"ä¹ĭæĦıèĭ¥ä½ķ":11018,"éģĹè¯ı":11019,"ç²¾åħµäºĶåįĥ":11020,"åĩłäºº":11021,"åĩłæĹ¥":11022,"æĺŁå¤ľèĩ³":11023,"åĩīå·ŀ":11024,"ç´łä¸İ":11025,"çĽ¸è§ģæ¯ķ":11026,"å»·å°ī":11027,"èĤīè®¡":11028,"æĺĵå·ŀ":11029,"è¯¯äºĭ":11030,"èĭ¦åĬĿ":11031,"èĭ¦èĤīè®¡":11032,"åħ¥è§ģåĲİä¸»":11033,"èĸ¨":11034,"çº¢åħī":11035,"åĨĽå¸Īä½ķæķħ":11036,"éŃıä¸»æĽ°":11037,"åĲ´åħµå¤§è´¥":11038,"å¼łç¿¼æĽ°":11039,"åºŁä¸»":11040,"åºŁéķ¿ç«ĭ":11041,"éĶ¦è¡£":11042,"ä¹¡ä¸Ń":11043,"ä¹¡éĩĮ":11044,"ç®¡ä»²":11045,"çİĩå¤§åĨĽ":11046,"æĸ½ç¤¼æ¯ķ":11047,"çļĵæĽ°":11048,"å·®äººèµį":11049,"åı°ä¸Ĭ":11050,"å¤¹å±±å³ª":11051,"æĹłä¸įéªĩçĦ¶":11052,"å½ĵåħĪåĩºé©¬":11053,"è¶Ĭå²Ń":11054,"èĿĹ":11055,"åıĤè§ģ":11056,"æ²ĽåŁİ":11057,"åĿļå®Īåĭ¿":11058,"åº¦ä¹ĭ":11059,"åĽŀè§ģçİĦå¾·":11060,"åĽŀè§ģåĳ¨çĳľ":11061,"åĢŁæĪĳ":11062,"åĢŁç²®":11063,"åĢŁèįĨå·ŀ":11064,"æļĤä¸Ķ":11065,"éĺ»ä½ı":11066,"éģ£ä½¿èµį":11067,"æİĮä¸Ń":11068,"å¹¶æĹłä¸Ģäºº":11069,"å·¾å¸¼":11070,"è´¹èĢĢ":11071,"éŀŃæĮŀ":11072,"åĩ¤ä»ªäºŃ":11073,"æĢ¨è¨Ģ":11074,"å¼©é½Ĳåıĳ":11075,"æ¦Ĥ":11076,"éĺ¿çŀĴ":11077,"æľ¬éĥ¨åĨĽé©¬":11078,"è¯ļå¿ĥ":11079,"æĭįæ¡Ī":11080,"éģ£äººå¾Ģ":11081,"æĹıå¼Ł":11082,"ç»Ĩä½ľæĬ¥çŁ¥":11083,"éĨīåį§":11084,"æİĪä¸İ":11085,"è¥¿åĩīå·ŀ":11086,"è¥¿åĩīå¤ªå®Ī":11087,"è¥¿åĩīä¹ĭåħµ":11088,"æķĪåĬĽ":11089,"åľ£é©¾":11090,"æĢ»æĳĦ":11091,"ä¸Ģå½ªåĨĽåĪ°":11092,"ä¸Ģå½ªåĨĽæĿĢæĿ¥":11093,"æĶ¹ä¸º":11094,"æĶ¹æĬ¹":11095,"æİĴå¼Ģ":11096,"æİĴæĪĲéĺµåĬ¿":11097,"çĪµç¦Ħ":11098,"åµĮ":11099,"é¥®éħĴéĹ´":11100,"éĽªæģ¨":11101,"æ²Ļæĳ©":11102,"æ²Ļæ¼ł":11103,"ä¸įè¶³èĻĳ":11104,"å¦Ħè¨Ģ":11105,"èĥ¡çĥĪ":11106,"ç§»åħµ":11107,"å®£è°ķ":11108,"å¯¸åĬŁ":11109,"æ¥ĻæĽ°":11110,"æ¸Ńæ²³":11111,"å¿ĺä¹ĭ":11112,"éģŃæŃ¤":11113,"æ¸Ĳè¿ĳ":11114,"åĲĦèĩªæĶ¶åħµ":11115,"æ±īä¸ŃçİĭæĽ°":11116,"å·¡èŃ¦":11117,"å¼łä»»æĽ°":11118,"éĩıä¸Ģ":11119,"äºĶåįģäºº":11120,"å¾ĲçĽĽæĽ°":11121,"åŃĺæģ¤":11122,"éŃıçİĭæĽ¹ä¸ķ":11123,"ç¾İäºº":11124,"åĨµä»Ĭ":11125,"åħ¥å¸ĲåĳĬæĽ°":11126,"ç®Ĺä¹Ł":11127,"æĿľè¢Ń":11128,"å®½ä»ģ":11129,"åĩĮæĵį":11130,"ç«¯çļĦ":11131,"æ®ĭåħµ":11132,"æ®ĭæļ´":11133,"åħĭå¤į":11134,"ç»§æ¯į":11135,"åºĦä¸Ĭ":11136,"å·´éĥ¡":11137,"åı¯éĢŁåİ»":11138,"è°ģæķ¢åİ»":11139,"ä¸īåįģéªĳ":11140,"çīĻéĹ¨":11141,"æľĢä¸º":11142,"æľĢåĸĦ":11143,"æ´»åĳ½":11144,"åģĩèĬĤéĴº":11145,"çĨŁæĢĿä¹ĭ":11146,"è¿½ä¹ĭä¸įåıĬ":11147,"åĲİäººæľīè¯Ĺèµŀä¹ĭæĽ°":11148,"é»ĳæ°Ķ":11149,"å½¢è²Į":11150,"åľ¨åĲİåĽŃ":11151,"ä¸īæĹ¥åĲİ":11152,"ä¸īæĹ¥åĨħ":11153,"æĬ¼è¿ĩ":11154,"èį¡èį¡":11155,"ç¤ºä¼Ĺ":11156,"å¤ıä¾¯éľ¸æĽ°":11157,"çŀĴæĪĳ":11158,"ç«ĸåŃĲ":11159,"ç«ĸèµ·":11160,"çĲ®æĽ°":11161,"æ¯ĽåĲİ":11162,"åĽĽä¸ĭæĹłè·¯":11163,"æ¯ĶåıĬå¤©æĺİ":11164,"ç¯¡ä½į":11165,"ä»įä»¤":11166,"åıĪåĶ¤éŃıå»¶":11167,"èĢĢæŃ¦æī¬å¨ģ":11168,"åĢ¾åĽ½":11169,"èįĨè¥Ħä¹Ŀéĥ¡":11170,"éĦĦåŁİ":11171,"éĻĦä½ĵ":11172,"æ¬£åĸľ":11173,"äºĮåŃĲæĽ°":11174,"åħ¥åĲİå®«":11175,"åħ¥åĲİåĽŃ":11176,"åīįåĲİå¤¹æĶ»":11177,"åĲ´ä¸»åŃĻæĿĥ":11178,"æĹ©æĻļå¿ħ":11179,"éº¦çĶ°":11180,"å´Ķç¦¹":11181,"æºªè¾¹":11182,"æĿŁèįī":11183,"åįłæį®":11184,"ä¼ĺç¤¼çĽ¸å¾ħ":11185,"çŃµå®´":11186,"çŃµå¸Ń":11187,"æĻĶæĽ°":11188,"åħ·è¨Ģåīįäºĭ":11189,"åŃĶèŀįæĽ°":11190,"åĿłé©¬":11191,"åĿłäºİé©¬ä¸ĭ":11192,"ç»ķåŁİ":11193,"å®¿åį«":11194,"æĥ¶æĥ¶":11195,"éĽ¶èĲ½":11196,"å¤ªå°īçİĭ":11197,"å±ıéĢĢå·¦åı³":11198,"åįģäºĮæľĪ":11199,"å¾ħä¹ĭçĶļåİļ":11200,"æįŁåħµ":11201,"åįİæŃĨå¥ıæĽ°":11202,"åĨĴæ¸İ":11203,"æĢķæŃ»":11204,"éĤ£éĩĮèĤ¯":11205,"ä½¯è¾ĵ":11206,"çİĦå¾·ä¸İåŃĶæĺİ":11207,"æĳĩæĹĹ":11208,"éģ®æĭ¦":11209,"æģ¢æĽ°":11210,"èįĴæ·«":11211,"éĻĪä»ĵéģĵåı£":11212,"å¿Įä¹Ł":11213,"æī¯ç¢İ":11214,"æ²¹æŁľ":11215,"æĿİåĦĴæĽ°":11216,"æıĴæĹĮæĹĹ":11217,"é¦Ĩé©¿å®īæŃĩ":11218,"åįģæķ°äºº":11219,"åĿŀä¸Ń":11220,"åĨ¬åįģæľĪ":11221,"å®ªèĭ±":11222,"æŃ¤å¿ħæĺ¯":11223,"å¯Ŀé£Ł":11224,"çŁ¥æĺ¯è®¡":11225,"å¤ºè·¯èµ°èĦ±":11226,"æ½ľåľ°":11227,"çħ§èĢĢ":11228,"è¹Ī":11229,"åĨ¯ç¤¼":11230,"æģŃç¥ĸ":11231,"å¤©åľ°éĹ´":11232,"äºĭä¸įæĪĲ":11233,"äºĭä¸įå®ľè¿Ł":11234,"çīĩè¨Ģ":11235,"çīĩçĶ²":11236,"åģ·è¿ĩ":11237,"æİ¢åĲ¬èĻļå®ŀ":11238,"åĮ¹é©¬åįķæŀª":11239,"åŀĴæĸŃ":11240,"è´¾åħħæĽ°":11241,"çĽĹè´¼":11242,"éĢĲä¸Ģ":11243,"éķ¿æ²Ļå¤ªå®Ī":11244,"åĽ½ä¹ĭè´¼":11245,"åĨ·ç®Ń":11246,"åĲ¾äº¦æ¬²":11247,"æģķä¹ĭ":11248,"åĽĽåįģä¹Ŀ":11249,"äºİåĲīç«ĭäºİ":11250,"çļĤæĹĹ":11251,"çļĤç»¦":11252,"ä¸Ģç®Ńå°Ħåİ»":11253,"éĢıéĩįåĽ´":11254,"ä»İèĢħæĽ°":11255,"èĴ¯èī¯":11256,"éĥŃåĽ¾æĽ°":11257,"æİ¢é©¬é£ŀæĬ¥":11258,"ä¹ĭä¸»ä¹Ł":11259,"å·¨éĽ·":11260,"åĩ¯æŃĮ":11261,"åĮºå¤Ħ":11262,"æĮŁä½ı":11263,"æĮŁå¤©åŃĲ":11264,"èº«éķ¿ä¹Ŀå°º":11265,"åłķæ³ª":11266,"èĦĳè¢ĭ":11267,"æ´»æįīäºĨ":11268,"æĵĤé¼ĵåĳĲåĸĬ":11269,"æĿĳå¤«":11270,"å¤§ä¼ļæĸĩæŃ¦":11271,"ä¸įåı¯ä¸įéĺ²":11272,"ç´«é«¯":11273,"éĥ¿åŁİ":11274,"éķ¿åĿĤæ¡¥":11275,"åĿĩæĽ°":11276,"çĭĤé£İéª¤èµ·":11277,"ä¹°é©¬":11278,"ä¹ĭè°ĭä¹Ł":11279,"è¾ĵäºĨä¸Ģéĺµ":11280,"åĽŀå¤´çľĭæĹ¶":11281,"åĪĨæĭ¨å·²æ¯ķ":11282,"åĶĲåĴ¨":11283,"é¥¶ä½ł":11284,"èĭĹæ³½":11285,"èĩªåĪİèĢĮæŃ»":11286,"åīįèĩ³ä¸Ģ":11287,"åıªå®ľåĿļå®Ī":11288,"çĿģçĽ®":11289,"åįĬæĻĮæĸ¹èĭı":11290,"æľªåı¯è½»æķĮ":11291,"æĮ¡ä½ı":11292,"æĮ«åĬ¨":11293,"æĬ¤éĢģè½¦ä»Ĺ":11294,"ä¸¤è·¯åħµæĿĢæĿ¥":11295,"æŁ´æ¡ĳéĥ¡":11296,"æĤĶä¹ĭæĹłåıĬ":11297,"å·¥éĥ¨":11298,"éĿ¢å¦Ĥéĩįæŀ£":11299,"è£´åħĥç»į":11300,"æ£ºæ¤ģ":11301,"æĸ½ç¤¼æĽ°":11302,"æŃ¤ä½ķäººä¹Ł":11303,"ä¸ĭåħ³æĿ¥":11304,"å¾Ĳå¾ĲèĢĮéĢĢ":11305,"çĬĴåĨĽ":11306,"éĩĳé¼ĵé½Ĳé¸£":11307,"åģĥæĹĹæģ¯":11308,"æ·³äºİä¸¹":11309,"èŃ¬":11310,"è°¥çĪ¶":11311,"å¹ķåºľ":11312,"å¹ķå®¾":11313,"æĭħåľŁ":11314,"æ»¡éĿ¢ç¾ŀæĥŃ":11315,"å¨ģé£İåĩĽåĩĽ":11316,"å¨ģéľĩå¤©ä¸ĭ":11317,"è¯¦ä¹ĭ":11318,"ä»¥ç»ĿåĲİæĤ£":11319,"ä¸Ĭæµģå¤´":11320,"æĢ¥éĢĢæĹ¶":11321,"ä½ľä¸Ģä¹¦":11322,"æįĲçĶŁ":11323,"æĻ®åĩĢæĽ°":11324,"æłĳæľ¨ä¸ĽæĿĤ":11325,"äºĭæĢ¥çŁ£":11326,"èĤ¡èĤ±":11327,"çĹĬåı¯":11328,"èĶ½æĹ¥":11329,"è¡ĢæµģæĪĲ":11330,"æī¬å·ŀåĪºåı²":11331,"....":11332,"ä¸Ģç°ĩäººé©¬":11333,"æĬĽæĪĪ":11334,"ç¥Īç¥·":11335,"å¹¶ä¸įè§ģä¸Ģäºº":11336,"åıĹç¦ħåĿĽ":11337,"é²ľè¡Ģ":11338,"åħ«è·¯è¯¸ä¾¯":11339,"å¼ĵç®Ńæīĭ":11340,"èļķ":11341,"å¾½æĽ°":11342,"æİ³æİł":11343,"åĿŁå¢ĵ":11344,"åĮĨåĮĨ":11345,"ç§ĺä¹¦":11346,"éĩįåĬłèµıèµĲ":11347,"åıįéĹ´ä¹ĭè®¡":11348,"æļĹæļĹç§°å¥ĩ":11349,"ç¼ĵç¼ĵèĢĮè¡Į":11350,"éĻĦèĢ³ä½İè¨Ģ":11351,"æĹłè¨Ģåı¯":11352,"èĬĴçłĢ":11353,"åĿĲèĢĮå¾ħ":11354,"è¿Ļä¸ªæ¶Īæģ¯":11355,"æĢ¥åĪĩéļ¾":11356,"æīĢä½©ä¹ĭåīĳ":11357,"æµĬä¹Ł":11358,"æīĺçĹħä¸įåĩº":11359,"ç¢Įç¢Į":11360,"æĭĨå¼Ģè§Ĩä¹ĭ":11361,"åħµä¸´åŁİä¸ĭ":11362,"æŃ»æĹłæģ¨":11363,"çĸ¼çĹĽ":11364,"çĭĦéģĵåŁİ":11365,"ä½ķè¶³ä¸ºå¥ĩ":11366,"æĬ±å¤´é¼łçªľèĢĮåİ»":11367,"æĬĸæĵŀç²¾ç¥ŀ":11368,"åħµå¾®å°Ĩå¯¡":11369,"è°ĲçŁ£":11370,"åŃĻä»²è°ĭ":11371,"éªĨè°·":11372,"éªıé©¬":11373,"ç¦½åħ½":11374,"æŃ¦åŁİå±±":11375,"åĬ¿ç©·åĬĽ":11376,"è¿ŀçİ¯è®¡":11377,"éĩĳåŁİå¤ªå®Ī":11378,"çļĩåŃĲåįı":11379,"èħĲåĦĴ":11380,"ä¹Ŀæ³īä¹ĭä¸ĭ":11381,"å¤©èī²å·²æĻļ":11382,"äºİä¸Ńåıĸäºĭ":11383,"èĩªå¤ĸèĢĮåħ¥":11384,"æĿĢæĿ¡è¡Ģè·¯":11385,"çļĨå°ģåĪĹä¾¯":11386,"å½ĵçĶ¨ä½ķçŃĸ":11387,"é½ĳç²ī":11388,"ä¸įæķ¢æŃ£è§Ĩ":11389,"åħīç¦Ħå¤§å¤«":11390,"è¸Ĭè·ĥ":11391,"ç¡¬å¼©":11392,"èıľ":11393,"å¤©èį¡å±±":11394,"å½ĵå¤įå¦Ĥä½ķ":11395,"æŃ£å¥Ķèµ°éĹ´":11396,"å¸ĥåĳĬå¤©ä¸ĭ":11397,"æĸ¹å¤©æĪŁ":11398,"è¥¿å¹³åħ³":11399,"ä¸įèĥ½å®¹çī©":11400,"æ®ĦçģŃ":11401,"è±ºçĭ¼":11402,"è°ıè®®å¤§å¤«":11403,"æ²ĽåĽ½è°¯":11404,"çĽĺèĽĩè°·":11405,"çĵ¦åı£åħ³":11406,"åĸıåĸıè¿ŀå£°":11407,"ä¸įçĥĤä¹ĭèĪĮ":11408,"å¼Īæ£ĭ":11409,"æ±²æ°´":11410,"éĥĹèĻĳ":11411,"ä¹ĥåħ³åħ´ä¹Ł":11412,"éĺ³å®īåħ³":11413,"éĻĪåħĥé¾Ļ":11414,"åķ¼åĵŃ":11415,"èµĲéħĴåİĭæĥĬ":11416,"åĩŃä¸īå¯¸ä¸įçĥĤä¹ĭèĪĮ":11417,"å¯¡ä¸įæķĮä¼Ĺ":11418,"èĪĮè¾©ä¹ĭå£«":11419,"é¥¶æ±ĿæĢ§åĳ½":11420,"ä¸ĢæĹħä¹ĭå¸Ī":11421,"æŃ¤èĩ£ä¹ĭæľªè§£":11422,"åŃĲåįĪè°·":11423,"è¥¿æ´±":11424,"éĩĳéĽģæ¡¥":11425,"æ¡¥èķ¤":11426,"åºŁéķ¿ç«ĭå¹¼":11427,"æ²Ļæĳ©æŁ¯":11428,"åģĥæĹĹæģ¯é¼ĵ":11429,"¢éĻµ":11430,"©¹":11431,"¬éģĵ":11432,"®èŀį":11433,"¶èĥ¸":11434,"¹ģ":11435,"¹éĽ":11436,"¾åİ¿":11437,"æ©¹":11438,"ç¹ģ":11439,"èŀ":11440,"èŁ":11441,"éį":11442,"Ġä¼ı":11443,"ĠçŃĸ":11444,"ĠåĲķå¸ĥ":11445,"Ġæīį":11446,"Ġå¼łéĥĥ":11447,"ĠçĿ¿":11448,"ĠæĽ¹çľŁ":11449,"Ġä¸īäºº":11450,"Ġåı¸é©¬æĺŃ":11451,"Ġè¯»":11452,"ĠæŃ¦ä¾¯":11453,"Ġå¾Ĳåº¶":11454,"Ġçİĭåħģ":11455,"Ġæĺ¯å¹´":11456,"Īé±¼":11457,"ĭé¡¿":11458,"ĴéºŁ":11459,"Łåħĥ":11460,"ãĢĤâĢľ":11461,"ãĢĤâĢĶâĢĶ":11462,"äºļ":11463,"åı¨":11464,"åĲģ":11465,"åĲĿ":11466,"ä¹ĭä¹Ł":11467,"ä¹ĭä½¿":11468,"ä¹ĭå¯¨":11469,"ä¹ĭä¸ľ":11470,"ä¹ĭè®®":11471,"ä¹ĭå¤«":11472,"ä¹ĭç²®":11473,"ä¹ĭè¡¨":11474,"ä¹ĭèĢ³":11475,"ä¹ĭéļ¾":11476,"ä¹ĭå®³":11477,"ä¹ĭåıĶ":11478,"ä¹ĭæ¯į":11479,"ä¹ĭåįĴ":11480,"ä¹ĭç¦ı":11481,"ä¹ĭå¢ĥ":11482,"ä¹ĭçĽŁ":11483,"ä¹ĭå½¢":11484,"ä¸įæĹ¥":11485,"ä¸įåį³":11486,"ä¸įå¾Ģ":11487,"ä¸įåĸľ":11488,"ä¸įæķĳ":11489,"ä¸įå¤±":11490,"ä¸įçĿĢ":11491,"ä¸įåħ±":11492,"ä¸įçĲĨ":11493,"ä¸įæµİ":11494,"ä¸įä¹ł":11495,"ä¸įæķ°æĹ¥":11496,"ä¸įä¸ĢæĹ¶":11497,"ä¸įæĦ§":11498,"ä¸įæķ·":11499,"å¾µ":11500,"æĺ¶":11501,"æĺĨ":11502,"æĺł":11503,"äººæĽ°":11504,"äººä¸ĭ":11505,"äººåİ»":11506,"äººäºĭ":11507,"äººæ°ı":11508,"åĨĽæľī":11509,"åĨĽæĹł":11510,"åĨĽèĩ³":11511,"åĨĽåĪĨ":11512,"åĨĽéĢĢ":11513,"è¯¤":11514,"è¯°":11515,"è¯ĺ":11516,"èĢĥ":11517,"åħµåľ¨":11518,"åħµæĹł":11519,"åħµè´µ":11520,"åħµå¤§ä¹±":11521,"å¿Ĵ":11522,"å¿Ŀ":11523,"é©½":11524,"å¤§å£°":11525,"å¤§åĬ¿":11526,"å¤§èĢ³":11527,"å¤§èİ·":11528,"å¤§è®¾":11529,"å¤§åº¦":11530,"å¤§æºĥ":11531,"å¤§æĮ¯":11532,"å¤§æģ¸":11533,"å¤§çĬĴä¸īåĨĽ":11534,"ä¸Ģä¹Ł":11535,"ä¸ĢéĹ¨":11536,"ä¸ĢçĶŁ":11537,"ä¸Ģä¼ļ":11538,"ä¸ĢèĲ¥":11539,"ä¸Ģåıĳ":11540,"ä¸ĢæĮĩ":11541,"ä¸ĢéĢļ":11542,"ä¸Ģçķª":11543,"ä¸Ģå°º":11544,"ä¸Ģæ¢¦":11545,"ä¸ĢçŁĽ":11546,"ä¸ĢæĿ¡è·¯":11547,"ä¸Ģå®µ":11548,"é©¬å¤´":11549,"é©¬éĤĪ":11550,"é©¬åŃŁèµ·":11551,"å°ĨæŃ¤":11552,"å°ĨéħĴ":11553,"å°Ĩä½Ĳ":11554,"å°Ĩåľ¨å¤ĸ":11555,"èµĺ":11556,"å··":11557,"æĪ³":11558,"ä¼ī":11559,"ä¼Ļ":11560,"æĿ¥è·¯":11561,"æĿ¥æİ¢":11562,"æĿ¥æ±Ĥ":11563,"æĿ¥çļĦ":11564,"æĿ¥åĬ©æĪĺ":11565,"æĿ¥æŃ¤ä½ķ":11566,"è®¹":11567,"æľīä¸ī":11568,"æľīåı¸":11569,"æľīç½ª":11570,"æľīä½ķä¸į":11571,"æľīä»ĩ":11572,"æľīçĲĨ":11573,"æľīè¿Ŀ":11574,"çĽ¼":11575,"æīģ":11576,"æĵįäºİ":11577,"æĵįçŁ¥":11578,"æĵįäº¦":11579,"æĵįè°ĵ":11580,"æĵįå°ģ":11581,"æĵįåĶ¤":11582,"æĵįæī§":11583,"æĵįåı¹æĽ°":11584,"æĵįéĹ»è¨Ģ":11585,"æĵįéĹ®åħ¶æķħ":11586,"æĵįç»ĥ":11587,"æĵįçĦ¶åħ¶è¨Ģ":11588,"æĵįçĦ¶ä¹ĭ":11589,"æŃ¤ä¸º":11590,"æŃ¤æĹ¥":11591,"æŃ¤åıĸ":11592,"æŃ¤æķ°":11593,"æŃ¤éģĵ":11594,"æŃ¤è°ĭ":11595,"æŃ¤æ³ķ":11596,"æŃ¤åĲ¾ä¹ĭ":11597,"ä¸ĭæĽ°":11598,"ä¸ĭå°Ĩ":11599,"ä¸ĭå£«":11600,"ä¸ĭé¦ĸ":11601,"ä¸ĭåłĤ":11602,"ä¸ĭåįķ":11603,"ä¸ĭéĺ¶":11604,"ä¸ĭèĲ¥å¯¨":11605,"äºİæĽ¹æĵį":11606,"äºİæ±Ł":11607,"äºİåĨĽä¸Ń":11608,"äºİè¥Ħéĺ³":11609,"äºİéĺµåīį":11610,"äºİå±±åĥ»":11611,"äºİéĤºéĥ¡":11612,"ä¸Ńåħ´":11613,"ä¸Ńå¤§å¤«":11614,"ä¸ŃéĢĶ":11615,"æĬĳ":11616,"ä¸ºä¹Ł":11617,"ä¸ºåħ¬":11618,"ä¸ºå¤ĩ":11619,"ä¸ºå·¦":11620,"ä¸ºåı³":11621,"ä¸ºå®¶":11622,"ä¸ºæľ¬":11623,"ä¸ºç¬¬":11624,"ä¸ºä¾įä¸Ń":11625,"ä¸ºä¸ĸåŃĲ":11626,"ä¸ºåªĴ":11627,"çĶµ":11628,"è§ģæľī":11629,"è§ģæĪĳ":11630,"è§ģåĲķå¸ĥ":11631,"è§ģåįĵ":11632,"è§ģåŁİä¸Ĭ":11633,"èĢĮä¸º":11634,"èĢĮæ¬²":11635,"èĢĮå¾ħ":11636,"èĢĮå°±":11637,"èĢĮç¬ĳæĽ°":11638,"èĢĮè°¢æĽ°":11639,"éĢ¾":11640,"ä½ķåĲİ":11641,"ä½ķä¹ĥ":11642,"ä½ķæīĢ":11643,"ä½ķåıĬ":11644,"ä½ķå°ļ":11645,"ä½ķåıį":11646,"ä½ķç½ª":11647,"ä½ķæŃ¢":11648,"ä½ķæĽ¾":11649,"ä½ķåĬ³":11650,"ä½ķçĥ§":11651,"ä½ķè¿Ł":11652,"åĩºäºĨ":11653,"åĩºåĪ°":11654,"åĩºéĹ¨":11655,"åĩºèº«":11656,"åĩºå¤ĸ":11657,"åĩºåĬĽ":11658,"åĩºæľĿ":11659,"åĩºå±¯":11660,"åĩºæ±īä¸Ń":11661,"åĩºæĢ¨è¨Ģ":11662,"åĲ¾äºİ":11663,"åĲ¾ä¹Ł":11664,"åĲ¾åīį":11665,"åĲ¾åį³":11666,"åĲ¾æĸ¹":11667,"åĲ¾çĶļ":11668,"åĲ¾çĪ¶":11669,"åĲ¾æĥ³":11670,"åĲ¾éļıåĲİ":11671,"åĲ¾èĭ¥ä¸į":11672,"åĲ¾æĿ¥æĹ¥":11673,"åĲ¾å½ĵåħĪ":11674,"åĲ¾çĪ±":11675,"åĲ¾å¦¹":11676,"åĲ¾æľīä¸Ģè®¡":11677,"åĲ¾æĹłå¿§çŁ£":11678,"åĲ¾å¤ľæ¢¦":11679,"éĻķ":11680,"åı¯éĹ®":11681,"åı¯åĳ½":11682,"åı¯æĪĲ":11683,"åı¯æĸ©":11684,"åı¯è°ĵ":11685,"åı¯åıĬ":11686,"åı¯ä½¿äºº":11687,"åı¯çģŃ":11688,"åı¯åĪĨåħµ":11689,"åı¯èĥľä¹Ł":11690,"è´§":11691,"åĲİå¿ĥ":11692,"åĲİä¸ĸ":11693,"åĲİåľŁ":11694,"åĲİåłĤ":11695,"ä»¥åĨĽ":11696,"ä»¥æĺİ":11697,"ä»¥åħ¬":11698,"ä»¥å°ĨåĨĽ":11699,"ä»¥ä¸ŀçĽ¸":11700,"ä»¥çł´":11701,"ä»¥æ±Ĥ":11702,"ä»¥è¾¾":11703,"ä»¥è®¨":11704,"ä»¥éĢļ":11705,"ä»¥ç»§":11706,"ä»¥æħ¢":11707,"ä»¥æħ°":11708,"ä»¥èµĦ":11709,"ä»¥å®īæ°ĳ":11710,"ä»¥éĢĢèľĢåħµ":11711,"æĺİå¸Ŀ":11712,"æĺİçıł":11713,"æĽ¹å¯¨":11714,"æĽ¹æĺĤ":11715,"åħ¬ä¸İ":11716,"åħ¬èĩª":11717,"åħ¬èĥ½":11718,"åħ¬å¤§æĢĴ":11719,"åħ¬åı°":11720,"ä¸Ĭé¦ĸ":11721,"ä¸ĬéĽ¨":11722,"ä¸Ĭå²Ń":11723,"è¡¢":11724,"è¡ħ":11725,"å±¦":11726,"ä»Ĭåį´":11727,"ä»ĬæĦ¿":11728,"ä»ĬæĹ©":11729,"ä»Ĭåı¸é©¬æĩ¿":11730,"ä»Ĭå¼ĥ":11731,"ä»Ĭé©¬è¶ħ":11732,"ä»Ĭéĥ½çĿ£":11733,"ä»Ĭçī¹":11734,"ä»Ĭéģĩ":11735,"ä»Ĭä½ķæķħ":11736,"ä»Ĭå¤§çİĭ":11737,"ä»Ĭä¸»ä¸Ĭ":11738,"ä»Ĭåľ¨ä½ķå¤Ħ":11739,"çİĦæŃ¦":11740,"ä¸İäºº":11741,"ä¸İå¼łé£ŀ":11742,"ä¸İä¸»åħ¬":11743,"ä¸İå½¼":11744,"ä¸İä¸ľåĲ´":11745,"ä¸İé©¬è¶ħ":11746,"ä¸İéĥ½çĿ£":11747,"ä¸İåį¿":11748,"ä¸İä¼Ĺå®ĺ":11749,"ä¸İåĪĺçĴĭ":11750,"ä¸İæĽ¹åĨĽ":11751,"ä¸İæ³ķæŃ£":11752,"å¼łèī¯":11753,"å¼łä»ª":11754,"å¼łåĨĢ":11755,"æĭ¯":11756,"æĭŃ":11757,"åİ»æĬķ":11758,"åİ»åĲĳ":11759,"åİ»å¯»":11760,"åħ¶åĨĽ":11761,"åħ¶ä¸Ģ":11762,"åħ¶ä¸Ĭ":11763,"åħ¶äºĮ":11764,"åħ¶åīį":11765,"åħ¶èĥ½":11766,"åħ¶æ°´":11767,"åħ¶å¿ł":11768,"åħ¶å¤´":11769,"åħ¶èĥĮ":11770,"åħ¶å®³":11771,"åħ¶å¥³":11772,"åħ¶ä¸Ńæľī":11773,"çİĦå¾·åħ¬":11774,"çİĦå¾·ä»¤":11775,"çİĦå¾·çŃī":11776,"çİĦå¾·è¯·":11777,"çİĦå¾·éĹ®æĽ°":11778,"çİĦå¾·é¢Ĩåĳ½":11779,"çİĦå¾·æĭľè°¢":11780,"çİĦå¾·åĨįä¸ī":11781,"çİĦå¾·åı±æĽ°":11782,"çİĦå¾·æĸ¹æīį":11783,"çİĦå¾·ç§°è°¢":11784,"æĹ¥ä¸Ń":11785,"æĹ¥æľŁ":11786,"æĹ¥ç£":11787,"æĹ¥æļ®":11788,"åŁİåĮĹ":11789,"åŁİäºŃä¾¯":11790,"åŁİåŀ£":11791,"ä»¤å°Ĩ":11792,"ä»¤æĺİ":11793,"ä»¤åħĪ":11794,"ä»¤æĪĳ":11795,"ä»¤ä¼Ĺ":11796,"ä»¤äºĳéķ¿":11797,"ä»¤èµµäºĳ":11798,"ä»¤æĽ¹ä»ģ":11799,"ä»¤åħ³åħ´":11800,"ä¹ĥäºİ":11801,"ä¹ĥèĩ³":11802,"ä¹ĥå¤©":11803,"ä¹ĥæ±ī":11804,"ä¹ĥå¼łé£ŀ":11805,"ä¹ĥåŃĻæĿĥ":11806,"ä¹ĥæļĹ":11807,"ä¹ĥèµµäºĳä¹Ł":11808,"èĩªåľ¨":11809,"èĩªæĬķ":11810,"èĩªè§£":11811,"èĩªéĢģ":11812,"èĩªæĸĻ":11813,"èĩªåı·ä¸º":11814,"èĩªç¼¢":11815,"äºĮåĽŀ":11816,"äºĮåĽ½":11817,"äºĮçĻ¾ä½Ļ":11818,"åĽŀæķĳ":11819,"åĽŀåĳĬ":11820,"åĽŀå¾Ĳå·ŀ":11821,"åĽŀéŁ³":11822,"åŃĶæĺİåĽŀ":11823,"åŃĶæĺİéģĤ":11824,"åŃĶæĺİæĢ¥":11825,"åŃĶæĺİçľŁ":11826,"åŃĶæĺİå¤§æĢĴæĽ°":11827,"åŃĶæĺİçŃĶæĽ°":11828,"å¼ķåĩº":11829,"å¼ķè¿Ľ":11830,"å¼ķçĻ¾ä½Ļéªĳ":11831,"å¼ķè½»éªĳ":11832,"è¨Ģä¸į":11833,"è¨Ģäºİ":11834,"å¦ĤæĹł":11835,"å¦ĤåĲĮ":11836,"å¦ĤçĻ½":11837,"å¦Ĥéģĩ":11838,"å¦ĤåıįæİĮ":11839,"åľ¨ä¸Ń":11840,"åľ¨æĦı":11841,"åľ¨ä½į":11842,"åľ¨è®¸æĺĮ":11843,"åľ¨æĸ°éĩİ":11844,"åľ¨èĪ¹ä¸Ĭ":11845,"åľ¨èĪ¹ä¸Ń":11846,"åľ¨è¢ģç»įå¤Ħ":11847,"åľ¨æķĮæ¥¼ä¸Ĭ":11848,"åľ¨å½ĵéĺ³éķ¿åĿĤ":11849,"æĥ®":11850,"æĺ¯ä½ķå¤Ħ":11851,"åħ¥æĿ¥":11852,"åħ¥å±±":11853,"åħ¥æĭľ":11854,"åħ¥èįĨå·ŀ":11855,"åħ¥èĲ¥":11856,"åħ¥æĢĢ":11857,"åħ¥å¸Ĳä¸Ń":11858,"çĽ¸éĹ®":11859,"çĽ¸åĲĪ":11860,"çĽ¸ä¼ł":11861,"çĽ¸æİ¢":11862,"çĽ¸å¯¹":11863,"çĽ¸çº¦":11864,"å¾Ĺè§ģ":11865,"å¾Ĺæ°´":11866,"å¾Ĺè¿ĩ":11867,"å¾Ĺç½ª":11868,"å¾Ĺåħį":11869,"æĹłå¾·":11870,"æĹłåĬŁ":11871,"æĹłå¥Ī":11872,"æĹłåı¯ä¸º":11873,"æĿĢè¿ĩ":11874,"æĿĢæĪ®":11875,"æĶĺ":11876,"æģº":11877,"åħĪæĿĢ":11878,"åħĪè¯´":11879,"åħĪçŁ¥":11880,"åħĪèµ°":11881,"åħĪå¼ķä¸ĢåĨĽ":11882,"åħĪéģ£äºº":11883,"ä¸īä¹Ł":11884,"ä¸īç®Ń":11885,"ä¸īæĢĿ":11886,"ä¸īæ´ŀ":11887,"ä¸īçĻ¾ä½ĻéĩĮ":11888,"è¯´å¾Ĺ":11889,"è¯´ä¸ľåĲ´":11890,"æĪĳæľ¬":11891,"èĩ³ç¬¬":11892,"èĩ³å°Ĭ":11893,"èĩ³æ±Łå¤ı":11894,"èĩ³åĽĽæĽ´":11895,"èĩ³éĿ¢åīį":11896,"é£¨":11897,"è·ĭ":11898,"åŃĲä¹Ł":11899,"åŃĲä¼¯":11900,"åŃĲä¾Ħ":11901,"åŃĲçīĻ":11902,"åŃĲåħ°":11903,"åĪ°åŁİä¸ĭ":11904,"åĪ°å¸Ĳä¸ĭ":11905,"çŁ¥æĵį":11906,"çŁ¥åħµæ³ķ":11907,"å¤©æľī":11908,"å¤©è´¥":11909,"å¤©èµĲ":11910,"åįģåĽŀ":11911,"åįģä¸īå¹´":11912,"åįģä¸ĢåĽŀ":11913,"åįģä¹ĿåĽŀ":11914,"çļĨæĽ°":11915,"çļĨçŁ¥":11916,"çļĨåĲ¬":11917,"çļĨåĽł":11918,"çļĨä¸įæķ¢":11919,"äºĭåı¯":11920,"äºĭåľ¨":11921,"äºĭæĹł":11922,"äºĭå¿ħ":11923,"äºĭæĪĲ":11924,"äºĭå®ļ":11925,"å¿ħä¸Ń":11926,"å¿ħå°½":11927,"æ±Ŀå¿ħ":11928,"æ±Ŀèĥ½":11929,"æ±Ŀäº¦":11930,"æ±Ŀä½ķäºº":11931,"æĹ¶äºº":11932,"æĹ¶ä¸º":11933,"æĹ¶ä¹Ł":11934,"æĹ¶éŃı":11935,"æĹ¶è¾°":11936,"æĹ¶å»ºå®īäºĮåįģ":11937,"å½ĵåį³":11938,"éŃıéĥ½çĿ£":11939,"åıĪåİ»":11940,"åıĪèµ°":11941,"åıĪè¡¨":11942,"åıĪä¸įçŁ¥":11943,"åıĪå¼ķåĨĽ":11944,"åıĪæĭ¨":11945,"åıĪé¸£":11946,"åĪĺåº¦":11947,"åĪĺå·´":11948,"å·²åĲİ":11949,"å·²æĺ¯":11950,"å·²éĢĢ":11951,"å·²ä¸§":11952,"åıªèĪ¹":11953,"åıªå°±":11954,"åıªçĸĳ":11955,"åıªå¥½":11956,"åıªæĢķ":11957,"åıªåģļ":11958,"èĭ¥æĿ¥":11959,"èĭ¥äºĳéķ¿":11960,"èĭ¥æŀľ":11961,"å±±åŁİ":11962,"å±±æ²³":11963,"å±±å°ıè·¯":11964,"æĬ¥çİĦå¾·":11965,"æĬ¥ç§°":11966,"äºĳéĽ¾":11967,"æ¬²ä¸º":11968,"æ¬²åĩº":11969,"æ¬²å¾Ĺ":11970,"æ¬²æĬ¥":11971,"æ¬²æķĳ":11972,"æ¬²åıį":11973,"æ¬²è¦ģ":11974,"æ¬²å¯»":11975,"æ¬²åĩºæĪĺ":11976,"æ¬²æĬ¥ä»ĩ":11977,"åį´ä¹ĭ":11978,"åį´åıª":11979,"åį´éĥ½":11980,"åį´å¾ħ":11981,"åį´åĨį":11982,"åį´ä¸įçŁ¥":11983,"æ¯Ļ":11984,"æŃ£è¥¿":11985,"æŃ£è¸Įèºĩ":11986,"æĪĺå°Ĩ":11987,"æĪĺè´¥":11988,"æĪĺåĲķå¸ĥ":11989,"ä½¿å½¼":11990,"è·¯åı£":11991,"è·¯éĢĶ":11992,"å¯¨åŃĲ":11993,"éķ¿äºĮ":11994,"éķ¿ä¹ħ":11995,"éķ¿æıĸ":11996,"èĻ«":11997,"çİĭåĮĸ":11998,"çİĭåĮ¡":11999,"çİĭèİ½":12000,"çľŃ":12001,"æ³Į":12002,"å·ŀå¹³":12003,"åŃĻä¼ĳ":12004,"åŃĻéĥİ":12005,"å®īå¿ĥ":12006,"å®īåĽ½":12007,"å®īå¤©ä¸ĭ":12008,"å®īéĤĳ":12009,"éģĤæķĻ":12010,"éģĤæĭ¨":12011,"éģĤåĬł":12012,"éģĤè¿Ľåħµ":12013,"éģĤçĤ¹":12014,"éģĤè¿ŀå¤ľ":12015,"çº£":12016,"å¿ĥå®ŀ":12017,"éĹ®ä»ĸ":12018,"éĹ®åĢĻ":12019,"é¢ĵ":12020,"é¢ĸ":12021,"åıĸæ±Ŀ":12022,"åıĸèľĢ":12023,"åıĸéħĴ":12024,"åıĸä¹Ĳ":12025,"åıĸå¾Ĳå·ŀ":12026,"åıĸè¥Ħéĺ³":12027,"èµ·åĨĽ":12028,"èµ·ä¹ī":12029,"èµ·è°¢æĽ°":12030,"æŃ»ä¹Ł":12031,"æŃ»å®Ī":12032,"æŃ»åĳ½":12033,"æŃ»äº¦":12034,"è¡Įåħµ":12035,"è¡Įèµ°":12036,"è¡ĮåĬ¨":12037,"è¡ĮåĪº":12038,"å®Īè¡ĹäºŃ":12039,"åĲ´æľī":12040,"åĲ´æĩ¿æĽ°":12041,"åĲ´ç¡ķ":12042,"æĽ¹æĵįä»¥":12043,"æĽ¹æĵįäº¦":12044,"è®¡ä¼ļ":12045,"è®¡çĤ¹":12046,"çŃīæĽ°":12047,"çŃīåķĨè®®":12048,"ä¾¿ä¸º":12049,"ä¾¿æĿĢ":12050,"ä¾¿è¿ĺ":12051,"ä¾¿åĪº":12052,"ä¾¿åĢĴ":12053,"åĪĨéģĵ":12054,"åĪĨå¼Ģ":12055,"åĪĨæķ£":12056,"åĪĨåĪĹ":12057,"åĳ½å·¦åı³":12058,"ä»İå®¹":12059,"å»ª":12060,"æľªä¸º":12061,"æľªèĩ³":12062,"æľªéģĩ":12063,"æľªè¯Ĩ":12064,"æľªéĨĴ":12065,"è¯¸åŃĲ":12066,"æĻĴ":12067,"èĪ°":12068,"å¸ĥäºİ":12069,"å¸ĥå¤§æĢĴæĽ°":12070,"å¸ĥåĪĹ":12071,"å¸ĥè¢ĭ":12072,"èľĢåĨĽ":12073,"ç¬®èŀį":12074,"ä¸ľåįİ":12075,"ä¸ľæµ·":12076,"æĿĥéĹ®":12077,"æĿĥä»İåħ¶è¨Ģ":12078,"ä¾¯æ²³":12079,"é£ŀæĿ¥":12080,"é£ŀæ£¹":12081,"æĢ¥éĹ®":12082,"æĢ¥çŁ£":12083,"æĢ¥æĿ¥æķĳ":12084,"éĿ¢ä¸įæĶ¹":12085,"åįĹåĮĹ":12086,"åįĹé¡¿":12087,"åįĹçļ®":12088,"éĹ»åħ¬":12089,"éĹ»è¯´":12090,"èµ°åĽŀ":12091,"èµ°æĹ¶":12092,"èµ°è·¯":12093,"åĽĽéĺŁ":12094,"åĽĽäºĶåįģåĲĪ":12095,"æķ°æŀª":12096,"æķ°æŃ¥":12097,"èĩ£æŃ»":12098,"èĩ£è¯·":12099,"èĩ£éĿŀ":12100,"èĩ£åıĹ":12101,"åį³èĩ³":12102,"åį³åıĸ":12103,"åį³è¯·":12104,"åį³èµĲ":12105,"åį³ä½¿äºº":12106,"å¿½ä¸ĢæĹ¥":12107,"ä¸¤æĿ¡è·¯":12108,"å¾ĢåĬ©":12109,"å¤ĩè¯´":12110,"å¤ĩå½ĵ":12111,"å¤ĩè¿°":12112,"æīĢèµĲ":12113,"äºĶåĽŀ":12114,"äºĶåħ³":12115,"æŁ¥":12116,"å¹³ä¾¯":12117,"éĢĢäºĨ":12118,"éĢĢæŃ¥":12119,"æľĽéĻĽä¸ĭ":12120,"éĹ¨åĨħ":12121,"éĹ¨èĢĮåħ¥":12122,"æµļ":12123,"ä¸ĩåħ¨":12124,"ä¸ĩæĶ¿":12125,"ä¸ĩæĪ·":12126,"æ±īä¹ĭ":12127,"æ±īåĨĽ":12128,"æ±īéĺ³":12129,"æ±īç¥Ģ":12130,"åľ°ä¸Ĭ":12131,"åľ°æĸ¹":12132,"åľ°åĲį":12133,"æķħæīĺ":12134,"ç²ª":12135,"ç§ĥ":12136,"æĸ¹åĩº":12137,"æĸ¹æķ¢":12138,"æĸ¹æŃ¢":12139,"æĸ¹éĨĴ":12140,"æĸ¹æĤŁ":12141,"çĶŁéĹ¨":12142,"çĶŁåĬĽ":12143,"å¤ĦèĢĮèµ°":12144,"å¤Ħä¸ĸ":12145,"æĸĩåı°":12146,"æĸĩçļĩå¸Ŀ":12147,"æĸĩåĩŃ":12148,"æ°´çģ«":12149,"æ°´åı£":12150,"éĻįäºĨ":12151,"éĻįä¹¦":12152,"éĻįè´¼":12153,"éĻįæĹĹ":12154,"éĻįåįĴ":12155,"çĶ¨æīĭ":12156,"çĶ¨éĵģ":12157,"çĶ¨èį¯":12158,"çĶ¨æŃ¤è®¡":12159,"å°ıåŃĲ":12160,"å°ıèĩ£":12161,"å°ıåİ¿":12162,"å°ıä¾Ħ":12163,"å£°åĸı":12164,"å°½æķ°":12165,"å°½åıĳ":12166,"å°½çĿĢ":12167,"æķ¢éĹ®":12168,"é»Ħé¾Ļ":12169,"é»ĦåĬŃ":12170,"é»Ħæ±īåįĩ":12171,"æĥĬåĢĴ":12172,"æĥĬéĹ®åħ¶æķħ":12173,"æīĭæĮĩ":12174,"æīĭæĮģ":12175,"ç¦¾":12176,"è®®æ¬²":12177,"è®®ç«ĭ":12178,"Ġåį´è¯´åŃĻçŃĸ":12179,"Ġåį´è¯´éĻĨéĢĬ":12180,"å¤ľåĪĻ":12181,"è´¥éĺµ":12182,"äº¦åľ¨":12183,"äº¦èĩ³":12184,"äº¦çŁ¥":12185,"äº¦å½ĵ":12186,"äº¦éĿŀ":12187,"äº¦éªĤæĽ°":12188,"çĸ¥":12189,"åĲ¬ä»İ":12190,"åĲ¬åħ¶è¨Ģ":12191,"æĩ¿å¤§æĥĬæĽ°":12192,"è¯·åħ¬":12193,"è¯·å¸Ŀ":12194,"è¯·å¤«äºº":12195,"è¢«åĲ¾":12196,"è¢«ä¼¤":12197,"åĽ½æľī":12198,"åĽ½çİĭ":12199,"åĽ½ä¹¦":12200,"åĽ½å¯º":12201,"ç½©":12202,"ä¸ĶæĽ°":12203,"ä¸ĶæĿĥ":12204,"ä¸Ķä½ı":12205,"è´¼åħļ":12206,"è®¸åħģ":12207,"è®¸è´¡":12208,"å¿łå¿ĥ":12209,"å¿łåĲĽ":12210,"å¿łåŃĿ":12211,"éĶ¹":12212,"éĶħ":12213,"ä¸įåı¯éĢłæ¬¡":12214,"çĳľä»¤":12215,"çĳľåĳ½":12216,"äºĮäººæĽ°":12217,"å¾ħæĿ¥":12218,"å¾ħä¸ºä¸Ĭå®¾":12219,"ç»´ä»¤":12220,"éĿŀæ±ĿçŃī":12221,"æķĻè¯²":12222,"åĨħåıĺ":12223,"ä¸ŀçĽ¸æľī":12224,"ä¸ŀçĽ¸ä»¤":12225,"ä¸ŀçĽ¸æ¬²":12226,"ä¸ŀçĽ¸éĴ§":12227,"ä¸ŀçĽ¸ä¸´ç»Ī":12228,"éģĵå£«":12229,"èº«èĻ½":12230,"èº«å¸¦":12231,"ç«ĭèµ·":12232,"å¤ļå¸¦":12233,"å¤ļåįĬ":12234,"åĲĮåĽŀ":12235,"åĲĮå¹´":12236,"åĲĮåĬĽ":12237,"ä¼ıæĥŁ":12238,"æķĳåİ»":12239,"æķĳå¾Ĺ":12240,"æķĳçģŃ":12241,"æķĳåħµåĪ°":12242,"æŃ¦å°ĨåĨĽ":12243,"éĺ³åŁİ":12244,"æĪĲä½ķ":12245,"æĪĲçĸ¾":12246,"æĪĲå¤§åĬŁ":12247,"åĳ¨æĹ¨":12248,"æŁĲåİ»":12249,"æŁĲèĩª":12250,"æŁĲå·²":12251,"æŁĲæľīä¸Ģ":12252,"ç»įæ±ī":12253,"æĭľè¯·":12254,"æĭľè¿İ":12255,"æĭľæ¯ķ":12256,"å®ļçĦ¶":12257,"å®ļè¦ģ":12258,"çģ«æĢ¥":12259,"çģ«èĪ¹":12260,"è¿ĩå¤±":12261,"å¹´äºĶåįģ":12262,"æĸ©é¢ľèī¯":12263,"éĺµäº¡":12264,"éĺµèĦļ":12265,"çłĤ":12266,"çłļ":12267,"èµ¶æĿĢ":12268,"å¸ĪçĪ¶":12269,"å¸Īå©Ĩ":12270,"å¼ķåħµåĪ°":12271,"å¼ķåħµæķĳ":12272,"å¼ķåħµäºĶåįĥ":12273,"ç¬ĳä¹ĭ":12274,"ä½ľæŃ¤":12275,"ä½ľä¹Ĳ":12276,"ä½ľèī²":12277,"åĪĢæŀª":12278,"åĪĢåľ¨æīĭ":12279,"å¹¶è¾Ķ":12280,"é«ĺä¸ĭ":12281,"ä¼ļè¯¸å°Ĩ":12282,"åĽłèĢĮ":12283,"åĽłè°ĵ":12284,"åĽłæĮĩ":12285,"çĲĲ":12286,"æ¬¡æĽ°":12287,"ç²®å¹¿":12288,"å¤´é£İ":12289,"å¤´çĽ®":12290,"å¤´ä¸Ģä¸ª":12291,"äº²ä¿¡":12292,"äº²ç»Łå¤§åĨĽ":12293,"äº²åĨĴçŁ¢çŁ³":12294,"éľĢ":12295,"éľľ":12296,"éľ¹éĽ":12297,"åĮĹéĿ¢":12298,"å¤ĸçĶ¥":12299,"èµµå¿ł":12300,"èµµåĴ¨":12301,"åĬ¿å¿ħ":12302,"éĻĪçºª":12303,"çĶļäºİ":12304,"çĶļå½ĵ":12305,"çĶļå¥½":12306,"çĶļä¸¥":12307,"çĶļçĽĽ":12308,"çĶļç´§":12309,"èįĨå·ŀæľīå¤±":12310,"èįĨå·ŀå·²è¢«":12311,"æį¶èĥ¸":12312,"å½Ĵåİ»":12313,"å½Ĵåºľ":12314,"çĮľ":12315,"è°ĵæĵįæĽ°":12316,"è°ĵäºĳéķ¿æĽ°":12317,"éĩįäºĭ":12318,"éĩįåıł":12319,"æģĲæĺ¯":12320,"æģĲæĥ§":12321,"åĳĬæĪĳ":12322,"åĳĬéĢĢ":12323,"åĳĬå¸ĥæĽ°":12324,"èĢ³çĽ®":12325,"æĦ¿å°Ĩ":12326,"æĦ¿åį³":12327,"æĦ¿æ±Ĥ":12328,"æĦ¿ä¹ŀ":12329,"æĦ¿æĺİåħ¬":12330,"æĹ©åĩº":12331,"æĶ¾çĤ®":12332,"æİ¥ä½ı":12333,"æİ¥æµİ":12334,"éļıå°Ĩ":12335,"éļıæĪĳ":12336,"éļıçĿĢ":12337,"æıŃ":12338,"èĻ½æŃ»":12339,"çĪ¶ä¹ĭä»ĩ":12340,"çĽ´æĿĢåħ¥":12341,"èľĢåħµå°½":12342,"èľĢåħµåĬ¿å¤§":12343,"åıĹæĥĬ":12344,"åıĹç¼ļ":12345,"åıĹèĭ¦":12346,"ä¸įèĥ½åĩº":12347,"ä¸įèĥ½è¿Ľ":12348,"ä¸įèĥ½åĨ³":12349,"ä¸įèĥ½ä¿Ŀ":12350,"ä¸įèĥ½åıĸèĥľ":12351,"åħ´æ±īå®¤":12352,"å¤ıä¾¯åĴĮ":12353,"å¤ıä¾¯é©¸é©¬":12354,"åĨįåĩº":12355,"åĨįä»¤":12356,"åĨįéĹ®":12357,"åĨįæķ´":12358,"åĪĻåĲ¾":12359,"åĪĻæĺ¯":12360,"åĪĻåĲĮ":12361,"åĪĻä¸ľåĲ´":12362,"è¿ŀå¼©":12363,"è¿ŀç»ľ":12364,"ç¿Łåħĥ":12365,"ä¹ĺä¹±":12366,"ä¹ĺæŃ¤æĹ¶":12367,"ä¹ĺå°ıè½¦":12368,"å°ļåı¯":12369,"å°ļçĦ¶":12370,"å°ļä¸Ķ":12371,"å¤įä½ķ":12372,"å¤įä»ĩ":12373,"ç¨¿":12374,"åĬŁçĽĸ":12375,"åĬŁä¸ļ":12376,"åĬŁç»©":12377,"å¥ıç§°":12378,"ä¼ĳåİ»":12379,"ä¼ĳåĬ¨":12380,"ä¼ĳåĴİ":12381,"éĴĪ":12382,"èĢģæĲº":12383,"å¥īçĮ®":12384,"æĽ´æĹł":12385,"åĬĽåĬĿ":12386,"åĬĽç©·":12387,"çł´ä¹Ł":12388,"çł´åŁİ":12389,"çł´é©¬è¶ħ":12390,"çł´ç»½":12391,"ä¹īæ°Ķ":12392,"ä¹īçĬ¶":12393,"å°±éĩĮ":12394,"å°±åĿĲ":12395,"å°±å½¼":12396,"ä¹±çŁ³":12397,"å°ģçĪµ":12398,"å¼Ģå¼ĵ":12399,"ç®Ńä¸Ĭ":12400,"ä¹ħäºĭ":12401,"ä¹ħå®Ī":12402,"ä¹ħæĮģ":12403,"ä¹ħæħķ":12404,"åıįèĢ¶":12405,"åıįä¸įå¦Ĥ":12406,"åıįåıĽ":12407,"æľ¬èĲ¥":12408,"è¦ģä»ĸ":12409,"åįĵæĢĴ":12410,"åĶ¤å·¦åı³":12411,"åķĨè®®èµ·åħµ":12412,"åŃŁèĬĤ":12413,"åŃŁåĿ¦":12414,"çĸĳå¿ĥ":12415,"ç¤¼è´¤":12416,"å¤©ä¸ĭä¹ĭ":12417,"å¤©ä¸ĭä¹ĭäºĭ":12418,"å¤©ä¸ĭå¤§ä¹±":12419,"å¤©ä¸ĭå¥ĩæīį":12420,"ä¸»åħ¬ä½ķä¸į":12421,"å²Ĥä¸įåı¯":12422,"æĹ¢æĺ¯":12423,"æĹ¢æĿĢ":12424,"æĿ¨å¤§å°Ĩ":12425,"æĿ¨é¾Ħ":12426,"æ°ĳåħµ":12427,"ç»Łå¤§åħµ":12428,"æĶ¶å¾Ĺ":12429,"æĶ¶å½ķ":12430,"é²¸":12431,"é²Īé±¼":12432,"æľĿå¤ķ":12433,"åĬ¨æŃ¢":12434,"åĬ¨æĳĩ":12435,"å§ĵåŃĻ":12436,"éĩĳçİī":12437,"éĩĳéĶģ":12438,"éŃıå»¶è§£":12439,"çķĻæŃ¤":12440,"åĨĽé©¬äºİ":12441,"æĵĴä¸ĭ":12442,"æĵĴåĪĺå¤ĩ":12443,"é£İèµ·":12444,"å±¯å°ıæ²Ľ":12445,"åŃĹæŃ£":12446,"åŃĹä¼¯":12447,"çªŁ":12448,"çľŁå®ŀ":12449,"èµµäºĳçŃī":12450,"æīįä¹Ł":12451,"æīįå¾·":12452,"éĥŃå¤«äºº":12453,"èĥĮä¸Ĭ":12454,"èĥĮæ°´":12455,"ç©°":12456,"éŁ©çĳ¶":12457,"åĪĺå¤ĩä¹Ł":12458,"éĢģäºĨ":12459,"å¾Ħè¢Ń":12460,"åı¸é©¬æĩ¿è§ģ":12461,"è¿ľå°ĨåĨĽ":12462,"è¿ľæľĽ":12463,"å¼ĥåį´":12464,"å¼ĥä¸ĸ":12465,"åĴĴ":12466,"å¸¦çĿĢ":12467,"èī¯é©¬":12468,"èī¯è¾°":12469,"èī¯è´±":12470,"å¤«äººåİ»":12471,"ä½Ĩä»¥":12472,"åĽ´åĽ°":12473,"åĵŃæ³£":12474,"è¿ĺæľī":12475,"è¿ĺæĪĳ":12476,"è¿ĺæĪĲéĥ½":12477,"èįīä¸Ń":12478,"èįīæľ¨":12479,"èįīåłĨ":12480,"ç½ªä¹Ł":12481,"ä½łä¸¤å®¶":12482,"åħ«æĸ¹":12483,"åħ«å¹´":12484,"åħ«åŃĹ":12485,"åħ«åįģä½Ļ":12486,"å°Ħç®Ń":12487,"çĮ®éĹ¨":12488,"çĮ®åĬŁ":12489,"æıĲå¤´":12490,"æıĲéĿĴé¾ĻåĪĢ":12491,"çĻ½æĹ¥":12492,"çĻ½åıĳ":12493,"å·®éĶĻ":12494,"ä¼łåı·ä»¤":12495,"æĬĬéĹ¨":12496,"æĬĬæŀª":12497,"åįĬå¹´":12498,"åįĬæ¸¡":12499,"åįĬçĤ¹":12500,"å¥½é©¬":12501,"å¥½ç»ĵ":12502,"å¥½åŃ¦":12503,"åĿļåĽº":12504,"åĿļè¾ŀä¸įåıĹ":12505,"é¼ĵç½¢":12506,"å¨´":12507,"è¯ıä¹¦":12508,"éĤ£ä¸ª":12509,"éĤ£å°ĳå¹´":12510,"æµģæ³ª":12511,"æµģèĬ³":12512,"å¸¸æĽ°":12513,"å¸¸è¨Ģ":12514,"å¸¸æĢĢ":12515,"æīĵåŁİ":12516,"åįģä½Ļæ¬¡":12517,"æİ¢åŃĲ":12518,"æİ¢çľĭ":12519,"æİ¢åĲ¬å¾Ĺ":12520,"åĭ¿å¤ļè¨Ģ":12521,"ä¸įçŁ¥æīĢ":12522,"è½»åĬ¨":12523,"éĽĦå¸Ī":12524,"æ»©":12525,"æ»ĭ":12526,"åħ±ä¼Ĳ":12527,"åħ±è¯Ľ":12528,"åħ±è®º":12529,"åĨ²åĩ»":12530,"å®³äºĨ":12531,"ä¸įæķ¢ä¸įä»İ":12532,"ä¸įæķ¢åīįè¿Ľ":12533,"ä¸įæķ¢æģĭæĪĺ":12534,"ä¸įæķ¢æĿ¥è¿½":12535,"æ¢¢":12536,"ç¬¬ä¸Ģä¸ª":12537,"è°¢åĪ«":12538,"æ±Ĥè§ģ":12539,"çĴ§":12540,"å¼ķåĨĽåĩºè¿İ":12541,"åĪ«äºĭ":12542,"åĪ«åĽ¾":12543,"çºµåħµ":12544,"çºµæľī":12545,"çºµçģ«":12546,"çĹħèĢħ":12547,"çĹħä½ĵ":12548,"ä»»ä»İ":12549,"å®¹çº³":12550,"å®¹è²Į":12551,"èĻİåį«":12552,"èĻİä½ĵ":12553,"èĻİå¨ģå°ĨåĨĽ":12554,"äººé©¬åĽ°ä¹ı":12555,"æļĹåıĸ":12556,"æļĹåľ°":12557,"æļĹæĬķ":12558,"æļĹåı·":12559,"æļĹèĹı":12560,"åĬ©ä¹Ł":12561,"è¯Ĺä¸Ģé¦ĸ":12562,"æŃ¢çķĻ":12563,"æŃ¢æľīä¸Ģ":12564,"æŃ¢åī©":12565,"æŃ¢å¤±æİª":12566,"ä¸¾åħµ":12567,"ä¸¾çĽ®":12568,"ä¸¾æŃ¢å¤±æİª":12569,"ä¸ĸå±ħ":12570,"è¡£ä¸Ń":12571,"è¡£é£Ł":12572,"ä¸ĥæĹ¥":12573,"ä¸ĥå°º":12574,"èĦ¸":12575,"èĦī":12576,"èĦĬ":12577,"åıĶä¾Ħ":12578,"åŃ¤åŁİ":12579,"è´¤èĩ£":12580,"å¤ºåĲ¾":12581,"èĻļç«ĭ":12582,"èĻļä¼ł":12583,"ä¿Ŀä¹ĭ":12584,"ä¿Ŀå¥ı":12585,"ç¥ŀæĢĿ":12586,"ç¥ŀéĢŁ":12587,"ç¥ŀäºŃ":12588,"ç¥ŀåįľ":12589,"è°ģä¸º":12590,"è°ģèĤ¯":12591,"æĸŃäºĨ":12592,"åľŁèī²":12593,"åľŁå´©":12594,"åľŁåĿĳ":12595,"å±ħä½ı":12596,"å±ħå·¦":12597,"å±ħåı³":12598,"å±ħä¸§":12599,"æĮĩæķĻ":12600,"åħĥå®µ":12601,"ç¨ĭè¿ľå¿Ĺ":12602,"å¯¹åĿĲ":12603,"å¯¹è¯ģ":12604,"æģ©äºİ":12605,"æģ©åĳ½":12606,"æģ©ä¹ī":12607,"å¨ģéķĩ":12608,"å¨ģç¦ı":12609,"ä¾įåį«":12610,"åıªè§ģåŃĶæĺİ":12611,"åıªè§ģèľĢåħµ":12612,"åıªè§ģå¼łé£ŀ":12613,"æ¯įèĩ³åŃĿ":12614,"æķ£æµģè¨Ģ":12615,"æģ¨èĢħ":12616,"éľĩæĽ°":12617,"ç§°ç¾¡":12618,"æħĮä»¤":12619,"åį¿åı¯":12620,"èĲ½åĲİ":12621,"èĲ½èįĴ":12622,"éĻµè¿Ł":12623,"èģļä¼ļ":12624,"èģļä¼ĹåķĨè®®":12625,"ä¸Ĭé©¬èĢĮåİ»":12626,"åĭĩä¸įåı¯å½ĵ":12627,"æľīä¸Ģæ³ī":12628,"çī¹åĳ½":12629,"çī¹è¯·":12630,"é©¾èĪŁ":12631,"éĢŁæĪĺ":12632,"çĵ®":12633,"æĸ°ä¹¦":12634,"æĸ°çł´":12635,"çº¦äºİ":12636,"çº¦æĪĺ":12637,"çº¦æľŁ":12638,"æľķæ¬²":12639,"æľķéĹ»":12640,"åĪºäºİé©¬ä¸ĭ":12641,"çŁ³ä¸Ĭ":12642,"çŁ³å£ģ":12643,"ä¸ķå¤§åĸľ":12644,"åħŃä¸ĩ":12645,"åħŃçĶ²":12646,"åħŃå²ģ":12647,"åħŃåĩºç¥ģå±±":12648,"å¼łéĥĥå®Ī":12649,"å¿§çŁ£":12650,"æ¸ĬæĽ°":12651,"ä¸´æķĮ":12652,"ä¸´éļ¾":12653,"ä¹ĭè¨Ģä¹Ł":12654,"éĢĬç¬ĳæĽ°":12655,"å¥³åĦ¿":12656,"èĽ®æ´ŀ":12657,"ç»Ĩå¥ı":12658,"ç»Ĩè¿°":12659,"éĿĴè¡£":12660,"èµĲä¸İ":12661,"ç¥ĸçĪ¶":12662,"å¤ªå®Īå¼łæĿ¨":12663,"å¯»éĹ®":12664,"èĭ±æĿ°":12665,"ä½¿äººéĢģ":12666,"åĴĮä½ł":12667,"è¯Īè°ĭ":12668,"ç¦»æ´Ľéĺ³":12669,"æŃ¥åįĴ":12670,"æİ¨ä¸ĭ":12671,"æİ¨çĹħ":12672,"æİ¨åĢĴ":12673,"æİ¨éĺ»":12674,"ä¸ĢéĿ¢ä»¤":12675,"ä¸ĢéĿ¢ä»¤äºº":12676,"åħīèĬĴ":12677,"ä¸¥å¯Ĵ":12678,"ä¹ĿæĹı":12679,"è¢ŃèįĨå·ŀ":12680,"æľīè¯Ĺåı¹æĽ°":12681,"é¡ºå¤©":12682,"å¢©":12683,"æľ¨çŃı":12684,"æľ¨çĤ®çŁ³":12685,"åĬłä¹ĭ":12686,"åĬłåħµ":12687,"ä¸įå¦ĤåĿļå®Ī":12688,"æĥ§ä¹Ł":12689,"ä»¤äººäºİ":12690,"ä»¤äººéĢģ":12691,"çĲĨå®ľ":12692,"åŃŁèİ·å¤§åĸľ":12693,"åħ¸æĽ°":12694,"ç¦ģæŃ¢":12695,"éĢłæĪĲ":12696,"ä¸Ģå£°æ¢ĨåŃĲ":12697,"ä¸ĭé©¬åıĹéĻį":12698,"åĬ«åİ»":12699,"æĭĽåĳ¼":12700,"äºĮåįģåĽĽäºº":12701,"æ±ĿçŃīçļĨ":12702,"åĬĿä¸»åħ¬":12703,"å¦»å¥³":12704,"çĿ¿ä»İä¹ĭ":12705,"åİŁæĿ¥åŃĶæĺİ":12706,"é©±æľ¨çīĽæµģé©¬":12707,"å¼Ĥåº¦":12708,"åİ¿å°ī":12709,"ä¼¤åħ¶":12710,"åİļå¾ħ":12711,"åİļæĦı":12712,"åİļç¤¼":12713,"åİļèµı":12714,"åĦ¿æĦ¿":12715,"æ»¡åŁİ":12716,"æ»¡å¤©":12717,"æ»¡åº§":12718,"å®Ĺé¢Ħ":12719,"å¼łè¾½ä¹Ł":12720,"éľ¸çİĭ":12721,"æĬ¤è½¦":12722,"åħ¥åŁİè§ģ":12723,"æĮģçŁĽ":12724,"æ±Łä¸ľåŃĻæĿĥ":12725,"åĪ©åĪĢ":12726,"åľ¨æŃ¤éĹ´":12727,"èİ«ä¸į":12728,"é¢ĨåħµäºĶä¸ĩ":12729,"å¿½çĦ¶ä¸Ģéĺµ":12730,"æ®¿å®ĩ":12731,"å¾¡æķĮ":12732,"éĢļå§ĵåĲį":12733,"æĽ¹åħµå¤§è´¥":12734,"æĽ¹åħµå¤§ä¹±":12735,"åĢĺå½¼":12736,"åĢĺéŃıåħµ":12737,"æĬĺåħ¶å¤§åįĬ":12738,"ä¼Ĺå®ĺåĳĬåħį":12739,"éºĴéºŁ":12740,"ç»ĪéĿŀ":12741,"åħ·éģĵ":12742,"åį§åĨħ":12743,"åį§èļķ":12744,"æī¶æŁ©":12745,"æī¶èĢģæĲº":12746,"æĢ§èµ·":12747,"æĢ§åĪļ":12748,"æĭĶåĪĢ":12749,"äºīåĬŁ":12750,"æĿ¥è§ģæĵį":12751,"æĿ¥è§ģåŃĻæĿĥ":12752,"æŀģåĸĦ":12753,"æŀģå¹¿":12754,"æ¨Ĭåı£":12755,"çĭ¬æľī":12756,"çĭ¬èĩª":12757,"çĭ¬æĪĺ":12758,"çĭ¬çĶŁ":12759,"èµ·åħµåįģä¸ĩ":12760,"çĻ¾ä½ĻæĹ¥":12761,"é©¬å²±æĽ°":12762,"åĪĺè¡¨æĽ°":12763,"å¼ºçĽĽ":12764,"ä¸ģå»ºéĺ³":12765,"ä¸ģå»Ļ":12766,"æİ©ä¹ĭ":12767,"æİ©èĩ³":12768,"æĪªåĩº":12769,"è¢įå¸¦":12770,"è¢įéĵł":12771,"å¿ħæľīåĩĨå¤ĩ":12772,"å¿ħæľīåŁĭä¼ı":12773,"æľīä½ķèī¯çŃĸ":12774,"è¯ĨåĲ¾":12775,"è¯Ĩçł´":12776,"å¹¼å¸¸":12777,"è´¾èĮĥ":12778,"æ´ŀåħµ":12779,"çĬ¹èĩª":12780,"éĢĨä¸į":12781,"æ¯ıå¤ľ":12782,"æįīäºĨ":12783,"ä¸§äºĭ":12784,"åĩºé©¬äºİ":12785,"åĩºé©¬æĲ¦æĪĺ":12786,"è°ĥçĲĨ":12787,"ä¼ĹçļĨæĽ°":12788,"ç¥¸ç¦ı":12789,"ç¥¸ä¸įè¿ľçŁ£":12790,"çĥ§ç»Ŀ":12791,"åĳ¼æĽ°":12792,"æĭ¥åħ¥":12793,"æĭ¥èĢĮæĿ¥":12794,"éķĩè¥¿å°ĨåĨĽ":12795,"éķĩåĽ½å¯º":12796,"èĦ±ä¸ĭ":12797,"èĦ±åİ»":12798,"åıªå¾Ĺä¸ĭé©¬":12799,"åĪĨåħµäºĶè·¯":12800,"æ²»ç½ª":12801,"çłįåİ»":12802,"å¤ıä¾¯æĥĩæĽ°":12803,"æĸĩæŃ¦çĻ¾å®ĺ":12804,"çĶ°éĩĮ":12805,"çĶ°ç»Ń":12806,"åĽŀæĬ¥åŃĶæĺİ":12807,"è½¬è¿Ĳ":12808,"åı¤ä¹ĭ":12809,"ä»ĵæĽ°":12810,"ä»ĵäºŃ":12811,"æķ´çĤ¹":12812,"åħįèĩ´":12813,"åħįåħ¶æŃ»":12814,"æĬµèµĸ":12815,"åı¯ä»¥ä¿Ŀ":12816,"å°½çļĨæĮĤåŃĿ":12817,"éģįè¡Į":12818,"éģįè§Ĩ":12819,"éģįç«ĸ":12820,"éģĹè¨Ģ":12821,"éģĹè¡¨":12822,"çķ¥æĹł":12823,"åĲ¬å¾Ĺè¿Ļä¸ªæ¶Īæģ¯":12824,"åħĦå¼Łä¹Ł":12825,"èĹ©":12826,"åįĩåłĤ":12827,"åĪĹéĺµ":12828,"åĩłä¸ª":12829,"æĺŁå¤ľæĬķ":12830,"æĮºæŀªçĽ´åıĸ":12831,"éķ¿å®īæĿ¥":12832,"æł¡åĪĢæīĭ":12833,"ä¸įèĤ¯åıĳåħµ":12834,"åĳĺå¤§å°Ĩ":12835,"è¿ĲçŃ¹":12836,"èµ¤åĦ¿":12837,"æ³ªæµģ":12838,"è±«ç«ł":12839,"æĽ¹çľŁä¸ºå¤§éĥ½çĿ£":12840,"éŀĴ":12841,"éŃıä¸»æĽ¹é«¦":12842,"æĮīåħµ":12843,"æĮīè¾Ķ":12844,"å¼łç¿¼ä¹Ł":12845,"å¼ķä¸ĢåĨĽä»İ":12846,"åıĮåħ¨":12847,"ä»°æľĽ":12848,"å¿½è§ģä¸Ģ":12849,"èĽ®åħµå¤§è´¥":12850,"éģ¿ç¥¸":12851,"éģ¿å¸Ń":12852,"ä¼ıåħµé½Ĳåĩº":12853,"ä¼ıåħµåĽĽèµ·":12854,"æĸ½çĬ¬é©¬ä¹ĭåĬ³":12855,"æĮĤåį°":12856,"ä¹ĺåĬ¿è¿½èµ¶":12857,"å·®äººåİ»":12858,"é¸£é¼ĵ":12859,"éĻĨéĢĬæĽ°":12860,"ä¸ĵæľĽ":12861,"å¦¾èº«":12862,"éļĲåĮ¿":12863,"åĨĻçĿĢ":12864,"æĹłä¸įæĥĬéªĩ":12865,"æĹłä¸įä¸ĭæ³ª":12866,"ä¹ŀéĻĽä¸ĭ":12867,"å¹¿å®Ĺ":12868,"ĠæľªçŁ¥åŃĶæĺİ":12869,"æĬ¥çŁ¥çİĦå¾·":12870,"æĬ¥çŁ¥åŃĶæĺİ":12871,"æŀĿç®Ń":12872,"ä¸īè·¯å¤¹æĶ»":12873,"ç«¥è°£":12874,"ä¹ĭæĹ¶ä¹Ł":12875,"åįķéģĵ":12876,"éĺ´éĺ³":12877,"åħ»èĢģ":12878,"å¦ĻçŃĸ":12879,"åī²åľ°":12880,"åī²æį®":12881,"åī²éº¦":12882,"åĽĽéĿ¢åĸĬå£°å¤§éľĩ":12883,"éģ£ä½¿èĩ³":12884,"éģ£ä½¿èµįè¯ı":12885,"æİĮå¤§æĿĥ":12886,"ç§¦èī¯":12887,"ç¯±":12888,"ç¯·":12889,"å®¢åķĨ":12890,"è°¦æĽ°":12891,"è´¹åĬĽ":12892,"åĩºè¿İä¹ĭ":12893,"æĢ¨æľĽ":12894,"å¿ĥèħ¹ä¹ĭäºº":12895,"æĻ¯å¸Ŀ":12896,"æĻ¯èĢĢ":12897,"æŃ»äºİæŃ¤åľ°":12898,"å±¯åħµåŁİå¤ĸ":12899,"å»ĸåĮĸæĽ°":12900,"æĬļæ°ĳ":12901,"è¿ŀå¤ľæĬķ":12902,"ç´¯åıĬ":12903,"èĥĨå¯Ĵ":12904,"æŃ¦å£«æİ¨åĩºæĸ©ä¹ĭ":12905,"åŃ¦å£«":12906,"è¯ļä¸º":12907,"è¯ļå®ŀ":12908,"åī¯éĥ½çĿ£":12909,"å¼łé²ģå¤§åĸľ":12910,"æĭįæīĭ":12911,"å¼ķä¸ĢéĺŁ":12912,"ç´¢èįĨå·ŀ":12913,"ç©¿äºĨ":12914,"ç»Ĩä½ľåĽŀæĬ¥":12915,"éĹ»ä¹ĭå¤§æĢĴ":12916,"æķĪæŃ»":12917,"æ±łä¸Ń":12918,"åľ£æľĿ":12919,"éĹ®åħ¶æĿ¥æĦı":12920,"è¦Ĩå§ĵ":12921,"ä¸Ģå½ªåĨĽä»İ":12922,"ä¸Ģå½ªåĨĽæĭ¦ä½ı":12923,"èĿīæĽ°":12924,"æĶ¹å®¹":12925,"æİĴéĬ®é©¾":12926,"çĦīèĥ½":12927,"è®¾å®´åºĨè´º":12928,"ä½ķä»¥çŁ¥":12929,"æģ¶ä¹ĭ":12930,"æ¸ħå¹³":12931,"æ²Ļåı£":12932,"æ²ĻåľŁ":12933,"å²Ĥåı¯åĽł":12934,"ä¸įè¶³ä»¥":12935,"ä¸įè¶³ä¸İ":12936,"éĻ¶æģŃç¥ĸ":12937,"å¯ĩå°ĨåĨĽ":12938,"ç§»æĹ¶":12939,"æłĳä¸Ĭ":12940,"è¨Ģæľªç»Ŀ":12941,"æīİèĲ¥":12942,"éĺģä¸ĭ":12943,"åĿ¡åīį":12944,"æ¸ŃåĮĹ":12945,"æ¸Ńæ¡¥":12946,"å¿ĺåį´":12947,"å¿ĺæģ©":12948,"æĥľåĵī":12949,"å¾ĢæĿ¥é©°":12950,"åĲĦèĩªéĢĥçĶŁ":12951,"çĮĽèĻİ":12952,"çĮĽçľģ":12953,"éĩıæ±Ŀ":12954,"åĵĢåĳĬ":12955,"æ¸©æĽ°":12956,"ç¾İçİī":12957,"åĨįä¸īæİ¨è¾ŀ":12958,"ä¸¥é¢ľæĽ°":12959,"æĶ»æīĵä¸įä¸ĭ":12960,"çĥĪçģ«":12961,"éĴŁä¼ļæĽ°":12962,"é¦Ļé¥µ":12963,"æŀľçĦ¶æĺ¯":12964,"Ġæĵįè§ģ":12965,"æĿľå·¥éĥ¨":12966,"åĽŃéĹ¨":12967,"éĢ¼è¿ĳ":12968,"ä¹ĥæĺ¯éŃıå»¶":12969,"åºĦéĻ¢":12970,"äºĮåįģä½Ļä¸ĩ":12971,"åı¸é©¬å¸ĪæĽ°":12972,"æĶ¶æĭ¾è¡Įè£ħ":12973,"åĪ¶ä¹ĭ":12974,"äººçļĨè¨Ģ":12975,"å·´èľĢ":12976,"äºİæŃ¤å¤Ħ":12977,"æĭįé©¬æĮºæŀª":12978,"æĭįé©¬æĿ¥è¿İ":12979,"æ¹ĺ":12980,"çİ¯ç»ķ":12981,"ä¸ģå¥īæĽ°":12982,"è±«å·ŀçī§":12983,"ä¸įå¿ħå¤ļè¨Ģ":12984,"çĽĳä¸ĭ":12985,"çĽĳçĿ£":12986,"çĽĳç¦ģ":12987,"åĽŀåĪ°æľ¬å¯¨":12988,"åĿĲäºİå¸Ĳä¸Ń":12989,"æĿ¨ä»ªæĽ°":12990,"çħĮ":12991,"ä¸ĢçĻ¾äºº":12992,"ä¸Ģä¸ªä¸ª":12993,"çĨŁå¨´":12994,"çĽĬå·ŀåĪĺçĴĭ":12995,"èĨı":12996,"åĲŀåĲ´":12997,"è¾Ľæķŀ":12998,"åĮ»èĢħ":12999,"ä¸ĢåĪĢæĸ©":13000,"ä¸ĢåĪĢæĸ©ä¹ĭ":13001,"è¡Ĺå¸Ĥ":13002,"å½ĵå¤ľäºĮæĽ´":13003,"æ··æĿĢ":13004,"åİīå£°å¤§åı«æĽ°":13005,"åİīå£°èĢĮè¨ĢæĽ°":13006,"çī§ç«¥":13007,"æħ°å¹³çĶŁ":13008,"æĻĵå¤ľ":13009,"æı´åħµ":13010,"ç«ĸåĦĴ":13011,"çģ¯çĥĽ":13012,"æ¯ĴèĽĩ":13013,"å°¹å¤§çĽ®":13014,"æİ·åīĳ":13015,"ä¸īåįģä½Ļå¹´":13016,"é»Ħå·¾ä½Ļåħļ":13017,"å¥ĭåĬĽåĲĳåīį":13018,"ĠæĹ¶åĢ¼":13019,"å±±è°·ä¹ĭä¸Ń":13020,"æŃ»èĢħä¸įè®¡åħ¶æķ°":13021,"çĶŁæĵĴè¿ĩåİ»":13022,"éĦ¢éĻµ":13023,"ä¸ĺå»º":13024,"æĵįä»¤è®¸è¤ļ":13025,"åĲ´ä¸»çļĵ":13026,"ç¦ĢæĽ°":13027,"çĥŁèµ·":13028,"çĥŁçģ«":13029,"æĿŁåıĳ":13030,"åįłä½ı":13031,"ä¸ĭä»¤æĽ°":13032,"ä¸ºä¸Ĭå°Ĩ":13033,"èĩªåĽŀæĪĲéĥ½":13034,"æŃ£åľ¨å¸Ĳä¸Ń":13035,"çĸ®åı£":13036,"å°ĺåŁĥ":13037,"åħµä¸įèĩ³":13038,"æĪ¿å±ĭ":13039,"æĪıè¨Ģ":13040,"ä¼ĺæĽ°":13041,"çŃµä¼ļ":13042,"äºĨä¸Ģç¨ĭ":13043,"çīµå¼ĺ":13044,"è¿½æĿĢäºĮåįģä½ĻéĩĮ":13045,"åĮ¹å¤«ä¹ĭåĭĩ":13046,"åħ·è¨Ģåħ¶äºĭ":13047,"åħµè´¥å°Ĩäº¡":13048,"åºĨåĬŁ":13049,"æİĺåľ°éģĵ":13050,"ç±³ä»ĵ":13051,"ç»ķæ²³":13052,"éļĶå²¸":13053,"ä»ĸäººæīĢ":13054,"æ®µè°·":13055,"çıªæĽ°":13056,"éĢĶä¸Ń":13057,"èĩªçĽ¸æ®ĭå®³":13058,"å®īæ°ĳå·²æ¯ķ":13059,"æľªå°Ŀä¸į":13060,"ä¹Ķçĳģ":13061,"ç»ĥæ°´åĨĽ":13062,"æĬĹæĽ°":13063,"æĬĹæĭĴ":13064,"æĭ©ä¸»":13065,"é¡¹äºĭ":13066,"å¹³çĶŁæīĢ":13067,"çķıæĥ§":13068,"çĪ¶äº²ä½ķæķħ":13069,"å·¢æ¹ĸ":13070,"å·¢ç©´":13071,"æĬĦåĪ°":13072,"åĩºå¸Īä¼ĲéŃı":13073,"æĢªå¼Ĥ":13074,"æ²¿æ²³":13075,"æ²¿éĢĶ":13076,"æµ©å¤§":13077,"æµ©æµ©":13078,"èĭıç§¦":13079,"éĹ¨æĹĹä¹ĭä¸ĭ":13080,"æ°´åĨĽéĥ½çĿ£":13081,"éĴ§åĳ½":13082,"æ¶ªæ°´":13083,"è´¤å¼Łåı¯":13084,"æĳĩåĬ¨":13085,"ä¹ĭåĬŁä¹Ł":13086,"åİĨæķ°":13087,"éģ®éģĵ":13088,"åĿĳä¹ĭ":13089,"åĢįåĬł":13090,"åĲĦå¤Ħéļĺåı£":13091,"è¢ĸä¸Ńåıĸ":13092,"éŁ³èĢĹ":13093,"åıĹè®¡èĢĮåİ»":13094,"åıĹè®¡å¼ķåħµèĢĮåİ»":13095,"éĺ¶ä¸ĭä¸Ģäºº":13096,"åĨĽåĻ¨ç²®èįī":13097,"æĵĤæľ¨çĤ®çŁ³":13098,"æ³¢æ¶Ľ":13099,"æīĭæī§éķ¿":13100,"è´¹ç¥İæĽ°":13101,"å¤ªåŃĲåŃĻ":13102,"æĬĺäºĨè®¸å¤ļ":13103,"æ¼ıæ³Ħ":13104,"äºĽå°ĳ":13105,"äºĽäººé©¬":13106,"å®ªæĽ°":13107,"çĶ·åŃĲ":13108,"èĩªå·±åį´":13109,"ä¼Ĺè°ĭå£«æĽ°":13110,"éĽ¾æķ£":13111,"å§ĶçĶ¨":13112,"ç§įè¾ĳ":13113,"åĹŁæĢ¨":13114,"è¹ĭé¡¿":13115,"ä¸ĢæŀĿåĨĽ":13116,"åħ¶ä¸įå¤ĩ":13117,"ä¸īçĻ¾äºº":13118,"äºĭä¸įå¯Ĩ":13119,"äºĭä¸įåĨ³":13120,"ç§ĢæĽ°":13121,"æĭľè¾ŀèĢĮåİ»":13122,"åģ·çĶŁ":13123,"è¯ĪéĻįä¹¦":13124,"èĢ¿æŃ¦":13125,"ç»Ļä¸İ":13126,"éĢĲåĩº":13127,"å£ķåłĳ":13128,"æĥŃæĦ§":13129,"åĮ¡æī¶æ±īå®¤":13130,"çĶŁæŃ»ä¹ĭäº¤":13131,"æĭľä¼ıæĽ°":13132,"æ»ļæ»ļ":13133,"æĿ¥ä½¿æĽ°":13134,"åı¯å¾Ĺä¹Ł":13135,"æĹłè·¯åı¯":13136,"ç¥ľæĽ°":13137,"éĿ¢çĽ®è§ģ":13138,"çĸĨåľŁ":13139,"ä¹±ç®Ńå°ĦæŃ»":13140,"å±±è·¯èĢĮèµ°":13141,"è¥¿åįĹä¸Ĭ":13142,"åıįè´¼ä¼ĳèµ°":13143,"ä¸įå¾Ĺå·²ä¹Ł":13144,"åĲ¬ä»¤æĽ°":13145,"èĴ¯èī¯æĽ°":13146,"æ¿¡é¡»åı£":13147,"å¼ķä¸Ģåįĥåħµ":13148,"åįĸä¸»":13149,"æĿĢèĩ³å¤©æĺİ":13150,"èº«éķ¿ä¸ĥå°º":13151,"çł´æĽ¹ä¹ĭåĲİ":13152,"åħ«åįģä¸īä¸ĩ":13153,"èĮħèįī":13154,"å¤§ä¼ļè¯¸å°Ĩ":13155,"æĪĴä¹ĭ":13156,"ä¸Ĭå±±æĿ¥":13157,"ä¸īæ±ŁåŁİ":13158,"ä¸īæ±Łåı£":13159,"æĦģäºĳ":13160,"åĲĦå¼ķäºĶåįĥåħµ":13161,"ä¸įåı¯ä¸įéĻ¤":13162,"ç´«èĻļ":13163,"äº«ç¥Ń":13164,"åįıåĬĽ":13165,"å¤§æ±īçļĩåıĶ":13166,"åĩºå¸Ĳä¸Ĭé©¬":13167,"åı¯çł´çŁ£":13168,"åıªéģĵæĺ¯":13169,"ç¥ĿæĽ°":13170,"æŀŃé¦ĸ":13171,"è¯¸å°ĨçļĨæĽ°":13172,"æĢ»çĿ£åĨĽé©¬":13173,"ä»¥æĬ¥éĻĽä¸ĭ":13174,"åĽĽæĽ´éĢłé¥Ń":13175,"å¾¡æŀĹåĨĽé©¬":13176,"åĲ¯å¥ı":13177,"å®ĵæĽ°":13178,"æĿ¥çĽ¸æĬķ":13179,"èĭĹè£Ķ":13180,"ç²īç¢İ":13181,"é²įéļĨ":13182,"æľªåı¯è½»åĬ¨":13183,"åĲ¾èĩªæľīè®¡":13184,"è¾Ħåħ¥":13185,"åĽĽè·¯åħµ":13186,"æħİä¹ĭ":13187,"é¦ĸå°¾ä¸įèĥ½":13188,"éħĴèĩ³æķ°å·¡":13189,"æĹ©æľīç»Ĩä½ľæĬ¥åħ¥":13190,"æĤĶä¹ĭä¸įåıĬ":13191,"è¡Įä¸įåĪ°åįģéĩĮ":13192,"è¡Įä¸įåĪ°æķ°éĩĮ":13193,"æ²¿æ±Łä¸Ģå¸¦":13194,"äºķä¸Ń":13195,"ä¸ĢéĺŁåĨĽé©¬":13196,"æĶ¯åĲ¾":13197,"éķ¿åı¹ä¸Ģå£°":13198,"éģĤä¸įå¤į":13199,"ä¿ĬæĿ°":13200,"èĤĿèĥĨ":13201,"éĿ¢å¦ĤåľŁèī²":13202,"ä¸ĩä½Ļäºº":13203,"çĸĳæĥĳä¸įå®ļ":13204,"åĸĿä»¤å·¦åı³æİ¨åĩºæĸ©ä¹ĭ":13205,"å¥ĭçĦ¶æĽ°":13206,"è½¬è¿ĩå±±åĿ¡":13207,"åĽĽéĿ¢åĽ´åĲĪ":13208,"åħĭæĹ¥åħ´å¸Ī":13209,"ç¾ŀæĥŃæ»¡éĿ¢":13210,"é¼ĵåĻªåĳĲåĸĬ":13211,"ä¹ĭåĲįå°Ĩ":13212,"ä»¥éŀŃæĮĩæĽ°":13213,"åıªå¾ħèľĢåħµ":13214,"ç§īçĥĽ":13215,"åģĥåŁİ":13216,"åģĥæľĪ":13217,"å¡«å¡ŀ":13218,"Ġä¸įä¸ĢæĹ¥":13219,"å¤§æ±Łä¹ĭä¸Ń":13220,"äºĭå·²èĩ³æŃ¤":13221,"æĢĴæ°ĶåĨ²":13222,"è¿ĩäºĨæķ°æĹ¥":13223,"èģļæĸĩæŃ¦åķĨè®®":13224,"èĦ±èº«ä¹ĭè®¡":13225,"æĮ¥åĪĢçºµé©¬":13226,"æ²®æİĪæĽ°":13227,"æĭĺæī§":13228,"éªłéªĳ":13229,"è¿ĽéĢĢä¸įå¾Ĺ":13230,"è¿ĽéĢĢæĹłè·¯":13231,"èĲ§æĢĢ":13232,"çĲħçĲĬçİĭ":13233,"éĴ¢åĪĢ":13234,"ç¼ĺæķħ":13235,"åįĩå¸ĲèĢĮåĿĲ":13236,"ä¸įä¹īä¹Ł":13237,"èĩªä¹±çŁ£":13238,"åįģä¸ĥåĽŀ":13239,"çģ«æĬĬé½Ĳæĺİ":13240,"çĶ³å¥ıæľĿå»·":13241,"è¾ķéĹ¨å°Ħ":13242,"é³Į":13243,"é³ŀ":13244,"ä¹ĭæĤ£ä¹Ł":13245,"æľīæīĢä¸įåıĹ":13246,"åĲ¾ä»¤æ±Ŀ":13247,"çİĦå¾·éĹ®åŃĶæĺİæĽ°":13248,"èĩªéĢĢçŁ£":13249,"æĹłåıĬçŁ£":13250,"å²ĳæĺı":13251,"å¹³åľ°æ°´æ·±":13252,"æĭ¨åĽŀé©¬èµ°":13253,"è¶ĬåĲīåħĥå¸ħ":13254,"ĠåıĪæľīè¯Ĺ":13255,"ä¸Ľä¸Ń":13256,"ä¹ĭå¤§æĤ£":13257,"ä¸ºåĽ½éĻ¤å®³":13258,"è°ĮæĽ°":13259,"åįģä¸īåĽŀ":13260,"é¢ĿæĽ°":13261,"çģĮä¹ĭ":13262,"ä¼ıè·¯åĨĽ":13263,"åĤ²æħ¢":13264,"ä¸ĢæĬĬçģ«":13265,"æĿ¥èĢħä½ķäºº":13266,"åīĬåİ»":13267,"åįģåĽĽåĽŀ":13268,"å½ĵä¸ĸèĭ±éĽĦ":13269,"æŃ£è¯´ä¹ĭéĹ´":13270,"å¤ľè§Ĥå¤©è±¡":13271,"éĻĨç»Ńè¿Ľåıĳ":13272,"çĻ»é«ĺæľĽä¹ĭ":13273,"ä¼¤æĦŁä¸įå·²":13274,"åĪĿæĽ´æĹ¶åĪĨ":13275,"éļĲéļĲæľī":13276,"ä½İå¤´ä¸įè¯Ń":13277,"æĦķçĦ¶æĽ°":13278,"ä¸ºèįĨå·ŀä¹ĭä¸»":13279,"åĬªåĬĽåĲĳåīį":13280,"åįģåħŃåĽŀ":13281,"æ¬²ä»¤æĪĳ":13282,"æ²Ķéĺ³":13283,"æ´Ĵæ³ª":13284,"èº«æĬ«é¹¤æ°ħ":13285,"åĲİäººæľīè¯Ĺåı¹ä¹ĭæĽ°":13286,"æĬļæİĮå¤§ç¬ĳæĽ°":13287,"çĽĳåĨĽåį«çĵĺ":13288,"åıīæīĭ":13289,"æĹ¥è¡ĮåįĥéĩĮ":13290,"å¦Ĥåħ¶ä¸įçĦ¶":13291,"åįģåħ«åĽŀ":13292,"åĶ¯åĶ¯":13293,"ä¸ĢåĪĢçłįäºİé©¬ä¸ĭ":13294,"æĭĤè¢ĸèĢĮèµ·":13295,"ä»ĭæĦı":13296,"è¡Ķæŀļ":13297,"ä¸įåı¯èĥľæķ°":13298,"çĭĲçĸĳ":13299,"æĭĽåĨĽä¹°é©¬":13300,"åºŁç«ĭä¹ĭäºĭ":13301,"é¼İè¶³ä¹ĭåĬ¿":13302,"åĴ¬çīĻåĪĩé½¿":13303,"æľĭåıĭ":13304,"æĹºæ°Ķ":13305,"åıªåī©å¾Ĺ":13306,"æŃ£æħĮæĢ¥":13307,"éĤ¢è´ŀ":13308,"éĤµæĤĮ":13309,"éĢĢåĲİä¾¿èµ°":13310,"ä¸įåı¯å¤±ä¹Ł":13311,"æĤłæĤł":13312,"åĵŃå£°ä¸įç»Ŀ":13313,"çĮ®äºİéº¾ä¸ĭ":13314,"ä¹ĲåĺīåŁİ":13315,"å¼ĵå¼¦åĵįå¤Ħ":13316,"çĶĺéľ²å¯º":13317,"è¿ģå»¶æĹ¥ä¹ħ":13318,"ä¸įå°±æŃ¤æĹ¶":13319,"ä¿Ħä½ķçĥ§":13320,"åĪĨå®¾ä¸»èĢĮåĿĲ":13321,"ä¹¦éĻ¢ä¸Ń":13322,"åºĶå¼¦èĲ½é©¬":13323,"åĲĽåĳ½æľīæīĢä¸įåıĹ":13324,"æĺŃçĥĪçļĩå¸Ŀ":13325,"ä¼łåĽ½çİº":13326,"ä¸įçŁ¥ä½ķå¤Ħåİ»äºĨ":13327,"ä¸´æ·Ħä¾¯":13328,"å¼ĵé©¬çĨŁå¨´":13329,"å¾¡åı²å¤§å¤«":13330,"æĭ½èµ·åĲĬæ¡¥":13331,"åĶ¾æīĭåı¯å¾Ĺ":13332,"ä¸Ļå¯ħ":13333,"ä¸įçľģäººäºĭ":13334,"å¤§é©±å£«é©¬":13335,"ä»¥ä¸Ĭå®¾":13336,"åħ¶æĸĩæĽ°":13337,"åľ¨è¥¿æĸ¹":13338,"å¤©éĻįå¤§":13339,"è¡ĮåĿĲä¸įå®ī":13340,"èĻİçī¢åħ³":13341,"æļĹå¿ĸæĽ°":13342,"çŁ³å¤´åŁİ":13343,"é¡ºæµģèĢĮä¸ĭ":13344,"é¡¿è¶³æĽ°":13345,"åħľéį":13346,"æľīæľºå¯Ĩäºĭ":13347,"è½©æĺĤ":13348,"æ²Ĥéĥ½":13349,"å¤ªç¥ĸæŃ¦çļĩå¸Ŀ":13350,"åĲĦä¸ºåħ¶ä¸»":13351,"æłĭæ¢ģ":13352,"ä¹īéĩĬä¸¥é¢ľ":13353,"å¼ĢäºĨåŁİéĹ¨":13354,"æ¢ĵæ½¼":13355,"éĿĴåĽĬä¹¦":13356,"æĭĽè´¤çº³å£«":13357,"å«īå¦Ĵ":13358,"ĠæľªçŁ¥åħ¶è®¡å¦Ĥä½ķ":13359,"æİĪä»¥å¯Ĩè®¡":13360,"éŃĤä¸įéĻĦä½ĵ":13361,"çİĭåŃĲæľįçŃīåĽĽäºº":13362,"ä¸ĸæīĢç½ķæľī":13363,"æĿĢçīĽå®°é©¬":13364,"åħ¨è£ħæĥ¯å¸¦":13365,"é¤Ĳ":13366,"åŃ©åĦ¿":13367,"ä¸Ģå¹²äºº":13368,"ä¸ºèĤīæ³¥":13369,"ä»¥è°¢å¤©ä¸ĭ":13370,"å¿ĥç¥ŀæģįæĥļ":13371,"çķħé¥®":13372,"ç½¾åı£":13373,"ä¼łä¸ĭåı·ä»¤":13374,"è¿ĻæĿ¡è®¡":13375,"æ½¸çĦ¶æ³ªä¸ĭ":13376,"æįŁåħµæĬĺå°Ĩ":13377,"é½ĳç²īçŁ£":13378,"è¥¿æ´±æ²³":13379,"åħµè´µç¥ŀéĢŁ":13380,"æĿ¥æŃ¤ä½ķå¹²":13381,"ä¸ĬéĽ¨ä¸ĭåįķ":13382,"æĹ¥ç£¾":13383,"ä¹ĥå¼łé£ŀä¹Ł":13384,"äºĭå®ļä¹ĭåĲİ":13385,"è®¡ä¼ļå·²å®ļ":13386,"éľ¹éĽ³":13387,"æī¶èĢģæĲºå¹¼":13388,"ä¿Ħä½ķçĥ§æĪĪ":13389,"åħľéįª":13390,"!âĢĻ":13391,",âĢľ":13392,"«é»Ħ":13393,"¬åľ°":13394,"¬é«¯":13395,"¯éĥ":13396,"±çľ":13397,"²æ¯Ķ":13398,"å¬":13399,"çµ":13400,"Ġå¤§":13401,"Ġåħ¬":13402,"ĠéŃı":13403,"Ġæ¬²":13404,"Ġå¤ĩ":13405,"ĠåĲķ":13406,"Ġç»į":13407,"Ġè¿½":13408,"ĠåŃĶæĺİæĽ°":13409,"Ġèī¾":13410,"Ġä¼Ĺå°Ĩ":13411,"Ġæī¿":13412,"Ġåıªè§ģ":13413,"ĠåŃĻçŃĸ":13414,"ĠéŃıä¸»":13415,"ĠæĽ¹æ´ª":13416,"ĠåĪĺçĴĭ":13417,"ĠçĶĺå®ģ":13418,"ĠéĻĨéĢĬ":13419,"Ġä½¿èĢħ":13420,"Ġåı¸é©¬å¸Ī":13421,"Ġä¸ģå¥ī":13422,"Ġæķ°æĹ¥":13423,"Ġè¡Įèĩ³":13424,"Ġå»ºåħ´":13425,"Ġç»Ĩä½ľæİ¢çŁ¥":13426,"ĮèµĽ":13427,"Ĳè§Ĩ":13428,"ķæ¸ł":13429,"ĺå¾":13430,"ļç®Ń":13431,"ľéħĴ":13432,"Ńå½Ĵ":13433,"ä¹³":13434,"æĽľ":13435,"åĲ¼":13436,"âĢĿ;":13437,"ä»Ģ":13438,"ä»ħ":13439,"ä¹ĭåİ»":13440,"ä¹ĭè¡Į":13441,"ä¹ĭèĥ½":13442,"ä¹ĭæķ°":13443,"ä¹ĭåĽ½":13444,"ä¹ĭåĮĹ":13445,"ä¹ĭåĪĻ":13446,"ä¹ĭåħĦ":13447,"ä¹ĭä¹Ĳ":13448,"ä¹ĭèī²":13449,"ä¹ĭæľ¯":13450,"ä¹ĭåĪ©":13451,"ä¹ĭæ¯Ķ":13452,"ä¹ĭéģĹ":13453,"ä¹ĭèĭ¦":13454,"ä¹ĭè¾±":13455,"ä¹ĭå¦Ļ":13456,"ä¹ĭæľŁ":13457,"ä¹ĭæĢ¨":13458,"ä¹ĭçĪµ":13459,"ä¹ĭç§ģ":13460,"ä¹ĭè¯į":13461,"ä¹ĭæ»¨":13462,"ä¹ĭè¿ĩä¹Ł":13463,"ä¹ĭæĹıå¼Ł":13464,"ä¸įå¤§":13465,"ä¸įä¸Ģ":13466,"ä¸įä¸Ń":13467,"ä¸įä½¿":13468,"ä¸įç«ĭ":13469,"ä¸įçľĭ":13470,"ä¸įè¿½":13471,"ä¸įå¼Ģ":13472,"ä¸įè§£":13473,"ä¸įå·®":13474,"ä¸įé¥®":13475,"ä¸įæ±Ĥ":13476,"ä¸įåĬ©":13477,"ä¸įç¦»":13478,"ä¸įæ»¡":13479,"ä¸įäºī":13480,"ä¸įæĿĢä¹ĭ":13481,"ä¸įè½¬":13482,"ä¸įåħį":13483,"ä¸įè¿Ł":13484,"ä¸įçĽ¸è§ģ":13485,"ä¸įçº³":13486,"ä¸įè¾±":13487,"ä¸įæ¶Ī":13488,"ä¸įåħĭ":13489,"ä¸įèĻŀ":13490,"ä¸įå¿¿":13491,"ä¸įæķ°éĩĮ":13492,"ä¸įæĢ¯":13493,"ä¸įå¤ļæĹ¶":13494,"ä¸įåįģåĲĪ":13495,"ä¸įåĢ¦":13496,"ä¸įç§»æĹ¶":13497,"å¾ĩ":13498,"å¾ĺå¾":13499,"å®ķæ¸ł":13500,"åĪ¤":13501,"åŃ°":13502,"åŃ½":13503,"æĺķ":13504,"äººä»¥":13505,"äººèĩ³":13506,"äººçŁ£":13507,"äººå°½":13508,"äººæĿ°":13509,"äººèĩ£ä¹ĭ":13510,"äººä¼¦":13511,"åĨĽäºİ":13512,"åĨĽåĽŀ":13513,"åĨĽåĬĽ":13514,"åĨĽå°ĳ":13515,"åĨĽå¨ģ":13516,"åĨĽèµ¶æĿ¥":13517,"åĨĽä¸īåįĥ":13518,"åĨĽèµĦ":13519,"åĨĽæĹħ":13520,"åĨĽéľĢ":13521,"è¯¢":13522,"åħµå¨ģ":13523,"åħµå¤§è´¥":13524,"åħµæľº":13525,"åħµåįĴ":13526,"å¤§å¼ł":13527,"å¤§è¨Ģ":13528,"å¤§éŃı":13529,"å¤§å¤±":13530,"å¤§ç»Ł":13531,"å¤§æīį":13532,"å¤§çŁ³":13533,"å¤§æĥ§":13534,"å¤§æŀĹ":13535,"å¤§çķ¥":13536,"å¤§æĤĶ":13537,"è¿Ń":13538,"ä¸Ģè¯":13539,"ä¸Ģå°ı":13540,"ä¸ĢåĽ½":13541,"ä¸Ģé¢Ĩ":13542,"ä¸Ģä¹ĺ":13543,"ä¸ĢåĨ³":13544,"ä¸Ģç¨ĭ":13545,"ä¸Ģåĩ»":13546,"ä¸ĢéĨī":13547,"ä¸ĢæĿ¯":13548,"ä¸ĢåįģäºĮ":13549,"ä¸Ģæīĭæī§":13550,"ä¸Ģæł·":13551,"ä¸Ģçº¸":13552,"ä¸Ģæ´¾":13553,"è§¥":13554,"è§ŀ":13555,"é©¬èĩ³":13556,"é©¬å°½":13557,"é©¬äº¦":13558,"é©¬åĲĮ":13559,"é©¬ä¼ĳ":13560,"å°Ĩæľī":13561,"å°Ĩåĩº":13562,"å°ĨæŃ»":13563,"å°Ĩå°½":13564,"å°ĨèĪ¹":13565,"å°Ĩåį±":13566,"å°ĨåŃŁèİ·":13567,"å°Ĩç»Ī":13568,"å°ĨäºİåĲī":13569,"å°Ĩè¿ĩæĿ¥":13570,"å°Ĩä½ķçŃĸ":13571,"å°Ĩæīįä¹Ł":13572,"èµ§":13573,"èµĮèµĽ":13574,"å·³":13575,"å·½":13576,"æĪį":13577,"æĿ¥éĹ®":13578,"æĿ¥å¾Ģ":13579,"æĿ¥æķĮ":13580,"æĿ¥å½Ĵ":13581,"æĿ¥åĳĬ":13582,"æĿ¥åı¬":13583,"æĿ¥æįī":13584,"æĿ¥çĽ¸è§ģ":13585,"åĩĳ":13586,"æĵİ":13587,"å¸Į":13588,"å¸ĸ":13589,"æľīäºĮ":13590,"æľīæĿĢ":13591,"æľīåħĪ":13592,"æľīæķ°":13593,"æľīäºĶ":13594,"æľīè¡¨":13595,"æľīèľĢåħµ":13596,"æľīå¤©ä¸ĭ":13597,"æľīåŃĻæĿĥ":13598,"æľīéļ¾":13599,"æľīæ³ķ":13600,"æľīä»ĬæĹ¥":13601,"æľīè´Ł":13602,"æľīè§Ĵ":13603,"æľīå¿ĥèħ¹":13604,"æľīç´¯":13605,"æľīçĸ¾":13606,"æľīç»Ĩä½ľ":13607,"æľīäºĮåŃĲ":13608,"æľīéĿŀå¸¸":13609,"æľīè°ĭçķ¥":13610,"æľīæŃ»èĢĮå·²":13611,"çĽĲ":13612,"çĽ±çľ":13613,"æĸĲ":13614,"æīĪ":13615,"æĵįä¸į":13616,"æĵįåħ¥":13617,"æĵįå¾Ĺ":13618,"æĵįå·²":13619,"æĵįèĢħ":13620,"æĵįéĹ»":13621,"æĵįäº²":13622,"æĵįèĲ¥":13623,"æĵįå¼ķåĨĽ":13624,"æĵįåı¬":13625,"æĵįå°Ŀ":13626,"æĵįäº²èĩª":13627,"æŃ¤è·¯":13628,"æŃ¤å¯¨":13629,"æŃ¤åĲį":13630,"æŃ¤åĽł":13631,"æŃ¤èĢģ":13632,"æŃ¤çľŁ":13633,"æŃ¤éļ¾":13634,"æŃ¤æģ¨":13635,"æŃ¤åį±":13636,"æŃ¤ç¥¸":13637,"æŃ¤è®º":13638,"æŃ¤æĺĵ":13639,"æŃ¤ä½ķäºº":13640,"æŃ¤è¯ļ":13641,"æŃ¤èģĮ":13642,"æŃ¤ä¸Ģè·¯":13643,"æŃ¤ä¸ºä¸ĬçŃĸ":13644,"åİ¨":13645,"ç»®":13646,"ç»ħ":13647,"ä¸ĭåŁİ":13648,"ä¸ĭçļĦ":13649,"ä¸ĭæ¯Ĵ":13650,"ä¸ĭè¯´è¯į":13651,"äºİäºĭ":13652,"äºİå°ĨåĨĽ":13653,"äºİåĽ½":13654,"äºİè¢ģç»į":13655,"äºİæĢĢ":13656,"äºİç¥ģå±±":13657,"äºİåŁİä¸Ĭ":13658,"äºİéķ¿å®ī":13659,"äºİæĽ²":13660,"äºİéĺµä¸Ń":13661,"äºİéĺ¶ä¸ĭ":13662,"äºİåºľä¸Ń":13663,"äºİçĭ±ä¸Ń":13664,"äºİçİĭäºĭ":13665,"ä¸ŃéĹ¨":13666,"ä¸Ńå¹´":13667,"ä¸ŃåłĤ":13668,"ä¸Ńè´µ":13669,"ä¸ŃèĹı":13670,"ä¸Ńæ¯Ĵ":13671,"ä¸Ńçº¢å¿ĥ":13672,"ä¸ºåħĪ":13673,"ä¸ºå®ī":13674,"ä¸ºä¸ľ":13675,"ä¸ºèĥ½":13676,"ä¸ºå®ĺ":13677,"ä¸ºåºĶ":13678,"ä¸ºä¹Ĳ":13679,"ä¸ºåıĶ":13680,"ä¸ºè°ĭå£«":13681,"ä¸ºçĽŁ":13682,"ä¸ºæı´":13683,"ä¸ºå¤ªåĤħ":13684,"ä¸ºå¤ªå°ī":13685,"ä¸ºçļĩåĲİ":13686,"ä¸ºéķ¿åı²":13687,"ä¸ºä¸Ńéĥİå°Ĩ":13688,"ä¸ºåıĤåĨĽ":13689,"ä¸ºå·¦å°ĨåĨĽ":13690,"ä¸ºçĸĳåħµ":13691,"ä¸ºçĽ¸åĽ½":13692,"ä¸ºæĽ¹æĵįæīĢ":13693,"ä¸ºåı¸ç©º":13694,"ä¸ºåº¶äºº":13695,"ä¸ºä»ĸäººæīĢ":13696,"çŁľ":13697,"çĶ¸":13698,"çĶľ":13699,"çĶ¬éģĵ":13700,"è§ģäºİ":13701,"è§ģåħ¬":13702,"è§ģè¯´":13703,"è§ģèĢħ":13704,"è§ģæĿĥ":13705,"è§ģæķĻ":13706,"è§ģåĬ¿":13707,"è§ģåĲİä¸»":13708,"è§ģæ¯į":13709,"è§ģåħĪä¸»":13710,"è§ģæĽ¹åħµ":13711,"è§ģæľº":13712,"è§ģåĪĺçĴĭ":13713,"è§ģè´£":13714,"èĢĮåıĪ":13715,"èĢĮä»İ":13716,"èĢĮä¸įåı¯":13717,"èĢĮå®ļ":13718,"èĢĮæĶ»":13719,"èĢĮè§Ĩ":13720,"èĢĮæİ¥":13721,"èĢĮä¸įèĥ½":13722,"èĢĮæ±Ĥ":13723,"èĢĮæŃ¢":13724,"èĢĮé£Ł":13725,"èĢĮåĳĬæĽ°":13726,"èĢĮéĹ®ä¹ĭ":13727,"èĢĮæĦĪ":13728,"èĢĮæĵĴä¹ĭ":13729,"è°§":13730,"è°Ģ":13731,"è°ĺ":13732,"ä½ķåıĪ":13733,"ä½ķå®ī":13734,"ä½ķé¡»":13735,"ä½ķçī©":13736,"ä½ķèĭĹ":13737,"åĩºäºİ":13738,"åĩºæĭľ":13739,"åĩºè¡Ģ":13740,"åĩºé¬¼":13741,"åĩºåįĹéĹ¨":13742,"åĩºç®ķè°·":13743,"åĲ¾åİ»":13744,"åĲ¾åıĸ":13745,"åĲ¾ç¬ĳ":13746,"åĲ¾è§Ĩ":13747,"åĲ¾ä¸įèĥ½":13748,"åĲ¾åĨį":13749,"åĲ¾èĢ¶":13750,"åĲ¾æĽ¾":13751,"åĲ¾åľ¨æŃ¤":13752,"åĲ¾æľīä½ķ":13753,"åĲ¾çĪ¶åŃĲ":13754,"åĲ¾åĽº":13755,"åĲ¾æīĭä¸ĭ":13756,"åĲ¾æĺİæĹ¥":13757,"åĲ¾åĨĽå¿ĥ":13758,"åĲ¾ä½ķæĥ§åĵī":13759,"éĻĽ":13760,"æĢ¿":13761,"æĢģ":13762,"æĢħ":13763,"ä¾¥":13764,"åı¯äºİ":13765,"åı¯å½ĵ":13766,"åı¯ä¾¿":13767,"åı¯éĢĢ":13768,"åı¯æķĻ":13769,"åı¯ç«ĭ":13770,"åı¯å¼ķåħµ":13771,"åı¯åıĳ":13772,"åı¯åħ´":13773,"åı¯å¤į":13774,"åı¯å¯Ĩ":13775,"åı¯ä»»":13776,"åı¯å®¹":13777,"åı¯å¤º":13778,"åı¯ä¸Ģé¼ĵ":13779,"åı¯åĽ¾ä¹Ł":13780,"åı¯å®ļä¹Ł":13781,"è´©":13782,"è´»":13783,"å¯Ĥ":13784,"å¯Ķ":13785,"å¾·æĽ°":13786,"å¾·æĵį":13787,"å¾·èĸĦ":13788,"åĳĢ":13789,"åĲİä¼ļ":13790,"åĲİæĭ¥":13791,"åĲİæĿľå·¥éĥ¨":13792,"ä»¥æŁĲ":13793,"ä»¥æķĮ":13794,"ä»¥å¤´":13795,"ä»¥è¿İ":13796,"ä»¥ç¤¼":13797,"ä»¥æĶ¶":13798,"ä»¥éĩĳ":13799,"ä»¥æĵĴ":13800,"ä»¥æŀª":13801,"ä»¥åħ¨":13802,"ä»¥è¾ħ":13803,"ä»¥å¤§åħµ":13804,"ä»¥èį¯":13805,"ä»¥æĺ¾":13806,"ä»¥è¿İä¹ĭ":13807,"ä»¥æĭĴä¹ĭ":13808,"ä»¥åĲİäºĭ":13809,"ä»¥æĦļæĦı":13810,"æĺİä¹Ł":13811,"æĺİè¨Ģ":13812,"å¥¥":13813,"æĽ¹éĥ½çĿ£":13814,"æĽ¹èĬĤ":13815,"æĽ¹åŃŁå¾·":13816,"æĽ¹åŃĲä¸¹":13817,"æĽ¹çĨĬ":13818,"æĽ¹ç¾²":13819,"åħ¬ä¸º":13820,"åħ¬ä¸»":13821,"åħ¬å»":13822,"åħ¬çľŁ":13823,"åħ¬å®ľ":13824,"åħ¬ä½ķä¸į":13825,"åħ¬åı¯éĢŁ":13826,"ä¸Ĭè¨Ģ":13827,"ä¸Ĭèĩ³":13828,"ä¸ĬæĬ¥":13829,"ä¸ĬéĿ¢":13830,"ä¸ĬåĽ½":13831,"ä¸Ĭå»º":13832,"ä¸Ĭçİī":13833,"ä¸Ĭå¯¿":13834,"ä¸ĬåĨĻ":13835,"åīĲ":13836,"è¡¬":13837,"çļ¿":13838,"çļĭ":13839,"ä»Ĭä¸į":13840,"ä»ĬåĲ¾":13841,"ä»Ĭåħ¬":13842,"ä»Ĭä¸İ":13843,"ä»ĬçİĦå¾·":13844,"ä»Ĭä¹ĥ":13845,"ä»ĬåħĪ":13846,"ä»ĬæĪĳ":13847,"ä»Ĭå¤©":13848,"ä»Ĭåıª":13849,"ä»Ĭä»İ":13850,"ä»Ĭå¿½":13851,"ä»Ĭéģ£":13852,"ä»Ĭåıį":13853,"ä»ĬæľĿ":13854,"ä»ĬåŃĻæĿĥ":13855,"ä»Ĭä½ķä¸į":13856,"ä»ĬçļĩåıĶ":13857,"ä»Ĭå²ģ":13858,"ä»Ĭå¤§å°ĨåĨĽ":13859,"ä»ĬåĲ´ä¾¯":13860,"ä»ĬéŃıçİĭ":13861,"ä»ĬæŀľçĦ¶":13862,"çİĦåŃĻ":13863,"ä¸İä¼Ĺ":13864,"ä¸İåĲ´":13865,"ä¸İèľĢ":13866,"ä¸İèĩ£":13867,"ä¸İçŃĸ":13868,"ä¸İèĤĥ":13869,"ä¸İçĪ¶":13870,"ä¸İéŃıå»¶":13871,"ä¸İèī¾":13872,"ä¸İéŃıåħµ":13873,"ä¸İå¤«äºº":13874,"ä¸İåĳ¨çĳľ":13875,"ä¸İéĻĽä¸ĭ":13876,"ä¸İæľķ":13877,"ä¸İå¼łè¾½":13878,"ä¸İäºĮå°Ĩ":13879,"ä¸İé²ģèĤĥ":13880,"ä¸İé©¬å²±":13881,"ä¸İå¤ıä¾¯æĥĩ":13882,"ä¸İæĽ¹çľŁ":13883,"ä¸İçĶĺå®ģ":13884,"ä¸İæĽ¹ä¸ķ":13885,"ä¸İåĲ¾æľī":13886,"ä¸İç®ĢéĽį":13887,"ä¸İä¼Ĺè°ĭå£«åķĨè®®":13888,"ä¸İäºīéĶĭ":13889,"å¼łå°ĨåĨĽ":13890,"å¼łè¶ħ":13891,"å¼łæĻ®":13892,"å¼łéŁ³":13893,"å¼łäºĮå¼Ł":13894,"å¼łäºĮåħ¬":13895,"å¼łçº¯":13896,"æĭĻ":13897,"æĭļ":13898,"åİ»å¾Ĺ":13899,"åİ»å°±":13900,"åħ¶é©¬":13901,"åħ¶æīĢ":13902,"åħ¶çĶŁ":13903,"åħ¶åı£":13904,"åħ¶é¦ĸ":13905,"åħ¶æľ¯":13906,"åħ¶æĥħ":13907,"åħ¶ç²®èįī":13908,"åħ¶èĤī":13909,"åħ¶èģĮ":13910,"åħ¶åħļ":13911,"åħ¶å¿ħåĩº":13912,"çŃĭ":13913,"çİĦå¾·åĪ°":13914,"çİĦå¾·æŃ£":13915,"çİĦå¾·éģĤ":13916,"çİĦå¾·ä¾¿":13917,"çİĦå¾·æģĲ":13918,"çİĦå¾·çķĻ":13919,"çİĦå¾·è§Ĩä¹ĭ":13920,"çİĦå¾·æħĮ":13921,"çİĦå¾·ä»İåħ¶è¨Ģ":13922,"çİĦå¾·æħĮå¿Ļ":13923,"çİĦå¾·ä¾¿æķĻ":13924,"çİĦå¾·æĢ¥æŃ¢ä¹ĭæĽ°":13925,"çİĦå¾·æĭ±æīĭ":13926,"æĹ¥çŁ£":13927,"æĹ¥éĹ´":13928,"æĹ¥çĶļ":13929,"åŁİä¸ľ":13930,"åŁİä¸ĭå¯¨":13931,"èĥĸ":13932,"ä»¤åİ»":13933,"ä»¤å°ĨåĨĽ":13934,"ä»¤ä»ĸ":13935,"ä»¤å½¼":13936,"ä»¤åĪĺå¤ĩ":13937,"ä»¤å§ľç»´":13938,"ä»¤é»Ħå¿ł":13939,"ä»¤å¤§å°Ĩ":13940,"ä»¤å¤ıä¾¯æĥĩ":13941,"ä»¤ä¼ĹåĨĽ":13942,"ä»¤å»ĸåĮĸ":13943,"ä»¤è¿ĳèĩ£":13944,"åŃĶåİ»":13945,"ä¹ĥåĪĨ":13946,"ä¹ĥåĲĮ":13947,"ä¹ĥä½ľ":13948,"ä¹ĥäºĳéķ¿":13949,"ä¹ĥåıį":13950,"ä¹ĥå§ľç»´":13951,"ä¹ĥéĹ®æĽ°":13952,"ä¹ĥä¸ľåĲ´":13953,"ä¹ĥä»¤äºº":13954,"ä¹ĥæĽ¹æ´ª":13955,"ä¹ĥä½ľä¹¦":13956,"ä¹ĥæ±īå®¤å®Ĺäº²":13957,"ä¹ĥåħµå®¶":13958,"ä¹ĥåı¸é©¬æĩ¿ä¹Ł":13959,"ä¹ĥä¸Ńå±±éĿĸ":13960,"è¾ľ":13961,"èĭĳ":13962,"èĩªå°Ĩ":13963,"èĩªæĿĢ":13964,"èĩªå®ī":13965,"èĩªèµ·":13966,"èĩªéĻį":13967,"èĩªæĪĲéĥ½":13968,"èĩªæ¯Ķ":13969,"èĩªè®¸æĺĮ":13970,"èĩªä»£":13971,
[...]
